{
  "version": "1.0",
  "truncation": null,
  "padding": null,
  "added_tokens": [
    {
      "id": 0,
      "content": "[UNK]",
      "single_word": false,
      "lstrip": false,
      "rstrip": false,
      "normalized": false,
      "special": true
    },
    {
      "id": 4278,
      "content": "32",
      "single_word": false,
      "lstrip": false,
      "rstrip": false,
      "normalized": true,
      "special": false
    },
    {
      "id": 4279,
      "content": "ad",
      "single_word": false,
      "lstrip": false,
      "rstrip": false,
      "normalized": true,
      "special": false
    },
    {
      "id": 4280,
      "content": "19",
      "single_word": false,
      "lstrip": false,
      "rstrip": false,
      "normalized": true,
      "special": false
    },
    {
      "id": 4281,
      "content": "05",
      "single_word": false,
      "lstrip": false,
      "rstrip": false,
      "normalized": true,
      "special": false
    },
    {
      "id": 4282,
      "content": "34",
      "single_word": false,
      "lstrip": false,
      "rstrip": false,
      "normalized": true,
      "special": false
    },
    {
      "id": 4283,
      "content": "82",
      "single_word": false,
      "lstrip": false,
      "rstrip": false,
      "normalized": true,
      "special": false
    },
    {
      "id": 4284,
      "content": "0a",
      "single_word": false,
      "lstrip": false,
      "rstrip": false,
      "normalized": true,
      "special": false
    },
    {
      "id": 4285,
      "content": "3c",
      "single_word": false,
      "lstrip": false,
      "rstrip": false,
      "normalized": true,
      "special": false
    },
    {
      "id": 4286,
      "content": "0d",
      "single_word": false,
      "lstrip": false,
      "rstrip": false,
      "normalized": true,
      "special": false
    },
    {
      "id": 4287,
      "content": "2a",
      "single_word": false,
      "lstrip": false,
      "rstrip": false,
      "normalized": true,
      "special": false
    },
    {
      "id": 4288,
      "content": "1d",
      "single_word": false,
      "lstrip": false,
      "rstrip": false,
      "normalized": true,
      "special": false
    },
    {
      "id": 4289,
      "content": "75",
      "single_word": false,
      "lstrip": false,
      "rstrip": false,
      "normalized": true,
      "special": false
    },
    {
      "id": 4290,
      "content": "4d",
      "single_word": false,
      "lstrip": false,
      "rstrip": false,
      "normalized": true,
      "special": false
    },
    {
      "id": 4291,
      "content": "3f",
      "single_word": false,
      "lstrip": false,
      "rstrip": false,
      "normalized": true,
      "special": false
    },
    {
      "id": 4292,
      "content": "85",
      "single_word": false,
      "lstrip": false,
      "rstrip": false,
      "normalized": true,
      "special": false
    },
    {
      "id": 4293,
      "content": "25",
      "single_word": false,
      "lstrip": false,
      "rstrip": false,
      "normalized": true,
      "special": false
    },
    {
      "id": 4294,
      "content": "e6",
      "single_word": false,
      "lstrip": false,
      "rstrip": false,
      "normalized": true,
      "special": false
    },
    {
      "id": 4295,
      "content": "03",
      "single_word": false,
      "lstrip": false,
      "rstrip": false,
      "normalized": true,
      "special": false
    },
    {
      "id": 4296,
      "content": "36",
      "single_word": false,
      "lstrip": false,
      "rstrip": false,
      "normalized": true,
      "special": false
    },
    {
      "id": 4297,
      "content": "87",
      "single_word": false,
      "lstrip": false,
      "rstrip": false,
      "normalized": true,
      "special": false
    },
    {
      "id": 4298,
      "content": "0b",
      "single_word": false,
      "lstrip": false,
      "rstrip": false,
      "normalized": true,
      "special": false
    },
    {
      "id": 4299,
      "content": "09",
      "single_word": false,
      "lstrip": false,
      "rstrip": false,
      "normalized": true,
      "special": false
    },
    {
      "id": 4300,
      "content": "07",
      "single_word": false,
      "lstrip": false,
      "rstrip": false,
      "normalized": true,
      "special": false
    },
    {
      "id": 4301,
      "content": "b5",
      "single_word": false,
      "lstrip": false,
      "rstrip": false,
      "normalized": true,
      "special": false
    },
    {
      "id": 4302,
      "content": "e9",
      "single_word": false,
      "lstrip": false,
      "rstrip": false,
      "normalized": true,
      "special": false
    },
    {
      "id": 4303,
      "content": "04",
      "single_word": false,
      "lstrip": false,
      "rstrip": false,
      "normalized": true,
      "special": false
    },
    {
      "id": 4304,
      "content": "e2",
      "single_word": false,
      "lstrip": false,
      "rstrip": false,
      "normalized": true,
      "special": false
    },
    {
      "id": 4305,
      "content": "5d",
      "single_word": false,
      "lstrip": false,
      "rstrip": false,
      "normalized": true,
      "special": false
    },
    {
      "id": 4306,
      "content": "8d",
      "single_word": false,
      "lstrip": false,
      "rstrip": false,
      "normalized": true,
      "special": false
    },
    {
      "id": 4307,
      "content": "81",
      "single_word": false,
      "lstrip": false,
      "rstrip": false,
      "normalized": true,
      "special": false
    },
    {
      "id": 4308,
      "content": "8a",
      "single_word": false,
      "lstrip": false,
      "rstrip": false,
      "normalized": true,
      "special": false
    },
    {
      "id": 4309,
      "content": "e5",
      "single_word": false,
      "lstrip": false,
      "rstrip": false,
      "normalized": true,
      "special": false
    },
    {
      "id": 4310,
      "content": "0f",
      "single_word": false,
      "lstrip": false,
      "rstrip": false,
      "normalized": true,
      "special": false
    },
    {
      "id": 4311,
      "content": "e1",
      "single_word": false,
      "lstrip": false,
      "rstrip": false,
      "normalized": true,
      "special": false
    },
    {
      "id": 4312,
      "content": "06",
      "single_word": false,
      "lstrip": false,
      "rstrip": false,
      "normalized": true,
      "special": false
    },
    {
      "id": 4313,
      "content": "15",
      "single_word": false,
      "lstrip": false,
      "rstrip": false,
      "normalized": true,
      "special": false
    },
    {
      "id": 4314,
      "content": "ef",
      "single_word": false,
      "lstrip": false,
      "rstrip": false,
      "normalized": true,
      "special": false
    },
    {
      "id": 4315,
      "content": "84",
      "single_word": false,
      "lstrip": false,
      "rstrip": false,
      "normalized": true,
      "special": false
    },
    {
      "id": 4316,
      "content": "8e",
      "single_word": false,
      "lstrip": false,
      "rstrip": false,
      "normalized": true,
      "special": false
    },
    {
      "id": 4317,
      "content": "83",
      "single_word": false,
      "lstrip": false,
      "rstrip": false,
      "normalized": true,
      "special": false
    },
    {
      "id": 4318,
      "content": "37",
      "single_word": false,
      "lstrip": false,
      "rstrip": false,
      "normalized": true,
      "special": false
    },
    {
      "id": 4319,
      "content": "c6",
      "single_word": false,
      "lstrip": false,
      "rstrip": false,
      "normalized": true,
      "special": false
    },
    {
      "id": 4320,
      "content": "8f",
      "single_word": false,
      "lstrip": false,
      "rstrip": false,
      "normalized": true,
      "special": false
    },
    {
      "id": 4321,
      "content": "39",
      "single_word": false,
      "lstrip": false,
      "rstrip": false,
      "normalized": true,
      "special": false
    },
    {
      "id": 4322,
      "content": "8c",
      "single_word": false,
      "lstrip": false,
      "rstrip": false,
      "normalized": true,
      "special": false
    },
    {
      "id": 4323,
      "content": "ec",
      "single_word": false,
      "lstrip": false,
      "rstrip": false,
      "normalized": true,
      "special": false
    },
    {
      "id": 4324,
      "content": "3d",
      "single_word": false,
      "lstrip": false,
      "rstrip": false,
      "normalized": true,
      "special": false
    },
    {
      "id": 4325,
      "content": "65",
      "single_word": false,
      "lstrip": false,
      "rstrip": false,
      "normalized": true,
      "special": false
    },
    {
      "id": 4326,
      "content": "7d",
      "single_word": false,
      "lstrip": false,
      "rstrip": false,
      "normalized": true,
      "special": false
    },
    {
      "id": 4327,
      "content": "89",
      "single_word": false,
      "lstrip": false,
      "rstrip": false,
      "normalized": true,
      "special": false
    },
    {
      "id": 4328,
      "content": "01",
      "single_word": false,
      "lstrip": false,
      "rstrip": false,
      "normalized": true,
      "special": false
    },
    {
      "id": 4329,
      "content": "fd",
      "single_word": false,
      "lstrip": false,
      "rstrip": false,
      "normalized": true,
      "special": false
    },
    {
      "id": 4330,
      "content": "0c",
      "single_word": false,
      "lstrip": false,
      "rstrip": false,
      "normalized": true,
      "special": false
    },
    {
      "id": 4331,
      "content": "ba",
      "single_word": false,
      "lstrip": false,
      "rstrip": false,
      "normalized": true,
      "special": false
    },
    {
      "id": 4332,
      "content": "eb",
      "single_word": false,
      "lstrip": false,
      "rstrip": false,
      "normalized": true,
      "special": false
    },
    {
      "id": 4333,
      "content": "35",
      "single_word": false,
      "lstrip": false,
      "rstrip": false,
      "normalized": true,
      "special": false
    },
    {
      "id": 4334,
      "content": "e4",
      "single_word": false,
      "lstrip": false,
      "rstrip": false,
      "normalized": true,
      "special": false
    },
    {
      "id": 4335,
      "content": "ea",
      "single_word": false,
      "lstrip": false,
      "rstrip": false,
      "normalized": true,
      "special": false
    },
    {
      "id": 4336,
      "content": "86",
      "single_word": false,
      "lstrip": false,
      "rstrip": false,
      "normalized": true,
      "special": false
    },
    {
      "id": 4337,
      "content": "02",
      "single_word": false,
      "lstrip": false,
      "rstrip": false,
      "normalized": true,
      "special": false
    },
    {
      "id": 4338,
      "content": "ed",
      "single_word": false,
      "lstrip": false,
      "rstrip": false,
      "normalized": true,
      "special": false
    },
    {
      "id": 4339,
      "content": "bd",
      "single_word": false,
      "lstrip": false,
      "rstrip": false,
      "normalized": true,
      "special": false
    },
    {
      "id": 4340,
      "content": "cd",
      "single_word": false,
      "lstrip": false,
      "rstrip": false,
      "normalized": true,
      "special": false
    },
    {
      "id": 4341,
      "content": "31",
      "single_word": false,
      "lstrip": false,
      "rstrip": false,
      "normalized": true,
      "special": false
    }
  ],
  "normalizer": null,
  "pre_tokenizer": {
    "type": "Whitespace"
  },
  "post_processor": null,
  "decoder": null,
  "model": {
    "type": "BPE",
    "dropout": null,
    "unk_token": "[UNK]",
    "continuing_subword_prefix": null,
    "end_of_word_suffix": null,
    "fuse_unk": false,
    "byte_fallback": false,
    "vocab": {
      "[UNK]": 0,
      "0": 1,
      "1": 2,
      "2": 3,
      "3": 4,
      "4": 5,
      "5": 6,
      "6": 7,
      "7": 8,
      "8": 9,
      "9": 10,
      "a": 11,
      "b": 12,
      "c": 13,
      "d": 14,
      "e": 15,
      "f": 16,
      "x": 17,
      "0x": 18,
      "7f": 19,
      "0x7f": 20,
      "c1": 21,
      "0x7fc1": 22,
      "0x7fc16": 23,
      "0x7fc161": 24,
      "0x7fc1613": 25,
      "b3": 26,
      "55": 27,
      "bb3": 28,
      "0x55": 29,
      "0x55bb3": 30,
      "0x7fc1613b": 31,
      "80": 32,
      "90": 33,
      "a7": 34,
      "a9": 35,
      "dd": 36,
      "0e": 37,
      "8b": 38,
      "18": 39,
      "018": 40,
      "0x55bb35": 41,
      "0x55bb3580": 42,
      "a0": 43,
      "20": 44,
      "58": 45,
      "7e": 46,
      "9d": 47,
      "a2": 48,
      "56": 49,
      "6a": 50,
      "f018": 51,
      "2e": 52,
      "a80": 53,
      "290": 54,
      "7dd": 55,
      "a74": 56,
      "8a9": 57,
      "8b9": 58,
      "fdd": 59,
      "6aa0": 60,
      "5620": 61,
      "0x7ffdd": 62,
      "0x7ffdd2e": 63,
      "9d290": 64,
      "a2a80": 65,
      "8a990": 66,
      "7e0e": 67,
      "0x7fc16139d290": 68,
      "0x7fc1613a2a80": 69,
      "0x7fc16138a990": 70,
      "0x7fc1613a9": 71,
      "0x7fc16137dd": 72,
      "0x7fc1613b6aa0": 73,
      "0x7fc1613b5620": 74,
      "0x7fc1613b7e0e": 75,
      "a78b9": 76,
      "0x7ffdd2ea78b9": 77,
      "0x7fc1613a9a74": 78,
      "0x7fc16137dd58": 79,
      "0x55bb3580f018": 80,
      "0x7fc160e": 81,
      "0x7fc160ed": 82,
      "8b0": 83,
      "88b0": 84,
      "0x7fc160ed88b0": 85,
      "00": 86,
      "28": 87,
      "0x55bb37": 88,
      "0x55bb38": 89,
      "0x55bb3b": 90,
      "38": 91,
      "0x55bb39": 92,
      "48": 93,
      "008": 94,
      "0x55bb3a": 95,
      "0x55bb35806": 96,
      "0x55bb36": 97,
      "028": 98,
      "048": 99,
      "038": 100,
      "0x7fc15": 101,
      "08": 102,
      "c2": 103,
      "0x7fc15e": 104,
      "b35": 105,
      "0x55bb35806b35": 106,
      "c2c": 107,
      "0x55bb35806c2c": 108,
      "000": 109,
      "dc": 110,
      "c0": 111,
      "0x55bb357f": 112,
      "dc58": 113,
      "0x55bb357fdc58": 114,
      "30": 115,
      "f0": 116,
      "4b": 117,
      "60": 118,
      "70": 119,
      "10": 120,
      "40": 121,
      "50": 122,
      "0x7fc160": 123,
      "0x7fc15f": 124,
      "d0": 125,
      "df": 126,
      "b0": 127,
      "c3": 128,
      "e0": 129,
      "72": 130,
      "73": 131,
      "c4": 132,
      "f2": 133,
      "78": 134,
      "0x55bb37e": 135,
      "1018": 136,
      "7018": 137,
      "0x55bb37f": 138,
      "0x55bb36e": 139,
      "1008": 140,
      "a008": 141,
      "2008": 142,
      "68": 143,
      "7008": 144,
      "0x55bb380": 145,
      "4018": 146,
      "5008": 147,
      "8008": 148,
      "6018": 149,
      "0x55bb36f": 150,
      "9e": 151,
      "a018": 152,
      "5018": 153,
      "6008": 154,
      "c008": 155,
      "0x55bb368": 156,
      "9018": 157,
      "9008": 158,
      "33": 159,
      "4008": 160,
      "0x55bb390": 161,
      "c018": 162,
      "8018": 163,
      "b018": 164,
      "0x55bb378": 165,
      "0x55bb371": 166,
      "b008": 167,
      "0x7fc160ed72": 168,
      "0x7fc160ed724b": 169,
      "0x55bb37b": 170,
      "2028": 171,
      "0x55bb381": 172,
      "d018": 173,
      "0x55bb3c1": 174,
      "0x55bb374": 175,
      "de": 176,
      "d008": 177,
      "0x55bb38e": 178,
      "0x55bb376": 179,
      "0008": 180,
      "0x55bb370": 181,
      "4028": 182,
      "8028": 183,
      "0x55bb391": 184,
      "3018": 185,
      "0x55bb373": 186,
      "0x55bb372": 187,
      "0x55bb382": 188,
      "0x55bb388": 189,
      "f008": 190,
      "0x55bb39e": 191,
      "0x55bb379": 192,
      "0x55bb3ae": 193,
      "0x55bb3b3": 194,
      "0x55bb3a0": 195,
      "0x55bb3be": 196,
      "9028": 197,
      "0x55bb386": 198,
      "0x55bb38f": 199,
      "5028": 200,
      "a028": 201,
      "0x55bb3a9": 202,
      "0x55bb39d": 203,
      "ce": 204,
      "0x55bb375": 205,
      "0x7fc15df": 206,
      "c028": 207,
      "0x55bb3a1": 208,
      "2018": 209,
      "0x55bb383": 210,
      "0x55bb3a2": 211,
      "1028": 212,
      "a038": 213,
      "0x55bb37a": 214,
      "0x55bb384": 215,
      "0x55bb3bf": 216,
      "0x55bb398": 217,
      "0x55bb39b": 218,
      "2038": 219,
      "0x55bb3b8": 220,
      "0x55bb3af": 221,
      "6028": 222,
      "f028": 223,
      "0x55bb3b1": 224,
      "c048": 225,
      "0x55bb3a7": 226,
      "0x55bb3bb": 227,
      "0x55bb39f": 228,
      "0x7fc15e1": 229,
      "3008": 230,
      "d028": 231,
      "0x55bb38b": 232,
      "0x55bb389": 233,
      "0x55bb394": 234,
      "0x55bb3a8": 235,
      "0x55bb385": 236,
      "7048": 237,
      "0x55bb393": 238,
      "0x55bb36d": 239,
      "0x55bb399": 240,
      "0x55bb3ab": 241,
      "0x55bb396": 242,
      "8038": 243,
      "0x55bb3b6": 244,
      "5038": 245,
      "6048": 246,
      "0x55bb3b0": 247,
      "0x55bb3a4": 248,
      "b028": 249,
      "0x55bb3b2": 250,
      "0x55bb392": 251,
      "0x55bb3a3": 252,
      "0x55bb3a6": 253,
      "0x55bb367": 254,
      "9048": 255,
      "0x55bb37d": 256,
      "0x55bb36b": 257,
      "d048": 258,
      "a048": 259,
      "2048": 260,
      "0x55bb38a": 261,
      "7028": 262,
      "b048": 263,
      "e018": 264,
      "0x55bb3c0": 265,
      "0x55bb3b9": 266,
      "4038": 267,
      "6038": 268,
      "f048": 269,
      "55c": 270,
      "0x55bb3c2": 271,
      "0x55bb3b4": 272,
      "f038": 273,
      "0x7fc15e2": 274,
      "0x55bb3ba": 275,
      "0x55bb3580655c": 276,
      "0x55bb395": 277,
      "e008": 278,
      "0x7fc15e0": 279,
      "0x55bb36a": 280,
      "0x55bb36c": 281,
      "0x55bb39a": 282,
      "3028": 283,
      "0x55bb37c": 284,
      "0x55bb387": 285,
      "0x55bb3a5": 286,
      "0x55bb377": 287,
      "1038": 288,
      "0x55bb38d": 289,
      "5048": 290,
      "7038": 291,
      "d038": 292,
      "c038": 293,
      "1048": 294,
      "0x7fc16128": 295,
      "0x7fc16128f2": 296,
      "0x55bb3c3": 297,
      "0x55bb369": 298,
      "8048": 299,
      "0x55bb3b5": 300,
      "0x55bb3aa": 301,
      "4048": 302,
      "9038": 303,
      "0x55bb3ad": 304,
      "b038": 305,
      "0x55bb3bd": 306,
      "0x55bb38c": 307,
      "0x55bb3ac": 308,
      "0x55bb3bc": 309,
      "0x55bb397": 310,
      "0x55bb39c": 311,
      "0028": 312,
      "e028": 313,
      "0x55bb3b7": 314,
      "3048": 315,
      "3038": 316,
      "0048": 317,
      "e038": 318,
      "0038": 319,
      "567": 320,
      "98": 321,
      "0x55bb35806567": 322,
      "52": 323,
      "0x7fc16128f228": 324,
      "573": 325,
      "0x55bb35806573": 326,
      "e048": 327,
      "0x55bb35806b": 328,
      "0x55bb366": 329,
      "0x7fc15e3": 330,
      "0x55bb3c": 331,
      "0x55bb363": 332,
      "0x55bb364": 333,
      "b8": 334,
      "a8": 335,
      "f8": 336,
      "d8": 337,
      "c49": 338,
      "c8": 339,
      "0x55bb35806c49": 340,
      "0x55bb35806b52": 341,
      "2000": 342,
      "a000": 343,
      "0x55bb362": 344,
      "1e": 345,
      "7000": 346,
      "8000": 347,
      "088": 348,
      "9000": 349,
      "6000": 350,
      "1000": 351,
      "f000": 352,
      "5b": 353,
      "4000": 354,
      "c000": 355,
      "d000": 356,
      "53": 357,
      "5000": 358,
      "e8": 359,
      "d9e": 360,
      "6e": 361,
      "0x55bb35806d9e": 362,
      "91": 363,
      "0x7fc16128f233": 364,
      "5f": 365,
      "94": 366,
      "cc": 367,
      "9b": 368,
      "a3": 369,
      "63": 370,
      "54": 371,
      "1f": 372,
      "ab": 373,
      "6b": 374,
      "0000": 375,
      "5e": 376,
      "d1": 377,
      "41": 378,
      "93": 379,
      "4e": 380,
      "62": 381,
      "71": 382,
      "f3": 383,
      "d3": 384,
      "4f": 385,
      "6f": 386,
      "43": 387,
      "51": 388,
      "cb": 389,
      "74": 390,
      "7b": 391,
      "ae": 392,
      "cf": 393,
      "db": 394,
      "a1": 395,
      "88": 396,
      "af": 397,
      "59": 398,
      "d6": 399,
      "42": 400,
      "9f": 401,
      "4c": 402,
      "5c": 403,
      "d2": 404,
      "61": 405,
      "d9": 406,
      "0x7fc15de": 407,
      "bf": 408,
      "d4": 409,
      "df0": 410,
      "a00": 411,
      "69": 412,
      "d7": 413,
      "5a": 414,
      "12": 415,
      "13": 416,
      "57": 417,
      "67": 418,
      "92": 419,
      "b2": 420,
      "be": 421,
      "c10": 422,
      "0x7fc15f8": 423,
      "77": 424,
      "66": 425,
      "d30": 426,
      "fe": 427,
      "3e": 428,
      "14": 429,
      "ac": 430,
      "b000": 431,
      "79": 432,
      "a4": 433,
      "0x7fc15e8": 434,
      "0x7fc1602": 435,
      "6c": 436,
      "9c": 437,
      "4e018": 438,
      "aa0": 439,
      "b4": 440,
      "a90": 441,
      "ff": 442,
      "620": 443,
      "d5": 444,
      "800": 445,
      "8b008": 446,
      "64": 447,
      "97": 448,
      "ab0": 449,
      "0x7fc1608": 450,
      "0x7fc15ee": 451,
      "0x7fc1603": 452,
      "0x7fc15fe": 453,
      "0x55bb35806b98": 454,
      "ad0": 455,
      "17": 456,
      "23": 457,
      "500": 458,
      "ac0": 459,
      "b7018": 460,
      "d90": 461,
      "fb": 462,
      "dd0": 463,
      "af0": 464,
      "ad028": 465,
      "0x7fc1610": 466,
      "a6": 467,
      "a50": 468,
      "7f0": 469,
      "190": 470,
      "11008": 471,
      "5c0": 472,
      "5c028": 473,
      "a1008": 474,
      "db0": 475,
      "de0": 476,
      "7f018": 477,
      "7e008": 478,
      "c4018": 479,
      "a60": 480,
      "0e0": 481,
      "4b0": 482,
      "1a018": 483,
      "5a0": 484,
      "54028": 485,
      "53018": 486,
      "77018": 487,
      "b9": 488,
      "b1018": 489,
      "b0008": 490,
      "cc0": 491,
      "c5018": 492,
      "d60": 493,
      "db008": 494,
      "d0008": 495,
      "e3": 496,
      "fa018": 497,
      "55008": 498,
      "80018": 499,
      "a70": 500,
      "0x7fc15f3": 501,
      "bc": 502,
      "d20": 503,
      "f7": 504,
      "11": 505,
      "44": 506,
      "4d048": 507,
      "52018": 508,
      "5e008": 509,
      "60008": 510,
      "74018": 511,
      "94018": 512,
      "98008": 513,
      "a30": 514,
      "a4008": 515,
      "c7018": 516,
      "c0008": 517,
      "d00": 518,
      "fc": 519,
      "f6018": 520,
      "0x7fc1600": 521,
      "0x55bb367f": 522,
      "9d0": 523,
      "14018": 524,
      "1d018": 525,
      "48008": 526,
      "48028": 527,
      "51008": 528,
      "6c018": 529,
      "6b018": 530,
      "750": 531,
      "71018": 532,
      "9c0": 533,
      "9f0": 534,
      "91018": 535,
      "9b008": 536,
      "ac008": 537,
      "a3018": 538,
      "ae008": 539,
      "bc008": 540,
      "ec008": 541,
      "e3018": 542,
      "f8008": 543,
      "c1018": 544,
      "b30": 545,
      "a7018": 546,
      "0x55bb367e": 547,
      "0x55bb36df": 548,
      "0x55bb36de": 549,
      "0x55bb36ce": 550,
      "520": 551,
      "ae0": 552,
      "180": 553,
      "1f008": 554,
      "47008": 555,
      "44018": 556,
      "45018": 557,
      "5a018": 558,
      "5d008": 559,
      "67008": 560,
      "7a0": 561,
      "75018": 562,
      "990": 563,
      "920": 564,
      "9a008": 565,
      "97008": 566,
      "bd008": 567,
      "ca008": 568,
      "d80": 569,
      "d70": 570,
      "f5008": 571,
      "a7028": 572,
      "a0018": 573,
      "7e0": 574,
      "0x55bb3720": 575,
      "0x55bb377e": 576,
      "4b018": 577,
      "73008": 578,
      "9e028": 579,
      "0x55bb374e": 580,
      "5f0": 581,
      "1f018": 582,
      "12008": 583,
      "16008": 584,
      "1c008": 585,
      "12028": 586,
      "13008": 587,
      "4f018": 588,
      "40008": 589,
      "59008": 590,
      "54008": 591,
      "5b018": 592,
      "50008": 593,
      "5f008": 594,
      "670": 595,
      "65008": 596,
      "66018": 597,
      "a20": 598,
      "a9018": 599,
      "a9008": 600,
      "ae018": 601,
      "c20": 602,
      "ca018": 603,
      "cd018": 604,
      "da0": 605,
      "d50": 606,
      "d1008": 607,
      "d6018": 608,
      "d2018": 609,
      "f4008": 610,
      "ff008": 611,
      "fe008": 612,
      "2e0": 613,
      "0x55bb377f": 614,
      "0x55bb3780": 615,
      "0x55bb37df": 616,
      "0x55bb3873": 617,
      "0x55bb36dd": 618,
      "0x7fc15f0": 619,
      "c2018": 620,
      "10018": 621,
      "310": 622,
      "650": 623,
      "930": 624,
      "dc0": 625,
      "15008": 626,
      "16018": 627,
      "18018": 628,
      "1e018": 629,
      "39008": 630,
      "4a008": 631,
      "49008": 632,
      "4d018": 633,
      "4c028": 634,
      "580": 635,
      "5d0": 636,
      "51018": 637,
      "690": 638,
      "6b0": 639,
      "61018": 640,
      "6a008": 641,
      "69018": 642,
      "68018": 643,
      "65028": 644,
      "6f038": 645,
      "61048": 646,
      "78008": 647,
      "76008": 648,
      "79018": 649,
      "78038": 650,
      "96018": 651,
      "95018": 652,
      "94008": 653,
      "9c048": 654,
      "ab038": 655,
      "ba038": 656,
      "b4038": 657,
      "c90": 658,
      "cd0": 659,
      "c2008": 660,
      "c9008": 661,
      "cf028": 662,
      "c0028": 663,
      "d10": 664,
      "d5008": 665,
      "d5018": 666,
      "d4008": 667,
      "fa008": 668,
      "f7008": 669,
      "f4018": 670,
      "f9008": 671,
      "0x55bb37dd": 672,
      "80008": 673,
      "9d018": 674,
      "2e008": 675,
      "29008": 676,
      "0x55bb3755": 677,
      "0x55bb3790": 678,
      "0x55bb370e": 679,
      "0x55bb3700": 680,
      "0x55bb3750": 681,
      "0x55bb3773": 682,
      "0x55bb379e": 683,
      "0x55bb37ce": 684,
      "0x55bb3828": 685,
      "0x55bb3860": 686,
      "0x55bb3980": 687,
      "0x55bb39c3": 688,
      "0x55bb36dc": 689,
      "dc018": 690,
      "4b008": 691,
      "c3048": 692,
      "1b": 693,
      "9e0": 694,
      "17018": 695,
      "14008": 696,
      "10008": 697,
      "19028": 698,
      "2c": 699,
      "23018": 700,
      "36008": 701,
      "3d018": 702,
      "41018": 703,
      "42008": 704,
      "41028": 705,
      "43008": 706,
      "570": 707,
      "540": 708,
      "59018": 709,
      "5b008": 710,
      "5a038": 711,
      "5e018": 712,
      "6a0": 713,
      "6e0": 714,
      "62008": 715,
      "6c008": 716,
      "64008": 717,
      "67048": 718,
      "760": 719,
      "770": 720,
      "72008": 721,
      "7c018": 722,
      "7a028": 723,
      "7d048": 724,
      "9f018": 725,
      "940": 726,
      "92008": 727,
      "93018": 728,
      "a40": 729,
      "a1018": 730,
      "a2008": 731,
      "aa018": 732,
      "a5018": 733,
      "af028": 734,
      "b5008": 735,
      "b6018": 736,
      "bd018": 737,
      "b2018": 738,
      "c6008": 739,
      "cc008": 740,
      "c7048": 741,
      "da008": 742,
      "d3048": 743,
      "ee": 744,
      "f1018": 745,
      "f8018": 746,
      "f2028": 747,
      "f9028": 748,
      "fc048": 749,
      "fb028": 750,
      "fd038": 751,
      "7f028": 752,
      "c1008": 753,
      "b3008": 754,
      "55018": 755,
      "90008": 756,
      "200": 757,
      "20038": 758,
      "560": 759,
      "a8008": 760,
      "0x55bb37c1": 761,
      "0x55bb3758": 762,
      "0x55bb37dc": 763,
      "0x55bb374b": 764,
      "0x55bb3770": 765,
      "0x55bb3778": 766,
      "0x55bb3733": 767,
      "0x55bb38ce": 768,
      "0x55bb3b9d": 769,
      "0x55bb397f": 770,
      "0x55bb3680": 771,
      "0x55bb3673": 772,
      "df008": 773,
      "73018": 774,
      "0x55bb36e8": 775,
      "0x55bb36fe": 776,
      "0x55bb3688": 777,
      "0x55bb375e": 778,
      "0x55bb36d2": 779,
      "0x7fc16138": 780,
      "1a008": 781,
      "1b018": 782,
      "25018": 783,
      "3000": 784,
      "37008": 785,
      "38018": 786,
      "3f008": 787,
      "4f0": 788,
      "46018": 789,
      "42028": 790,
      "4a038": 791,
      "510": 792,
      "52008": 793,
      "5c018": 794,
      "50028": 795,
      "6d008": 796,
      "62018": 797,
      "63008": 798,
      "6d028": 799,
      "6e018": 800,
      "63028": 801,
      "730": 802,
      "710": 803,
      "75008": 804,
      "72028": 805,
      "7c048": 806,
      "70038": 807,
      "86008": 808,
      "91008": 809,
      "99018": 810,
      "9c018": 811,
      "99028": 812,
      "9b028": 813,
      "a6008": 814,
      "a5048": 815,
      "bb": 816,
      "b9018": 817,
      "b7048": 818,
      "b6048": 819,
      "be018": 820,
      "c80": 821,
      "c6018": 822,
      "c9018": 823,
      "cb018": 824,
      "cb008": 825,
      "c8028": 826,
      "cd028": 827,
      "c8038": 828,
      "c5038": 829,
      "d4018": 830,
      "da048": 831,
      "d0038": 832,
      "e2018": 833,
      "f7018": 834,
      "fc008": 835,
      "fc018": 836,
      "fb018": 837,
      "fd018": 838,
      "f0008": 839,
      "b3038": 840,
      "550": 841,
      "80048": 842,
      "900": 843,
      "90028": 844,
      "6a018": 845,
      "0x55bb379d": 846,
      "0x55bb37a2": 847,
      "0x55bb3756": 848,
      "0x55bb372e": 849,
      "0x55bb3738": 850,
      "0x55bb3748": 851,
      "0x55bb3730": 852,
      "0x55bb3760": 853,
      "0x55bb37b0": 854,
      "0x55bb37c3": 855,
      "0x55bb3768": 856,
      "0x55bb37de": 857,
      "0x55bb387f": 858,
      "0x55bb3880": 859,
      "0x55bb38dd": 860,
      "0x55bb3870": 861,
      "0x55bb38d0": 862,
      "0x55bb389e": 863,
      "0x55bb3833": 864,
      "0x55bb38de": 865,
      "0x55bb3bc1": 866,
      "0x55bb3bdd": 867,
      "0x55bb3bdf": 868,
      "0x55bb39a2": 869,
      "0x55bb399e": 870,
      "0x55bb3a8b": 871,
      "0x55bb3690": 872,
      "0x55bb36f0": 873,
      "0x55bb3670": 874,
      "0x55bb3678": 875,
      "0x7fc15f1": 876,
      "0x7fc15f2": 877,
      "c3038": 878,
      "0x55bb36f8": 879,
      "0x55bb3788": 880,
      "0x55bb3a98": 881,
      "0x55bb385e": 882,
      "720": 883,
      "56008": 884,
      "17008": 885,
      "15018": 886,
      "13028": 887,
      "13038": 888,
      "25008": 889,
      "39018": 890,
      "3a028": 891,
      "3e038": 892,
      "490": 893,
      "4f048": 894,
      "590": 895,
      "58008": 896,
      "600": 897,
      "67018": 898,
      "68028": 899,
      "63018": 900,
      "6e028": 901,
      "7a018": 902,
      "7d018": 903,
      "7b048": 904,
      "980": 905,
      "9a0": 906,
      "970": 907,
      "950": 908,
      "98018": 909,
      "9a028": 910,
      "92018": 911,
      "95038": 912,
      "a10": 913,
      "ab018": 914,
      "ab008": 915,
      "ad008": 916,
      "a2038": 917,
      "a6028": 918,
      "bf018": 919,
      "b8018": 920,
      "bb018": 921,
      "b1028": 922,
      "bb048": 923,
      "b5048": 924,
      "c60": 925,
      "c7008": 926,
      "c8008": 927,
      "c8018": 928,
      "cf038": 929,
      "d1018": 930,
      "d8018": 931,
      "d5028": 932,
      "d7048": 933,
      "d9038": 934,
      "e1008": 935,
      "fe0": 936,
      "f9018": 937,
      "fe038": 938,
      "b3018": 939,
      "0x55bb38a9": 940,
      "20018": 941,
      "20008": 942,
      "7e048": 943,
      "56028": 944,
      "56038": 945,
      "2e018": 946,
      "a8018": 947,
      "29018": 948,
      "0x55bb37a7": 949,
      "0x55bb37a9": 950,
      "0x55bb378b": 951,
      "0x55bb37a0": 952,
      "0x55bb3728": 953,
      "0x55bb3710": 954,
      "0x55bb3740": 955,
      "0x55bb3772": 956,
      "0x55bb38a2": 957,
      "0x55bb38c3": 958,
      "0x55bb3b2e": 959,
      "0x55bb3bf0": 960,
      "0x55bb39dd": 961,
      "0x55bb3a58": 962,
      "0x55bb3a56": 963,
      "0x55bb3adf": 964,
      "0x55bb3a33": 965,
      "0x55bb36d0": 966,
      "0x55bb3672": 967,
      "0x55bb36f2": 968,
      "30018": 969,
      "f0018": 970,
      "4b048": 971,
      "70018": 972,
      "0x7fc1601": 973,
      "0x7fc160b": 974,
      "0x7fc160c": 975,
      "9e018": 976,
      "33008": 977,
      "0x55bb3900": 978,
      "0x55bb376e": 979,
      "0x55bb373e": 980,
      "0x55bb3798": 981,
      "0x55bb38fe": 982,
      "ce018": 983,
      "ce008": 984,
      "ce028": 985,
      "0x55bb398e": 986,
      "0x55bb39b8": 987,
      "0x55bb3afe": 988,
      "0x55bb36d3": 989,
      "0x55bb3c0e": 990,
      "400": 991,
      "19008": 992,
      "1b008": 993,
      "1d008": 994,
      "14028": 995,
      "15028": 996,
      "12018": 997,
      "11028": 998,
      "21018": 999,
      "2f028": 1000,
      "3b": 1001,
      "3c018": 1002,
      "30008": 1003,
      "31028": 1004,
      "440": 1005,
      "4c008": 1006,
      "49018": 1007,
      "44028": 1008,
      "43018": 1009,
      "45028": 1010,
      "46028": 1011,
      "46038": 1012,
      "47038": 1013,
      "43048": 1014,
      "5e0": 1015,
      "57018": 1016,
      "57008": 1017,
      "58018": 1018,
      "5d018": 1019,
      "53008": 1020,
      "680": 1021,
      "6f018": 1022,
      "61008": 1023,
      "6b008": 1024,
      "62028": 1025,
      "62048": 1026,
      "64038": 1027,
      "6d038": 1028,
      "6c038": 1029,
      "64048": 1030,
      "60038": 1031,
      "780": 1032,
      "7a008": 1033,
      "79008": 1034,
      "7b018": 1035,
      "7d008": 1036,
      "7b028": 1037,
      "98028": 1038,
      "93008": 1039,
      "96038": 1040,
      "93038": 1041,
      "a4018": 1042,
      "a6018": 1043,
      "ac018": 1044,
      "ac048": 1045,
      "a3008": 1046,
      "a5038": 1047,
      "af038": 1048,
      "a3028": 1049,
      "b1008": 1050,
      "b8008": 1051,
      "b8028": 1052,
      "bf008": 1053,
      "b6028": 1054,
      "ba048": 1055,
      "cf018": 1056,
      "c00": 1057,
      "c30": 1058,
      "c70": 1059,
      "c5008": 1060,
      "c2048": 1061,
      "cb048": 1062,
      "df018": 1063,
      "d40": 1064,
      "d7018": 1065,
      "db018": 1066,
      "d8038": 1067,
      "d6038": 1068,
      "f80": 1069,
      "f00": 1070,
      "f3018": 1071,
      "f6048": 1072,
      "fb038": 1073,
      "c1028": 1074,
      "55028": 1075,
      "0x55bb3bb3": 1076,
      "0x55bb3a74": 1077,
      "0x55bb38b0": 1078,
      "90018": 1079,
      "a7008": 1080,
      "dd028": 1081,
      "8b018": 1082,
      "a0038": 1083,
      "20028": 1084,
      "9d008": 1085,
      "a2018": 1086,
      "0x55bb37b3": 1087,
      "0x55bb38c1": 1088,
      "0x55bb3855": 1089,
      "0x55bb3890": 1090,
      "0x55bb3818": 1091,
      "0x55bb389d": 1092,
      "0x55bb3838": 1093,
      "0x55bb3848": 1094,
      "0x55bb38dc": 1095,
      "0x55bb3840": 1096,
      "0x55bb3b7f": 1097,
      "0x55bb3b18": 1098,
      "0x55bb3b20": 1099,
      "0x55bb3b56": 1100,
      "0x55bb3b28": 1101,
      "0x55bb3b4b": 1102,
      "0x55bb3bc3": 1103,
      "0x55bb3b72": 1104,
      "0x55bb3b73": 1105,
      "0x55bb3bc4": 1106,
      "0x55bb3b9e": 1107,
      "0x55bb3bde": 1108,
      "0x55bb3bce": 1109,
      "0x55bb39c1": 1110,
      "0x55bb3956": 1111,
      "0x55bb392e": 1112,
      "0x55bb3950": 1113,
      "0x55bb39e0": 1114,
      "0x55bb3973": 1115,
      "0x55bb3933": 1116,
      "0x55bb39ce": 1117,
      "0x55bb3a90": 1118,
      "0x55bb3add": 1119,
      "0x55bb3a0e": 1120,
      "0x55bb368b": 1121,
      "0x55bb36c0": 1122,
      "0x7fc15ef": 1123,
      "0x7fc15e2e": 1124,
      "0x7fc15e33": 1125,
      "dc048": 1126,
      "40018": 1127,
      "50018": 1128,
      "0x7fc15f4": 1129,
      "df028": 1130,
      "72018": 1131,
      "f2018": 1132,
      "0x55bb37e0": 1133,
      "0x55bb3800": 1134,
      "0x55bb368e": 1135,
      "0x55bb37be": 1136,
      "de048": 1137,
      "0x55bb38ee": 1138,
      "0x55bb3763": 1139,
      "0x55bb3732": 1140,
      "0x55bb383e": 1141,
      "0x55bb37ae": 1142,
      "0x55bb384e": 1143,
      "0x55bb39be": 1144,
      "0x55bb3af3": 1145,
      "0x55bb38b8": 1146,
      "0x55bb393e": 1147,
      "0x55bb36c8": 1148,
      "0x55bb366e": 1149,
      "0x55bb3c2e": 1150,
      "1c0": 1151,
      "1d0": 1152,
      "18028": 1153,
      "1b028": 1154,
      "19048": 1155,
      "16038": 1156,
      "1e028": 1157,
      "2b018": 1158,
      "2d008": 1159,
      "34018": 1160,
      "34028": 1161,
      "41008": 1162,
      "4a018": 1163,
      "46008": 1164,
      "4c018": 1165,
      "42038": 1166,
      "45038": 1167,
      "40048": 1168,
      "5b0": 1169,
      "51028": 1170,
      "5f028": 1171,
      "5d048": 1172,
      "52048": 1173,
      "5f048": 1174,
      "53028": 1175,
      "57038": 1176,
      "69008": 1177,
      "64028": 1178,
      "69028": 1179,
      "66028": 1180,
      "66048": 1181,
      "6f048": 1182,
      "6e038": 1183,
      "740": 1184,
      "71008": 1185,
      "76018": 1186,
      "7c008": 1187,
      "7b008": 1188,
      "79028": 1189,
      "75028": 1190,
      "72038": 1191,
      "77048": 1192,
      "76048": 1193,
      "95008": 1194,
      "9a018": 1195,
      "96008": 1196,
      "92028": 1197,
      "94028": 1198,
      "9f008": 1199,
      "9f038": 1200,
      "97038": 1201,
      "aa008": 1202,
      "af008": 1203,
      "a4038": 1204,
      "ae028": 1205,
      "b4008": 1206,
      "b9028": 1207,
      "bc028": 1208,
      "bc048": 1209,
      "b9048": 1210,
      "b2048": 1211,
      "be028": 1212,
      "cb0": 1213,
      "cd008": 1214,
      "cc028": 1215,
      "cc038": 1216,
      "c9038": 1217,
      "da": 1218,
      "d7008": 1219,
      "d8008": 1220,
      "da018": 1221,
      "d2038": 1222,
      "d9048": 1223,
      "f1038": 1224,
      "f3048": 1225,
      "7f038": 1226,
      "0x55bb3a80": 1227,
      "0x55bb3c2c": 1228,
      "dd048": 1229,
      "9d048": 1230,
      "9d038": 1231,
      "a8038": 1232,
      "29048": 1233,
      "0x55bb3718": 1234,
      "0x55bb37c2": 1235,
      "0x55bb37c0": 1236,
      "0x55bb37d0": 1237,
      "0x55bb37c4": 1238,
      "0x55bb38a7": 1239,
      "0x55bb38a0": 1240,
      "0x55bb3820": 1241,
      "0x55bb387e": 1242,
      "0x55bb3856": 1243,
      "0x55bb382e": 1244,
      "0x55bb3830": 1245,
      "0x55bb384b": 1246,
      "0x55bb3810": 1247,
      "0x55bb38df": 1248,
      "0x55bb3868": 1249,
      "0x55bb3b55": 1250,
      "0x55bb3b80": 1251,
      "0x55bb3ba9": 1252,
      "0x55bb3b0e": 1253,
      "0x55bb3ba0": 1254,
      "0x55bb3b58": 1255,
      "0x55bb3b7e": 1256,
      "0x55bb3b6a": 1257,
      "0x55bb3bdc": 1258,
      "0x55bb3be0": 1259,
      "0x55bb3b78": 1260,
      "0x55bb3990": 1261,
      "0x55bb39a9": 1262,
      "0x55bb397e": 1263,
      "0x55bb3930": 1264,
      "0x55bb3a7f": 1265,
      "0x55bb3ac1": 1266,
      "0x55bb3a55": 1267,
      "0x55bb3aa9": 1268,
      "0x55bb3adc": 1269,
      "0x55bb3a30": 1270,
      "0x55bb3a4b": 1271,
      "0x55bb3a50": 1272,
      "0x55bb3ac3": 1273,
      "0x55bb3ae0": 1274,
      "0x55bb3ac4": 1275,
      "0x55bb3ace": 1276,
      "0x55bb36c1": 1277,
      "0x55bb36a9": 1278,
      "0x55bb36c3": 1279,
      "0x55bb369e": 1280,
      "0x7fc15e7": 1281,
      "0x7fc15e0e": 1282,
      "4b028": 1283,
      "60018": 1284,
      "0x7fc15fc": 1285,
      "0x7fc15ff": 1286,
      "e0018": 1287,
      "73028": 1288,
      "0x55bb37e8": 1289,
      "0x55bb37ee": 1290,
      "0x55bb37f0": 1291,
      "0x55bb36ee": 1292,
      "0x55bb36f3": 1293,
      "9e008": 1294,
      "9e038": 1295,
      "33028": 1296,
      "0x55bb3902": 1297,
      "0x55bb390e": 1298,
      "0x55bb371e": 1299,
      "0x55bb37b8": 1300,
      "0x55bb3c1e": 1301,
      "0x55bb3888": 1302,
      "0x55bb388e": 1303,
      "0x55bb39ee": 1304,
      "0x55bb3ae8": 1305,
      "0x55bb38f3": 1306,
      "0x55bb39de": 1307,
      "ce038": 1308,
      "0x55bb3752": 1309,
      "0x55bb37a8": 1310,
      "0x55bb3bf8": 1311,
      "0x55bb3b88": 1312,
      "0x55bb3b1e": 1313,
      "0x55bb3a70": 1314,
      "0x7fc15e1e": 1315,
      "0x55bb38b2": 1316,
      "0x55bb3a88": 1317,
      "0x55bb3a8e": 1318,
      "0x55bb3998": 1319,
      "0x55bb3a4e": 1320,
      "0x55bb37d8": 1321,
      "0x55bb36b8": 1322,
      "0x7fc15e23": 1323,
      "0x55bb3ba8": 1324,
      "0x55bb395e": 1325,
      "0x55bb36a8": 1326,
      "0x55bb39ae": 1327,
      "0x55bb37c8": 1328,
      "0x55bb3a5e": 1329,
      "0x55bb3b5e": 1330,
      "0x55bb3aae": 1331,
      "0x55bb3ad8": 1332,
      "0x55bb3bc8": 1333,
      "0x55bb3c20": 1334,
      "0x55bb3c28": 1335,
      "160": 1336,
      "1c018": 1337,
      "1c028": 1338,
      "1c048": 1339,
      "17048": 1340,
      "1b048": 1341,
      "1b038": 1342,
      "10048": 1343,
      "2b": 1344,
      "2a008": 1345,
      "28008": 1346,
      "24028": 1347,
      "2a028": 1348,
      "23008": 1349,
      "26048": 1350,
      "2f048": 1351,
      "4a0": 1352,
      "430": 1353,
      "460": 1354,
      "47018": 1355,
      "45008": 1356,
      "44008": 1357,
      "4f028": 1358,
      "4c048": 1359,
      "4e008": 1360,
      "4d038": 1361,
      "5f018": 1362,
      "5c008": 1363,
      "58028": 1364,
      "57048": 1365,
      "58038": 1366,
      "57028": 1367,
      "5d038": 1368,
      "59038": 1369,
      "5b038": 1370,
      "6f0": 1371,
      "660": 1372,
      "640": 1373,
      "68008": 1374,
      "66008": 1375,
      "6a028": 1376,
      "6a038": 1377,
      "6f028": 1378,
      "65038": 1379,
      "69048": 1380,
      "6d048": 1381,
      "7d0": 1382,
      "77008": 1383,
      "70008": 1384,
      "74028": 1385,
      "78028": 1386,
      "77038": 1387,
      "70028": 1388,
      "70048": 1389,
      "9a": 1390,
      "9b018": 1391,
      "95028": 1392,
      "99048": 1393,
      "97028": 1394,
      "93028": 1395,
      "91048": 1396,
      "af018": 1397,
      "aa028": 1398,
      "a6048": 1399,
      "a6038": 1400,
      "b6008": 1401,
      "bb008": 1402,
      "b2028": 1403,
      "bb028": 1404,
      "b4048": 1405,
      "c50": 1406,
      "cc018": 1407,
      "c6048": 1408,
      "cb028": 1409,
      "d9018": 1410,
      "d9008": 1411,
      "d2028": 1412,
      "d3018": 1413,
      "d3008": 1414,
      "d3028": 1415,
      "d8048": 1416,
      "f30": 1417,
      "f1028": 1418,
      "ff028": 1419,
      "f3008": 1420,
      "fd028": 1421,
      "ff048": 1422,
      "ff038": 1423,
      "f0048": 1424,
      "c1038": 1425,
      "0x7fc1612": 1426,
      "b3048": 1427,
      "0x55bb38b9": 1428,
      "0e008": 1429,
      "0e028": 1430,
      "a0028": 1431,
      "a0048": 1432,
      "7e018": 1433,
      "56018": 1434,
      "2e048": 1435,
      "00028": 1436,
      "0x55bb3708": 1437,
      "0x55bb38b3": 1438,
      "0x55bb38c0": 1439,
      "0x55bb38f0": 1440,
      "0x55bb3872": 1441,
      "0x55bb38c4": 1442,
      "0x55bb3b8b": 1443,
      "0x55bb3b00": 1444,
      "0x55bb3bc2": 1445,
      "0x55bb3bc0": 1446,
      "0x55bb3bd0": 1447,
      "0x55bb3b68": 1448,
      "0x55bb39b3": 1449,
      "0x55bb3955": 1450,
      "0x55bb3918": 1451,
      "0x55bb39a0": 1452,
      "0x55bb399d": 1453,
      "0x55bb3938": 1454,
      "0x55bb3948": 1455,
      "0x55bb39c0": 1456,
      "0x55bb394b": 1457,
      "0x55bb3972": 1458,
      "0x55bb3978": 1459,
      "0x55bb3aa0": 1460,
      "0x55bb3aa2": 1461,
      "0x55bb3a38": 1462,
      "0x55bb3a48": 1463,
      "0x55bb3ac0": 1464,
      "0x55bb3a10": 1465,
      "0x55bb3ad0": 1466,
      "0x55bb3a68": 1467,
      "0x55bb3ade": 1468,
      "0x55bb36c4": 1469,
      "0x7fc15e28": 1470,
      "c4048": 1471,
      "0x55bb37e2": 1472,
      "0x55bb37f8": 1473,
      "0x55bb37fe": 1474,
      "0x55bb3808": 1475,
      "0x55bb3908": 1476,
      "0x55bb378e": 1477,
      "0x55bb3713": 1478,
      "de008": 1479,
      "de028": 1480,
      "0x55bb38e8": 1481,
      "0x55bb391e": 1482,
      "0x55bb3823": 1483,
      "0x55bb3a08": 1484,
      "0x55bb3bee": 1485,
      "0x55bb3863": 1486,
      "0x55bb39d0": 1487,
      "0x55bb3a28": 1488,
      "0x55bb3b8e": 1489,
      "0x55bb3b12": 1490,
      "0x55bb3bbe": 1491,
      "0x55bb39f8": 1492,
      "0x55bb38be": 1493,
      "0x55bb394e": 1494,
      "0x55bb36d8": 1495,
      "0x55bb3ab8": 1496,
      "0x55bb3abe": 1497,
      "0x55bb396e": 1498,
      "0x55bb3a3e": 1499,
      "0x55bb3a63": 1500,
      "0x55bb38a8": 1501,
      "0x55bb3bae": 1502,
      "0x55bb3693": 1503,
      "0x55bb3bd8": 1504,
      "0x55bb3c38": 1505,
      "f20": 1506,
      "1f0": 1507,
      "170": 1508,
      "140": 1509,
      "18008": 1510,
      "19018": 1511,
      "1a038": 1512,
      "1d028": 1513,
      "1d048": 1514,
      "1e008": 1515,
      "18048": 1516,
      "1e038": 1517,
      "2b0": 1518,
      "27018": 1519,
      "24018": 1520,
      "22028": 1521,
      "27028": 1522,
      "3b018": 1523,
      "32018": 1524,
      "3d028": 1525,
      "410": 1526,
      "48018": 1527,
      "49028": 1528,
      "44038": 1529,
      "41038": 1530,
      "40028": 1531,
      "43038": 1532,
      "52028": 1533,
      "54038": 1534,
      "630": 1535,
      "610": 1536,
      "6d0": 1537,
      "6d018": 1538,
      "6b028": 1539,
      "6b048": 1540,
      "6e008": 1541,
      "61038": 1542,
      "700": 1543,
      "7b0": 1544,
      "71028": 1545,
      "7d028": 1546,
      "79048": 1547,
      "71048": 1548,
      "78048": 1549,
      "910": 1550,
      "9b0": 1551,
      "97018": 1552,
      "9c028": 1553,
      "92038": 1554,
      "96028": 1555,
      "92048": 1556,
      "91038": 1557,
      "a5008": 1558,
      "a4028": 1559,
      "a9028": 1560,
      "aa038": 1561,
      "a2048": 1562,
      "af048": 1563,
      "a1048": 1564,
      "b00": 1565,
      "b2008": 1566,
      "b9008": 1567,
      "bf028": 1568,
      "b8038": 1569,
      "bf048": 1570,
      "bd038": 1571,
      "be038": 1572,
      "be048": 1573,
      "cf0": 1574,
      "cf008": 1575,
      "c9028": 1576,
      "ca028": 1577,
      "ca038": 1578,
      "c6028": 1579,
      "c0048": 1580,
      "d5038": 1581,
      "d6048": 1582,
      "d2048": 1583,
      "db048": 1584,
      "d4038": 1585,
      "f90": 1586,
      "ff0": 1587,
      "f1008": 1588,
      "f5018": 1589,
      "f5028": 1590,
      "f2038": 1591,
      "f8038": 1592,
      "fe018": 1593,
      "f6038": 1594,
      "f3028": 1595,
      "f5048": 1596,
      "f7038": 1597,
      "f3038": 1598,
      "0x55bb3b35": 1599,
      "a7038": 1600,
      "dd008": 1601,
      "0e018": 1602,
      "20048": 1603,
      "7e028": 1604,
      "8b038": 1605,
      "00008": 1606,
      "0x55bb376a": 1607,
      "0x55bb388b": 1608,
      "0x55bb38e0": 1609,
      "0x55bb38f2": 1610,
      "0x55bb3b90": 1611,
      "0x55bb3ba2": 1612,
      "0x55bb3b48": 1613,
      "0x55bb3b08": 1614,
      "0x55bb3b60": 1615,
      "0x55bb3b40": 1616,
      "0x55bb3b50": 1617,
      "0x55bb3bb0": 1618,
      "0x55bb3958": 1619,
      "0x55bb3928": 1620,
      "0x55bb39c2": 1621,
      "0x55bb39f0": 1622,
      "0x55bb3960": 1623,
      "0x55bb3970": 1624,
      "0x55bb3910": 1625,
      "0x55bb3940": 1626,
      "0x55bb39b0": 1627,
      "0x55bb39c4": 1628,
      "0x55bb3ab3": 1629,
      "0x55bb3aa7": 1630,
      "0x55bb3a18": 1631,
      "0x55bb3a20": 1632,
      "0x55bb3a6a": 1633,
      "0x55bb3af0": 1634,
      "0x55bb3ab0": 1635,
      "0x55bb36b3": 1636,
      "0x55bb36c2": 1637,
      "0x55bb36e0": 1638,
      "0x7fc15df0": 1639,
      "0x7fc15e4": 1640,
      "0x7fc15e18": 1641,
      "0x7fc15e20": 1642,
      "0x7fc15e00": 1643,
      "0x7fc15e38": 1644,
      "0x7fc15e08": 1645,
      "0x7fc15e30": 1646,
      "dc008": 1647,
      "dc028": 1648,
      "0x7fc1604": 1649,
      "0x7fc1609": 1650,
      "0x7fc160a": 1651,
      "d0018": 1652,
      "df048": 1653,
      "c3018": 1654,
      "c3028": 1655,
      "c4008": 1656,
      "c4038": 1657,
      "0x55bb3803": 1658,
      "0x55bb380e": 1659,
      "0x55bb3c10": 1660,
      "0x55bb3c18": 1661,
      "de018": 1662,
      "de038": 1663,
      "0x55bb39e8": 1664,
      "0x55bb3aee": 1665,
      "0x55bb3b30": 1666,
      "0x55bb3b38": 1667,
      "0x55bb3a00": 1668,
      "0x55bb3a9e": 1669,
      "0x55bb39d8": 1670,
      "0x7fc15df8": 1671,
      "0x7fc15dfe": 1672,
      "0x55bb3a2e": 1673,
      "0x55bb3bfe": 1674,
      "0x55bb3988": 1675,
      "0x55bb3af8": 1676,
      "0x55bb3a78": 1677,
      "0x55bb3a7e": 1678,
      "0x55bb3bb2": 1679,
      "0x55bb3898": 1680,
      "0x55bb3b63": 1681,
      "0x55bb3b6e": 1682,
      "0x55bb36be": 1683,
      "0x55bb38ae": 1684,
      "0x55bb3b98": 1685,
      "0x55bb3b43": 1686,
      "0x55bb3b4e": 1687,
      "0x55bb36ae": 1688,
      "0x55bb38d2": 1689,
      "0x55bb3c30": 1690,
      "0x7fc15dee": 1691,
      "110": 1692,
      "470": 1693,
      "4e0": 1694,
      "fa0": 1695,
      "1b0": 1696,
      "11018": 1697,
      "1a028": 1698,
      "18038": 1699,
      "15038": 1700,
      "17028": 1701,
      "11038": 1702,
      "15048": 1703,
      "19038": 1704,
      "10038": 1705,
      "270": 1706,
      "250": 1707,
      "2c018": 1708,
      "2b008": 1709,
      "26038": 1710,
      "2c038": 1711,
      "28048": 1712,
      "35018": 1713,
      "3b028": 1714,
      "42018": 1715,
      "47028": 1716,
      "49038": 1717,
      "4e028": 1718,
      "530": 1719,
      "5a008": 1720,
      "54018": 1721,
      "5a028": 1722,
      "5b048": 1723,
      "5e028": 1724,
      "6c0": 1725,
      "64018": 1726,
      "68038": 1727,
      "6a048": 1728,
      "65048": 1729,
      "68048": 1730,
      "63038": 1731,
      "6e048": 1732,
      "7c028": 1733,
      "7a038": 1734,
      "76028": 1735,
      "74038": 1736,
      "7c038": 1737,
      "74048": 1738,
      "960": 1739,
      "9c008": 1740,
      "99008": 1741,
      "9b048": 1742,
      "9f048": 1743,
      "94048": 1744,
      "a2028": 1745,
      "ad018": 1746,
      "ab028": 1747,
      "aa048": 1748,
      "a9038": 1749,
      "ba008": 1750,
      "b7008": 1751,
      "b4028": 1752,
      "b5028": 1753,
      "b5038": 1754,
      "be008": 1755,
      "b0048": 1756,
      "ca0": 1757,
      "c5028": 1758,
      "c2038": 1759,
      "c0038": 1760,
      "d7028": 1761,
      "d1038": 1762,
      "d7038": 1763,
      "d1048": 1764,
      "e000": 1765,
      "f50": 1766,
      "f2008": 1767,
      "fa028": 1768,
      "f0028": 1769,
      "c1048": 1770,
      "90038": 1771,
      "dd018": 1772,
      "0e048": 1773,
      "0e038": 1774,
      "a0008": 1775,
      "2e038": 1776,
      "a8028": 1777,
      "a8048": 1778,
      "29028": 1779,
      "0x55bb3858": 1780,
      "0x55bb38c2": 1781,
      "0x55bb3850": 1782,
      "0x55bb3878": 1783,
      "0x55bb3ba7": 1784,
      "0x55bb3b70": 1785,
      "0x55bb3b10": 1786,
      "0x55bb398b": 1787,
      "0x55bb3920": 1788,
      "0x55bb396a": 1789,
      "0x55bb39f2": 1790,
      "0x55bb3968": 1791,
      "0x55bb3a60": 1792,
      "0x55bb3a40": 1793,
      "0x55bb3af2": 1794,
      "0x55bb36a7": 1795,
      "0x55bb36a2": 1796,
      "0x55bb36b0": 1797,
      "0x7fc15e10": 1798,
      "0x7fc15f7": 1799,
      "c3008": 1800,
      "73038": 1801,
      "0x55bb3802": 1802,
      "0x55bb3682": 1803,
      "33038": 1804,
      "0x55bb381e": 1805,
      "0x55bb3c13": 1806,
      "0x55bb38e3": 1807,
      "0x55bb3793": 1808,
      "0x55bb3b3e": 1809,
      "0x55bb3be8": 1810,
      "0x55bb386e": 1811,
      "0x55bb3753": 1812,
      "0x7fc15df1": 1813,
      "0x7fc15df3": 1814,
      "0x7fc15dff": 1815,
      "0x55bb3a1e": 1816,
      "0x55bb3bb8": 1817,
      "0x55bb39fe": 1818,
      "0x7fc15e11": 1819,
      "0x55bb3a43": 1820,
      "0x7fc15e2f": 1821,
      "0x7fc15e03": 1822,
      "0x55bb39a8": 1823,
      "0x55bb38d8": 1824,
      "0x55bb3c33": 1825,
      "0x55bb3698": 1826,
      "0x55bb3aa8": 1827,
      "0x55bb3ad3": 1828,
      "0x55bb38c8": 1829,
      "0x55bb39c8": 1830,
      "0x55bb3c00": 1831,
      "0x55bb3c08": 1832,
      "100": 1833,
      "12038": 1834,
      "1a048": 1835,
      "1f038": 1836,
      "17038": 1837,
      "1d038": 1838,
      "1e048": 1839,
      "220": 1840,
      "2c0": 1841,
      "230": 1842,
      "2f0": 1843,
      "26018": 1844,
      "22018": 1845,
      "2d028": 1846,
      "28038": 1847,
      "25048": 1848,
      "480": 1849,
      "420": 1850,
      "4f008": 1851,
      "4a028": 1852,
      "49048": 1853,
      "4f038": 1854,
      "43028": 1855,
      "4e038": 1856,
      "59048": 1857,
      "5f038": 1858,
      "51038": 1859,
      "53048": 1860,
      "50048": 1861,
      "5e038": 1862,
      "5e048": 1863,
      "65018": 1864,
      "6f008": 1865,
      "66038": 1866,
      "67038": 1867,
      "6b038": 1868,
      "790": 1869,
      "74008": 1870,
      "75038": 1871,
      "7a048": 1872,
      "71038": 1873,
      "9a038": 1874,
      "9f028": 1875,
      "97048": 1876,
      "a5028": 1877,
      "ac028": 1878,
      "a1038": 1879,
      "ac038": 1880,
      "ae038": 1881,
      "bd0": 1882,
      "ba018": 1883,
      "b5018": 1884,
      "bc018": 1885,
      "c2028": 1886,
      "cd048": 1887,
      "c6038": 1888,
      "cd038": 1889,
      "cb038": 1890,
      "d6008": 1891,
      "d9028": 1892,
      "d1028": 1893,
      "d6028": 1894,
      "d4048": 1895,
      "d0048": 1896,
      "f8028": 1897,
      "fc028": 1898,
      "f5038": 1899,
      "fe028": 1900,
      "7f048": 1901,
      "b3028": 1902,
      "55048": 1903,
      "2e028": 1904,
      "0x55bb386a": 1905,
      "0x55bb3bf2": 1906,
      "0x55bb39a7": 1907,
      "0x55bb36a0": 1908,
      "0x7fc1605": 1909,
      "0x7fc15fb": 1910,
      "0x55bb36e3": 1911,
      "0x55bb3903": 1912,
      "0x55bb38f8": 1913,
      "0x7fc15df2": 1914,
      "0x7fc15e13": 1915,
      "0x7fc15e1b": 1916,
      "0x55bb3993": 1917,
      "0x55bb3b03": 1918,
      "0x55bb3b23": 1919,
      "0x55bb3a6e": 1920,
      "0x55bb37d3": 1921,
      "0x7fc15e21": 1922,
      "0x55bb3953": 1923,
      "0x55bb38d3": 1924,
      "0x55bb3ac8": 1925,
      "e90": 1926,
      "120": 1927,
      "150": 1928,
      "1f028": 1929,
      "16048": 1930,
      "1c038": 1931,
      "14048": 1932,
      "13048": 1933,
      "2f018": 1934,
      "21008": 1935,
      "28028": 1936,
      "22038": 1937,
      "2c048": 1938,
      "24048": 1939,
      "450": 1940,
      "4d008": 1941,
      "47048": 1942,
      "42048": 1943,
      "40038": 1944,
      "59028": 1945,
      "5a048": 1946,
      "5c038": 1947,
      "58048": 1948,
      "6d": 1949,
      "62038": 1950,
      "60028": 1951,
      "63048": 1952,
      "60048": 1953,
      "76038": 1954,
      "75048": 1955,
      "7d038": 1956,
      "79038": 1957,
      "95048": 1958,
      "9c038": 1959,
      "98048": 1960,
      "99038": 1961,
      "93048": 1962,
      "a1028": 1963,
      "ab048": 1964,
      "ba028": 1965,
      "b2038": 1966,
      "bf038": 1967,
      "b1048": 1968,
      "b8048": 1969,
      "b9038": 1970,
      "b0028": 1971,
      "b0038": 1972,
      "ce0": 1973,
      "cc048": 1974,
      "c9048": 1975,
      "cf048": 1976,
      "c7038": 1977,
      "d2008": 1978,
      "d4028": 1979,
      "d8028": 1980,
      "da028": 1981,
      "da038": 1982,
      "db028": 1983,
      "d3038": 1984,
      "f40": 1985,
      "fd008": 1986,
      "f4028": 1987,
      "f7028": 1988,
      "fb048": 1989,
      "f1048": 1990,
      "f0038": 1991,
      "80038": 1992,
      "90048": 1993,
      "56048": 1994,
      "00038": 1995,
      "0x55bb3ac2": 1996,
      "0x55bb369d": 1997,
      "0x55bb366a": 1998,
      "0x55bb3633": 1999,
      "0x7fc15e6": 2000,
      "0x7fc1607": 2001,
      "b0018": 2002,
      "c4028": 2003,
      "0x55bb3683": 2004,
      "33048": 2005,
      "0x55bb3813": 2006,
      "0x55bb3743": 2007,
      "0x7fc15df4": 2008,
      "0x7fc15df7": 2009,
      "0x7fc15dfb": 2010,
      "0x55bb3a13": 2011,
      "0x55bb3a23": 2012,
      "0x55bb3983": 2013,
      "0x55bb39f3": 2014,
      "0x7fc15e1c": 2015,
      "0x7fc15e1f": 2016,
      "0x55bb3893": 2017,
      "0x55bb3943": 2018,
      "0x55bb3a83": 2019,
      "0x55bb3853": 2020,
      "0x55bb38a3": 2021,
      "0x7fc15e22": 2022,
      "0x7fc15e24": 2023,
      "0x7fc15e0f": 2024,
      "0x55bb3a53": 2025,
      "0x55bb3bd3": 2026,
      "0x7fc15e34": 2027,
      "1c": 2028,
      "260": 2029,
      "16028": 2030,
      "1f048": 2031,
      "11048": 2032,
      "10028": 2033,
      "210": 2034,
      "2a018": 2035,
      "2d018": 2036,
      "2b028": 2037,
      "2d038": 2038,
      "3f0": 2039,
      "3e0": 2040,
      "4d028": 2041,
      "4c038": 2042,
      "41048": 2043,
      "5d028": 2044,
      "5b028": 2045,
      "50038": 2046,
      "6c028": 2047,
      "61028": 2048,
      "6c048": 2049,
      "67028": 2050,
      "69038": 2051,
      "77028": 2052,
      "7b038": 2053,
      "91028": 2054,
      "9a048": 2055,
      "ad048": 2056,
      "ad038": 2057,
      "a3048": 2058,
      "a3038": 2059,
      "b20": 2060,
      "b70": 2061,
      "b4018": 2062,
      "bd048": 2063,
      "bb038": 2064,
      "ca": 2065,
      "eb0": 2066,
      "f1": 2067,
      "ff018": 2068,
      "fc0": 2069,
      "f70": 2070,
      "f10": 2071,
      "f6028": 2072,
      "fd048": 2073,
      "fa048": 2074,
      "f4048": 2075,
      "a7048": 2076,
      "dd038": 2077,
      "9d028": 2078,
      "29038": 2079,
      "8b028": 2080,
      "8b048": 2081,
      "00048": 2082,
      "0x55bb362e": 2083,
      "dc038": 2084,
      "c0018": 2085,
      "0x7fc1606": 2086,
      "0x7fc160d": 2087,
      "0x55bb37f3": 2088,
      "de8": 2089,
      "0x55bb3913": 2090,
      "0x55bb3723": 2091,
      "0x55bb3883": 2092,
      "0x55bb3be3": 2093,
      "0x7fc15df6": 2094,
      "0x7fc15e14": 2095,
      "0x7fc15e19": 2096,
      "0x55bb3c03": 2097,
      "0x55bb3b93": 2098,
      "0x7fc15e27": 2099,
      "0x7fc15e2b": 2100,
      "0x55bb3ba3": 2101,
      "0x7fc15e01": 2102,
      "0x7fc15e02": 2103,
      "0x7fc15e04": 2104,
      "0x7fc15e06": 2105,
      "0x7fc15e0b": 2106,
      "0x55bb3b53": 2107,
      "0x55bb3aa3": 2108,
      "0x7fc15e31": 2109,
      "0x7fc15e35": 2110,
      "0x7fc15def": 2111,
      "f9": 2112,
      "13018": 2113,
      "12048": 2114,
      "198": 2115,
      "2d0": 2116,
      "26008": 2117,
      "2c028": 2118,
      "21028": 2119,
      "25038": 2120,
      "2d048": 2121,
      "2a048": 2122,
      "22048": 2123,
      "27038": 2124,
      "21048": 2125,
      "320": 2126,
      "300": 2127,
      "47": 2128,
      "48038": 2129,
      "46048": 2130,
      "4a048": 2131,
      "5c048": 2132,
      "54048": 2133,
      "78018": 2134,
      "96048": 2135,
      "a9048": 2136,
      "a4048": 2137,
      "b40": 2138,
      "bd028": 2139,
      "b7028": 2140,
      "bc038": 2141,
      "c8048": 2142,
      "db038": 2143,
      "d0028": 2144,
      "e30": 2145,
      "ed0": 2146,
      "f4": 2147,
      "f60": 2148,
      "fd0": 2149,
      "f7048": 2150,
      "f2048": 2151,
      "f4038": 2152,
      "f9038": 2153,
      "fe048": 2154,
      "00018": 2155,
      "0x55bb3630": 2156,
      "0x55bb3650": 2157,
      "0x55bb3652": 2158,
      "0x7fc15ec": 2159,
      "4b038": 2160,
      "0x7fc160f": 2161,
      "33018": 2162,
      "0x55bb3783": 2163,
      "0x55bb3703": 2164,
      "0x55bb39e3": 2165,
      "0x55bb3b33": 2166,
      "0x55bb3a03": 2167,
      "ce048": 2168,
      "0x7fc15dfc": 2169,
      "0x55bb3843": 2170,
      "0x55bb3b83": 2171,
      "0x55bb3a73": 2172,
      "0x7fc15e12": 2173,
      "0x7fc15e16": 2174,
      "0x7fc15e17": 2175,
      "0x7fc15e26": 2176,
      "0x7fc15e29": 2177,
      "0x7fc15e07": 2178,
      "0x7fc15e09": 2179,
      "0x55bb39a3": 2180,
      "0x7fc15e32": 2181,
      "0x7fc15e36": 2182,
      "0x7fc15e39": 2183,
      "1e8": 2184,
      "0x7fc1611": 2185,
      "1e0": 2186,
      "14038": 2187,
      "22": 2188,
      "2a0": 2189,
      "240": 2190,
      "27008": 2191,
      "2c008": 2192,
      "24038": 2193,
      "21038": 2194,
      "2b038": 2195,
      "23048": 2196,
      "390": 2197,
      "330": 2198,
      "360": 2199,
      "4d0": 2200,
      "45048": 2201,
      "44048": 2202,
      "548": 2203,
      "52038": 2204,
      "51048": 2205,
      "72048": 2206,
      "9b038": 2207,
      "ae048": 2208,
      "b80": 2209,
      "b90": 2210,
      "ba0": 2211,
      "b50": 2212,
      "bb0": 2213,
      "b7038": 2214,
      "ca048": 2215,
      "c7028": 2216,
      "c5048": 2217,
      "fa038": 2218,
      "7f008": 2219,
      "7e038": 2220,
      "0x55bb365": 2221,
      "0x55bb3640": 2222,
      "0x7fc15e9": 2223,
      "0x7fc15ea": 2224,
      "0x7fc15eb": 2225,
      "0x7fc15ed": 2226,
      "0x7fc15fd": 2227,
      "df038": 2228,
      "73048": 2229,
      "0x55bb37e3": 2230,
      "0x55bb3ae3": 2231,
      "0x55bb3a93": 2232,
      "0x55bb39d3": 2233,
      "0x7fc15dfa": 2234,
      "0x55bb3b13": 2235,
      "0x7fc15e15": 2236,
      "0x55bb3963": 2237,
      "0x7fc15e0c": 2238,
      "0x7fc15e0d": 2239,
      "0x55bb36a3": 2240,
      "988": 2241,
      "0x7fc15e37": 2242,
      "d08": 2243,
      "130": 2244,
      "2f": 2245,
      "280": 2246,
      "22008": 2247,
      "28018": 2248,
      "27048": 2249,
      "2f038": 2250,
      "23028": 2251,
      "380": 2252,
      "46": 2253,
      "49": 2254,
      "48048": 2255,
      "4e048": 2256,
      "5088": 2257,
      "5e8": 2258,
      "6f8": 2259,
      "7c0": 2260,
      "ac8": 2261,
      "bc0": 2262,
      "bf0": 2263,
      "b10": 2264,
      "b6038": 2265,
      "c40": 2266,
      "e10": 2267,
      "f6": 2268,
      "f6008": 2269,
      "fb008": 2270,
      "f9048": 2271,
      "fc038": 2272,
      "80028": 2273,
      "0x55bb3628": 2274,
      "0x55bb3648": 2275,
      "0x55bb364b": 2276,
      "0x55bb3654": 2277,
      "0x7fc15f6": 2278,
      "9e048": 2279,
      "0x7fc15df5": 2280,
      "0x7fc15df9": 2281,
      "0x7fc15dfd": 2282,
      "0x55bb37a3": 2283,
      "0x7fc15e1d": 2284,
      "0x55bb3923": 2285,
      "0x55bb3c23": 2286,
      "0x7fc15e25": 2287,
      "0x7fc15e2a": 2288,
      "0x7fc15e2c": 2289,
      "0x7fc15e2d": 2290,
      "0x7fc15e05": 2291,
      "0x7fc15e0a": 2292,
      "0x55bb3641": 2293,
      "0x55bb3642": 2294,
      "0x55bb3643": 2295,
      "5b000": 2296,
      "3c0": 2297,
      "4c0": 2298,
      "c9": 2299,
      "dd000": 2300,
      "0x55bb35806b4c": 2301,
      "1a": 2302,
      "1a0": 2303,
      "24": 2304,
      "24008": 2305,
      "2f008": 2306,
      "2a038": 2307,
      "26028": 2308,
      "2b048": 2309,
      "3a0": 2310,
      "638": 2311,
      "76": 2312,
      "7a": 2313,
      "7b8": 2314,
      "8d0": 2315,
      "95": 2316,
      "98038": 2317,
      "ab8": 2318,
      "b78": 2319,
      "b1038": 2320,
      "d78": 2321,
      "d5048": 2322,
      "da8": 2323,
      "e80": 2324,
      "ea0": 2325,
      "e40": 2326,
      "f8048": 2327,
      "b3000": 2328,
      "55038": 2329,
      "9d000": 2330,
      "568": 2331,
      "0x55bb3655": 2332,
      "0x55bb3638": 2333,
      "0x55bb3653": 2334,
      "0x55bb3651": 2335,
      "dc000": 2336,
      "0x7fc15f92": 2337,
      "0x55bb3bf3": 2338,
      "0x7fc15e1a": 2339,
      "0x55bb36c6": 2340,
      "0x55bb3634": 2341,
      "f88": 2342,
      "1e000": 2343,
      "e88": 2344,
      "5e50": 2345,
      "f320": 2346,
      "0x7fc16138e3": 2347,
      "0x7fc16138e340": 2348,
      "148": 2349,
      "1d8": 2350,
      "23038": 2351,
      "3b0": 2352,
      "45a": 2353,
      "53038": 2354,
      "5d8": 2355,
      "6cf": 2356,
      "708": 2357,
      "99": 2358,
      "9a8": 2359,
      "aa": 2360,
      "a18": 2361,
      "b1": 2362,
      "b7": 2363,
      "b60": 2364,
      "c38": 2365,
      "d58": 2366,
      "d68": 2367,
      "e20": 2368,
      "f18": 2369,
      "fb0": 2370,
      "7fc0": 2371,
      "9078": 2372,
      "0e8": 2373,
      "0e000": 2374,
      "a8000": 2375,
      "29000": 2376,
      "4b8": 2377,
      "4b000": 2378,
      "0x7fc160fe": 2379,
      "df000": 2380,
      "c410": 2381,
      "0x55bb37fc": 2382,
      "9e000": 2383,
      "0x55bb37cf": 2384,
      "0x55bb364e": 2385,
      "a88": 2386,
      "c88": 2387,
      "9b000": 2388,
      "63000": 2389,
      "6b000": 2390,
      "5e000": 2391,
      "62d0": 2392,
      "cbc0": 2393,
      "7b000": 2394,
      "ae000": 2395,
      "d780": 2396,
      "13000": 2397,
      "fe000": 2398,
      "0x7fc16104": 2399,
      "340": 2400,
      "798": 2401,
      "e00": 2402,
      "fa": 2403,
      "55000": 2404,
      "155": 2405,
      "1b8": 2406,
      "2a8": 2407,
      "370": 2408,
      "350": 2409,
      "4a": 2410,
      "458": 2411,
      "4d8": 2412,
      "4088": 2413,
      "508": 2414,
      "5b8": 2415,
      "678": 2416,
      "7c": 2417,
      "758": 2418,
      "7de": 2419,
      "7d8": 2420,
      "96": 2421,
      "968": 2422,
      "94038": 2423,
      "998": 2424,
      "951": 2425,
      "9cb": 2426,
      "ae8": 2427,
      "b6": 2428,
      "be0": 2429,
      "c7": 2430,
      "c78": 2431,
      "d98": 2432,
      "db8": 2433,
      "daf": 2434,
      "e60": 2435,
      "e70": 2436,
      "ee0": 2437,
      "fd8": 2438,
      "f088": 2439,
      "fd4": 2440,
      "7f000": 2441,
      "c18": 2442,
      "c1f0": 2443,
      "0x7fc16136": 2444,
      "808": 2445,
      "8078": 2446,
      "a7a0": 2447,
      "a98": 2448,
      "a0000": 2449,
      "7e000": 2450,
      "56000": 2451,
      "56b0": 2452,
      "2e8": 2453,
      "0x55bb3657": 2454,
      "dc90": 2455,
      "c068": 2456,
      "5058": 2457,
      "0x7fc16030": 2458,
      "0x7fc160df": 2459,
      "0x7fc160d8": 2460,
      "0x7fc1601e": 2461,
      "0x7fc1605e": 2462,
      "0x7fc16043": 2463,
      "0x7fc160bf": 2464,
      "0x7fc16012": 2465,
      "0x7fc15fa": 2466,
      "0x7fc15f52": 2467,
      "0x7fc15f1e": 2468,
      "c3000": 2469,
      "73000": 2470,
      "c4000": 2471,
      "f2f0": 2472,
      "0x55bb36e4": 2473,
      "0x55bb36eb": 2474,
      "9e8": 2475,
      "0x55bb3786": 2476,
      "0x55bb37b1": 2477,
      "0x55bb3741": 2478,
      "de80": 2479,
      "0x55bb391c": 2480,
      "0x55bb3731": 2481,
      "0x55bb3882": 2482,
      "0x55bb379b": 2483,
      "0x55bb37af": 2484,
      "0x55bb3674": 2485,
      "0x55bb367c": 2486,
      "0x55bb36aa": 2487,
      "0x55bb36ab": 2488,
      "0x55bb3779": 2489,
      "0x55bb369f": 2490,
      "0x55bb3632": 2491,
      "0x55bb3637": 2492,
      "0x55bb363b": 2493,
      "0x55bb363c": 2494,
      "0x55bb363e": 2495,
      "0x55bb363f": 2496,
      "0x55bb364c": 2497,
      "b88": 2498,
      "0x55bb362b": 2499,
      "1ea0": 2500,
      "53000": 2501,
      "5360": 2502,
      "5370": 2503,
      "5350": 2504,
      "6e000": 2505,
      "9190": 2506,
      "5f60": 2507,
      "9460": 2508,
      "94d0": 2509,
      "1f30": 2510,
      "ab000": 2511,
      "abc0": 2512,
      "4150": 2513,
      "43000": 2514,
      "cb000": 2515,
      "74e0": 2516,
      "7bb0": 2517,
      "af30": 2518,
      "d6d0": 2519,
      "5cd0": 2520,
      "a6d0": 2521,
      "1c8": 2522,
      "1cc": 2523,
      "408": 2524,
      "8e0": 2525,
      "9f8": 2526,
      "0x7fc1611e": 2527,
      "16": 2528,
      "158": 2529,
      "194": 2530,
      "177": 2531,
      "21": 2532,
      "27": 2533,
      "228": 2534,
      "2de0": 2535,
      "455": 2536,
      "478": 2537,
      "538": 2538,
      "5c8": 2539,
      "5d1": 2540,
      "5d2": 2541,
      "5c10": 2542,
      "658": 2543,
      "608": 2544,
      "6d8": 2545,
      "7a2": 2546,
      "7a8": 2547,
      "7088": 2548,
      "7d000": 2549,
      "7d30": 2550,
      "978": 2551,
      "9b8": 2552,
      "96e": 2553,
      "af8": 2554,
      "a1f": 2555,
      "aac": 2556,
      "b48": 2557,
      "c5": 2558,
      "ca7": 2559,
      "cf8": 2560,
      "c088": 2561,
      "c5f": 2562,
      "d088": 2563,
      "ec0": 2564,
      "ef0": 2565,
      "f68": 2566,
      "fb8": 2567,
      "ff8": 2568,
      "fc8": 2569,
      "f91": 2570,
      "f5e": 2571,
      "f71": 2572,
      "c1000": 2573,
      "0x7fc16018": 2574,
      "b330": 2575,
      "b3f0": 2576,
      "80000": 2577,
      "90000": 2578,
      "a940": 2579,
      "0ed0": 2580,
      "8b8": 2581,
      "8ba0": 2582,
      "a050": 2583,
      "a078": 2584,
      "a088": 2585,
      "20000": 2586,
      "7e8": 2587,
      "6a60": 2588,
      "6ab0": 2589,
      "2e000": 2590,
      "7dd0": 2591,
      "0x7fc160e0": 2592,
      "8b000": 2593,
      "00000": 2594,
      "288": 2595,
      "0x55bb3656": 2596,
      "0x55bb365a": 2597,
      "0x7fc15edc": 2598,
      "0x7fc15e78": 2599,
      "0x7fc15eb8": 2600,
      "0x7fc15e63": 2601,
      "0x7fc15e4e": 2602,
      "0x7fc15e4f": 2603,
      "0x7fc15ecb": 2604,
      "0x7fc15e74": 2605,
      "0x7fc15edb": 2606,
      "0x7fc15ed2": 2607,
      "0x7fc15e92": 2608,
      "0x7fc15eb4": 2609,
      "3010": 2610,
      "1078": 2611,
      "0x7fc160b3": 2612,
      "0x7fc16080": 2613,
      "0x7fc160dd": 2614,
      "0x7fc1602e": 2615,
      "0x7fc16040": 2616,
      "0x7fc160d0": 2617,
      "0x7fc16068": 2618,
      "0x7fc160ce": 2619,
      "0x7fc16094": 2620,
      "0x7fc1609b": 2621,
      "0x7fc160a3": 2622,
      "0x7fc160d1": 2623,
      "0x7fc16041": 2624,
      "0x7fc1604e": 2625,
      "0x7fc1606f": 2626,
      "0x7fc160a1": 2627,
      "0x7fc160d6": 2628,
      "0x7fc160d4": 2629,
      "0x7fc160d7": 2630,
      "0x7fc16014": 2631,
      "0x7fc160a4": 2632,
      "0x7fc15f5": 2633,
      "0x7fc15fc1": 2634,
      "0x7fc15f20": 2635,
      "0x7fc15f2e": 2636,
      "0x7fc15fc8": 2637,
      "0x7fc15f5f": 2638,
      "0x7fc15fd1": 2639,
      "0x7fc15f41": 2640,
      "0x7fc15f61": 2641,
      "0x7fc15f3e": 2642,
      "0x7fc15f11": 2643,
      "df00": 2644,
      "e068": 2645,
      "0x55bb37eb": 2646,
      "0x55bb37ff": 2647,
      "0x55bb380b": 2648,
      "0x55bb3686": 2649,
      "0x55bb3789": 2650,
      "0x55bb37bb": 2651,
      "0x55bb3811": 2652,
      "de000": 2653,
      "0x55bb3764": 2654,
      "0x55bb3706": 2655,
      "0x55bb370d": 2656,
      "0x55bb3912": 2657,
      "0x55bb388f": 2658,
      "0x55bb3794": 2659,
      "0x55bb3aef": 2660,
      "0x55bb3b3b": 2661,
      "ce8": 2662,
      "ce000": 2663,
      "ce10": 2664,
      "0x55bb3bbf": 2665,
      "0x55bb38bb": 2666,
      "0x55bb36db": 2667,
      "0x55bb396f": 2668,
      "0x55bb37d2": 2669,
      "0x55bb36b1": 2670,
      "0x55bb36cb": 2671,
      "0x55bb36cc": 2672,
      "0x55bb37c9": 2673,
      "0x55bb3874": 2674,
      "0x55bb38db": 2675,
      "0x7fc15e3a": 2676,
      "0x55bb363a": 2677,
      "0x55bb364d": 2678,
      "0x55bb362f": 2679,
      "5bd0": 2680,
      "6e90": 2681,
      "6e00": 2682,
      "cc60": 2683,
      "9bf0": 2684,
      "a3000": 2685,
      "a360": 2686,
      "6bc0": 2687,
      "d120": 2688,
      "4160": 2689,
      "93000": 2690,
      "9330": 2691,
      "4e000": 2692,
      "6270": 2693,
      "71e0": 2694,
      "f390": 2695,
      "f3000": 2696,
      "f310": 2697,
      "d3000": 2698,
      "4fc0": 2699,
      "6f30": 2700,
      "6f40": 2701,
      "5160": 2702,
      "74c0": 2703,
      "db90": 2704,
      "db000": 2705,
      "a120": 2706,
      "a1b0": 2707,
      "d660": 2708,
      "d650": 2709,
      "4c50": 2710,
      "5cb0": 2711,
      "d230": 2712,
      "d9a0": 2713,
      "6970": 2714,
      "d7b0": 2715,
      "5760": 2716,
      "be000": 2717,
      "0x7fc15f8e": 2718,
      "6600": 2719,
      "b480": 2720,
      "ffff": 2721,
      "d5d0": 2722,
      "23000": 2723,
      "fc60": 2724,
      "330c": 2725,
      "0x7fc160fe330c": 2726,
      "17000": 2727,
      "29": 2728,
      "c54": 2729,
      "c720": 2730,
      "d55": 2731,
      "ea50": 2732,
      "dfc0": 2733,
      "0x55bb3625": 2734,
      "5ba0": 2735,
      "9128": 2736,
      "5f00": 2737,
      "118": 2738,
      "138": 2739,
      "193": 2740,
      "1af": 2741,
      "1d9": 2742,
      "1d30": 2743,
      "15c0": 2744,
      "1d00": 2745,
      "278": 2746,
      "28000": 2747,
      "254": 2748,
      "2630": 2749,
      "308": 2750,
      "3a8": 2751,
      "4df": 2752,
      "4c8": 2753,
      "42000": 2754,
      "4a000": 2755,
      "45a0": 2756,
      "4990": 2757,
      "5c1": 2758,
      "5a2": 2759,
      "5c2": 2760,
      "5df": 2761,
      "5c3": 2762,
      "533": 2763,
      "5de": 2764,
      "598": 2765,
      "5a8": 2766,
      "5f8": 2767,
      "51e": 2768,
      "5ae": 2769,
      "5800": 2770,
      "5a70": 2771,
      "6b3": 2772,
      "648": 2773,
      "6c8": 2774,
      "66000": 2775,
      "69b": 2776,
      "643": 2777,
      "69f": 2778,
      "65a": 2779,
      "7c3": 2780,
      "7c000": 2781,
      "763": 2782,
      "774": 2783,
      "7cf": 2784,
      "7d5": 2785,
      "7d70": 2786,
      "955": 2787,
      "918": 2788,
      "928": 2789,
      "948": 2790,
      "9c4": 2791,
      "9c8": 2792,
      "9a000": 2793,
      "91e": 2794,
      "9cc": 2795,
      "9ab0": 2796,
      "a5": 2797,
      "a58": 2798,
      "a38": 2799,
      "a6000": 2800,
      "a5b": 2801,
      "a5f": 2802,
      "a54": 2803,
      "ad1": 2804,
      "a6f": 2805,
      "a42": 2806,
      "a560": 2807,
      "a548": 2808,
      "bdd": 2809,
      "b28": 2810,
      "b68": 2811,
      "b8000": 2812,
      "bbe": 2813,
      "b77": 2814,
      "b17": 2815,
      "b760": 2816,
      "c56": 2817,
      "c28": 2818,
      "c98": 2819,
      "cb8": 2820,
      "cd8": 2821,
      "c77": 2822,
      "ca4": 2823,
      "ca30": 2824,
      "cde80": 2825,
      "db3": 2826,
      "d7e": 2827,
      "d9d": 2828,
      "da2": 2829,
      "d38": 2830,
      "d7000": 2831,
      "da30": 2832,
      "e50": 2833,
      "ea10": 2834,
      "e1d0": 2835,
      "f48": 2836,
      "f08": 2837,
      "f9e": 2838,
      "f53": 2839,
      "f4c": 2840,
      "fc10": 2841,
      "7f8": 2842,
      "7f10": 2843,
      "7f50": 2844,
      "c130": 2845,
      "c110": 2846,
      "c168": 2847,
      "0x7fc16136e": 2848,
      "0x7fc16136c": 2849,
      "55c0": 2850,
      "bb3018": 2851,
      "9058": 2852,
      "9068": 2853,
      "a780": 2854,
      "a7000": 2855,
      "a730": 2856,
      "dd00": 2857,
      "dd88": 2858,
      "0e90": 2859,
      "0e20": 2860,
      "8b90": 2861,
      "8b10": 2862,
      "8b40": 2863,
      "188": 2864,
      "1850": 2865,
      "a058": 2866,
      "a068": 2867,
      "2078": 2868,
      "58e": 2869,
      "7e60": 2870,
      "9d50": 2871,
      "a28": 2872,
      "562": 2873,
      "5610": 2874,
      "6a80": 2875,
      "2ef0": 2876,
      "2e10": 2877,
      "2e50": 2878,
      "2900": 2879,
      "a74038": 2880,
      "fdd0": 2881,
      "fdd028": 2882,
      "0x7fc160e3": 2883,
      "88b008": 2884,
      "0078": 2885,
      "0x55bb3660": 2886,
      "0x55bb3668": 2887,
      "0x55bb365b": 2888,
      "0x55bb3659": 2889,
      "0x55bb365c": 2890,
      "c250": 2891,
      "0x7fc15ea7": 2892,
      "0x7fc15e56": 2893,
      "0x7fc15e52": 2894,
      "0x7fc15ed8": 2895,
      "0x7fc15e6e": 2896,
      "0x7fc15e91": 2897,
      "0x7fc15e94": 2898,
      "0x7fc15e9b": 2899,
      "0x7fc15eab": 2900,
      "0x7fc15e6b": 2901,
      "0x7fc15e6f": 2902,
      "0x7fc15e51": 2903,
      "0x7fc15e88": 2904,
      "0x7fc15e67": 2905,
      "0x7fc15eff": 2906,
      "0x7fc15ebc": 2907,
      "b35018": 2908,
      "c2c028": 2909,
      "dc80": 2910,
      "3058": 2911,
      "4b70": 2912,
      "4bd0": 2913,
      "6068": 2914,
      "7020": 2915,
      "7058": 2916,
      "7078": 2917,
      "1058": 2918,
      "10d0": 2919,
      "5078": 2920,
      "0x7fc1607f": 2921,
      "0x7fc160a7": 2922,
      "0x7fc1600e": 2923,
      "0x7fc1609d": 2924,
      "0x7fc160b0": 2925,
      "0x7fc16072": 2926,
      "0x7fc16033": 2927,
      "0x7fc160a8": 2928,
      "0x7fc16063": 2929,
      "0x7fc16054": 2930,
      "0x7fc160d3": 2931,
      "0x7fc160cb": 2932,
      "0x7fc160db": 2933,
      "0x7fc16059": 2934,
      "0x7fc16092": 2935,
      "0x7fc16017": 2936,
      "0x7fc15f90": 2937,
      "0x7fc15f18": 2938,
      "0x7fc15fdc": 2939,
      "0x7fc15f50": 2940,
      "0x7fc15fb0": 2941,
      "0x7fc15f78": 2942,
      "0x7fc15f68": 2943,
      "0x7fc15f9e": 2944,
      "0x7fc15fce": 2945,
      "0x7fc15fa8": 2946,
      "0x7fc15f5b": 2947,
      "0x7fc15fd9": 2948,
      "0x7fc15ffe": 2949,
      "0x7fc15fbc": 2950,
      "0x7fc15ffc": 2951,
      "0x7fc15f9a": 2952,
      "d0a0": 2953,
      "d078": 2954,
      "d068": 2955,
      "df8": 2956,
      "c380": 2957,
      "e078": 2958,
      "72b0": 2959,
      "c4c0": 2960,
      "f2c0": 2961,
      "f270": 2962,
      "f240": 2963,
      "0x55bb37e1": 2964,
      "0x55bb37e4": 2965,
      "0x55bb37f6": 2966,
      "0x55bb3804": 2967,
      "0x55bb36f1": 2968,
      "0x55bb3684": 2969,
      "0x55bb3689": 2970,
      "0x55bb368f": 2971,
      "33000": 2972,
      "3310": 2973,
      "3350": 2974,
      "0x55bb3904": 2975,
      "0x55bb3711": 2976,
      "0x55bb371a": 2977,
      "0x55bb371d": 2978,
      "b0088": 2979,
      "0x55bb381c": 2980,
      "0x55bb381d": 2981,
      "0x55bb3c12": 2982,
      "0x55bb3744": 2983,
      "0x55bb3746": 2984,
      "0x55bb374c": 2985,
      "dea0": 2986,
      "0x55bb3761": 2987,
      "0x55bb373f": 2988,
      "0x55bb382a": 2989,
      "0x55bb382b": 2990,
      "0x55bb382c": 2991,
      "0x55bb3881": 2992,
      "0x55bb3791": 2993,
      "0x55bb3862": 2994,
      "0x55bb3867": 2995,
      "0x55bb386c": 2996,
      "0x55bb38f1": 2997,
      "0x55bb38fb": 2998,
      "0x55bb3a9c": 2999,
      "ce70": 3000,
      "cee0": 3001,
      "0x55bb3759": 3002,
      "0x55bb375b": 3003,
      "0x55bb37a6": 3004,
      "0x55bb3b11": 3005,
      "0x55bb3899": 3006,
      "0x55bb3851": 3007,
      "0x55bb3852": 3008,
      "0x55bb385b": 3009,
      "0x55bb36d1": 3010,
      "0x55bb36d4": 3011,
      "0x55bb396c": 3012,
      "0x55bb3922": 3013,
      "0x55bb3a67": 3014,
      "0x55bb3676": 3015,
      "0x55bb367a": 3016,
      "0x55bb37d6": 3017,
      "0x55bb37db": 3018,
      "0x55bb36b2": 3019,
      "0x55bb36b4": 3020,
      "0x55bb36b5": 3021,
      "0x55bb38ad": 3022,
      "0x55bb3c27": 3023,
      "0x55bb36ac": 3024,
      "0x55bb36c7": 3025,
      "0x55bb39ac": 3026,
      "0x55bb37c7": 3027,
      "0x55bb37cb": 3028,
      "0x55bb37cd": 3029,
      "0x55bb387a": 3030,
      "0x55bb3c32": 3031,
      "0x55bb3691": 3032,
      "0x55bb3696": 3033,
      "0x55bb3ada": 3034,
      "0x55bb3aca": 3035,
      "0x55bb3bcc": 3036,
      "0x55bb3b71": 3037,
      "9820": 3038,
      "98f0": 3039,
      "9840": 3040,
      "0x55bb3631": 3041,
      "0x55bb3636": 3042,
      "b840": 3043,
      "d88": 3044,
      "1e10": 3045,
      "5bf0": 3046,
      "5be0": 3047,
      "53a0": 3048,
      "5320": 3049,
      "5310": 3050,
      "6e30": 3051,
      "9180": 3052,
      "9120": 3053,
      "9170": 3054,
      "91e0": 3055,
      "5f20": 3056,
      "5fd0": 3057,
      "94f0": 3058,
      "cc00": 3059,
      "cc30": 3060,
      "9b80": 3061,
      "9bc0": 3062,
      "9b60": 3063,
      "a3c0": 3064,
      "a3b0": 3065,
      "63d0": 3066,
      "1fc0": 3067,
      "1f60": 3068,
      "ab20": 3069,
      "ab50": 3070,
      "6b10": 3071,
      "6bb0": 3072,
      "d1d0": 3073,
      "d1b0": 3074,
      "4170": 3075,
      "41b0": 3076,
      "9318": 3077,
      "9360": 3078,
      "7180": 3079,
      "71a0": 3080,
      "7120": 3081,
      "7100": 3082,
      "7110": 3083,
      "71390": 3084,
      "f3f0": 3085,
      "d3a0": 3086,
      "d320": 3087,
      "d370": 3088,
      "d3b0": 3089,
      "6f60": 3090,
      "6fe0": 3091,
      "4350": 3092,
      "5180": 3093,
      "5170": 3094,
      "cb20": 3095,
      "cb28": 3096,
      "7480": 3097,
      "7b40": 3098,
      "ae20": 3099,
      "cf80": 3100,
      "cf10": 3101,
      "a180": 3102,
      "a170": 3103,
      "a150": 3104,
      "a1e0": 3105,
      "aff0": 3106,
      "5980": 3107,
      "5960": 3108,
      "9f00": 3109,
      "4cd0": 3110,
      "4cd8": 3111,
      "5ca0": 3112,
      "5c00": 3113,
      "5c70": 3114,
      "d9b0": 3115,
      "bfa0": 3116,
      "bf30": 3117,
      "bf50": 3118,
      "d470": 3119,
      "a00018": 3120,
      "6990": 3121,
      "69b0": 3122,
      "d750": 3123,
      "5af0": 3124,
      "5a50": 3125,
      "5ae0": 3126,
      "1260": 3127,
      "13d0": 3128,
      "5700": 3129,
      "b230": 3130,
      "66c0": 3131,
      "6650": 3132,
      "3e80": 3133,
      "3e000": 3134,
      "ac90": 3135,
      "7990": 3136,
      "7950": 3137,
      "0x7fc15e82": 3138,
      "0x7fc15e84": 3139,
      "6c00": 3140,
      "6c70": 3141,
      "9cc0": 3142,
      "6200": 3143,
      "d5f0": 3144,
      "97c0": 3145,
      "0x7fc16084": 3146,
      "0x7fc1608e": 3147,
      "17d0": 3148,
      "a680": 3149,
      "de068": 3150,
      "b960": 3151,
      "b970": 3152,
      "e3000": 3153,
      "f7d0": 3154,
      "44d0": 3155,
      "fcd0": 3156,
      "9c078": 3157,
      "99078": 3158,
      "ee000": 3159,
      "ee40": 3160,
      "0x7fc160c9": 3161,
      "44078": 3162,
      "1c068": 3163,
      "46058": 3164,
      "0x7fc1604a": 3165,
      "96078": 3166,
      "f4078": 3167,
      "0x7fc160fa9": 3168,
      "ba068": 3169,
      "26": 3170,
      "20e0": 3171,
      "6a000": 3172,
      "e930": 3173,
      "7fe90": 3174,
      "5570": 3175,
      "0x7fc160eb3": 3176,
      "dcb0": 3177,
      "91520": 3178,
      "1fd0": 3179,
      "ab40": 3180,
      "d760": 3181,
      "ffb0": 3182,
      "0x7fc161389128": 3183,
      "0018": 3184,
      "19d": 3185,
      "1a2": 3186,
      "128": 3187,
      "108": 3188,
      "1f8": 3189,
      "1088": 3190,
      "1b2": 3191,
      "1a90": 3192,
      "1620": 3193,
      "15a0": 3194,
      "1670": 3195,
      "12e0": 3196,
      "1580": 3197,
      "15d0": 3198,
      "1cd0": 3199,
      "16e0": 3200,
      "1960": 3201,
      "2d": 3202,
      "2a7": 3203,
      "2dd": 3204,
      "258": 3205,
      "248": 3206,
      "298": 3207,
      "2c8": 3208,
      "29b": 3209,
      "2df0": 3210,
      "2500": 3211,
      "2af0": 3212,
      "2180": 3213,
      "2d80": 3214,
      "2200": 3215,
      "2fe0": 3216,
      "2680": 3217,
      "2f30": 3218,
      "21b0": 3219,
      "2100": 3220,
      "2230": 3221,
      "3a": 3222,
      "338": 3223,
      "3d0": 3224,
      "3088": 3225,
      "3ab0": 3226,
      "3520": 3227,
      "3c60": 3228,
      "3c70": 3229,
      "3fa0": 3230,
      "45": 3231,
      "4dd": 3232,
      "428": 3233,
      "438": 3234,
      "4c3": 3235,
      "44e": 3236,
      "4a90": 3237,
      "4d5": 3238,
      "4ad0": 3239,
      "4a50": 3240,
      "44b0": 3241,
      "4e88": 3242,
      "50e": 3243,
      "5290": 3244,
      "528": 3245,
      "572": 3246,
      "59000": 3247,
      "51000": 3248,
      "5f000": 3249,
      "54000": 3250,
      "5a00": 3251,
      "5d30": 3252,
      "5da0": 3253,
      "5ce10": 3254,
      "5a150": 3255,
      "655": 3256,
      "62e": 3257,
      "698": 3258,
      "652": 3259,
      "6088": 3260,
      "6f000": 3261,
      "6e8": 3262,
      "669": 3263,
      "6d30": 3264,
      "65c0": 3265,
      "6520": 3266,
      "6d10": 3267,
      "65b0": 3268,
      "6562": 3269,
      "76a": 3270,
      "778": 3271,
      "7c8": 3272,
      "79000": 3273,
      "75b": 3274,
      "79b": 3275,
      "7ab": 3276,
      "75e": 3277,
      "74e": 3278,
      "76c": 3279,
      "764": 3280,
      "7ac0": 3281,
      "7af0": 3282,
      "7a60": 3283,
      "77e0": 3284,
      "7650": 3285,
      "75d0": 3286,
      "75b0": 3287,
      "762d0": 3288,
      "8a0": 3289,
      "8cd0": 3290,
      "83f0": 3291,
      "958": 3292,
      "956": 3293,
      "938": 3294,
      "98000": 3295,
      "9c000": 3296,
      "953": 3297,
      "95f": 3298,
      "9ae": 3299,
      "959": 3300,
      "957": 3301,
      "99c": 3302,
      "9620": 3303,
      "964": 3304,
      "9dd0": 3305,
      "9a50": 3306,
      "95c0": 3307,
      "99c0": 3308,
      "9540": 3309,
      "9940": 3310,
      "9660": 3311,
      "ab3": 3312,
      "ade": 3313,
      "a52": 3314,
      "a2000": 3315,
      "af000": 3316,
      "a5e": 3317,
      "a67": 3318,
      "ac10": 3319,
      "a66": 3320,
      "aa4": 3321,
      "ad90": 3322,
      "aae0": 3323,
      "ada0": 3324,
      "ad320": 3325,
      "b18": 3326,
      "b9d": 3327,
      "b2e": 3328,
      "b08": 3329,
      "ba8": 3330,
      "bf8": 3331,
      "bd8": 3332,
      "b6e": 3333,
      "bd9": 3334,
      "bd60": 3335,
      "b6f0": 3336,
      "b6bc0": 3337,
      "c58": 3338,
      "c72": 3339,
      "ca000": 3340,
      "c57": 3341,
      "cab0": 3342,
      "cd90": 3343,
      "c5a0": 3344,
      "cd80": 3345,
      "cd70": 3346,
      "c5f0": 3347,
      "c930": 3348,
      "cd10": 3349,
      "c780": 3350,
      "cd40": 3351,
      "c5160": 3352,
      "d290": 3353,
      "d73": 3354,
      "da000": 3355,
      "d5b": 3356,
      "d4000": 3357,
      "d94": 3358,
      "d0000": 3359,
      "d4e": 3360,
      "da90": 3361,
      "d800": 3362,
      "e7": 3363,
      "e18": 3364,
      "e98": 3365,
      "eb8": 3366,
      "ef8": 3367,
      "ed8": 3368,
      "e500": 3369,
      "edd0": 3370,
      "e5a0": 3371,
      "ef80": 3372,
      "f5": 3373,
      "f7e": 3374,
      "fa80": 3375,
      "f28": 3376,
      "f38": 3377,
      "f78": 3378,
      "fa8": 3379,
      "f43": 3380,
      "f9f": 3381,
      "f61": 3382,
      "fa00": 3383,
      "f9c": 3384,
      "f97": 3385,
      "f17": 3386,
      "f0e0": 3387,
      "f670": 3388,
      "fdc0": 3389,
      "f550": 3390,
      "f6c0": 3391,
      "0xffff": 3392,
      "7f20": 3393,
      "7f00": 3394,
      "7f60": 3395,
      "7f460": 3396,
      "c180": 3397,
      "c120": 3398,
      "c1c0": 3399,
      "0x7fc16008": 3400,
      "0x7fc16048": 3401,
      "0x7fc16038": 3402,
      "0x7fc16000": 3403,
      "0x7fc16088": 3404,
      "0x7fc16120": 3405,
      "0x7fc16114": 3406,
      "0x7fc1613a8": 3407,
      "0x7fc16136b": 3408,
      "0x7fc161388": 3409,
      "0x7fc161367": 3410,
      "b38": 3411,
      "55e": 3412,
      "5508": 3413,
      "5530": 3414,
      "5550": 3415,
      "55b0": 3416,
      "5568": 3417,
      "bb3048": 3418,
      "8030": 3419,
      "80f0": 3420,
      "80610": 3421,
      "90ad0": 3422,
      "a78": 3423,
      "a720": 3424,
      "a760": 3425,
      "a7770": 3426,
      "a94": 3427,
      "a990": 3428,
      "a958": 3429,
      "a9c0": 3430,
      "a960": 3431,
      "a9df0": 3432,
      "a9e30": 3433,
      "dd38": 3434,
      "dd60": 3435,
      "dd70": 3436,
      "0ec0": 3437,
      "0e70": 3438,
      "0e400": 3439,
      "8bc0": 3440,
      "8bf0": 3441,
      "8b60": 3442,
      "8b900": 3443,
      "1820": 3444,
      "1830": 3445,
      "0x55bb3580e": 3446,
      "a03000": 3447,
      "a0f80": 3448,
      "208": 3449,
      "20a0": 3450,
      "2058": 3451,
      "2040": 3452,
      "2068": 3453,
      "202b0": 3454,
      "58cc0": 3455,
      "589e0": 3456,
      "585e0": 3457,
      "7e90": 3458,
      "7e50": 3459,
      "9db0": 3460,
      "9de0": 3461,
      "9d088": 3462,
      "9da70": 3463,
      "a258": 3464,
      "a2c0": 3465,
      "a270": 3466,
      "5600": 3467,
      "5630": 3468,
      "5670": 3469,
      "56d0": 3470,
      "56e0": 3471,
      "56a90": 3472,
      "6a8": 3473,
      "6af0": 3474,
      "6ac50": 3475,
      "6af10": 3476,
      "2ec60": 3477,
      "2e1b0": 3478,
      "2e2c0": 3479,
      "a80018": 3480,
      "a80008": 3481,
      "290018": 3482,
      "290008": 3483,
      "fdd008": 3484,
      "6aa038": 3485,
      "6aa048": 3486,
      "0x7fc160e8": 3487,
      "0x7fc160e12": 3488,
      "0x7fc160e11": 3489,
      "0x7fc160ef91": 3490,
      "8b0008": 3491,
      "8b0028": 3492,
      "88b028": 3493,
      "0058": 3494,
      "2880": 3495,
      "28f0": 3496,
      "2840": 3497,
      "0x55bb37a74": 3498,
      "0x55bb379d0": 3499,
      "0x55bb38c2c": 3500,
      "3838": 3501,
      "3830": 3502,
      "3840": 3503,
      "38500": 3504,
      "38900": 3505,
      "38300": 3506,
      "488": 3507,
      "4810": 3508,
      "48190": 3509,
      "489c0": 3510,
      "0x55bb3658": 3511,
      "0x55bb36fdd": 3512,
      "0x55bb368b0": 3513,
      "0x55bb36b35": 3514,
      "0x55bb365f": 3515,
      "0x55bb365e": 3516,
      "08f0": 3517,
      "0x7fc15e5": 3518,
      "0x7fc15ec1": 3519,
      "0x7fc15e80": 3520,
      "0x7fc15e90": 3521,
      "0x7fc15ea9": 3522,
      "0x7fc15e6a": 3523,
      "0x7fc15e48": 3524,
      "0x7fc15ec0": 3525,
      "0x7fc15ef0": 3526,
      "0x7fc15e50": 3527,
      "0x7fc15eb0": 3528,
      "0x7fc15ec3": 3529,
      "0x7fc15ee0": 3530,
      "0x7fc15e73": 3531,
      "0x7fc15ec4": 3532,
      "0x7fc15e68": 3533,
      "0x7fc15e9e": 3534,
      "0x7fc15ece": 3535,
      "0x7fc15e53": 3536,
      "0x7fc15ee8": 3537,
      "0x7fc15e5f": 3538,
      "0x7fc15ecc": 3539,
      "0x7fc15ea3": 3540,
      "0x7fc15e54": 3541,
      "0x7fc15e93": 3542,
      "0x7fc15e62": 3543,
      "0x7fc15ed3": 3544,
      "0x7fc15e43": 3545,
      "0x7fc15eaf": 3546,
      "0x7fc15e59": 3547,
      "0x7fc15ed6": 3548,
      "0x7fc15e42": 3549,
      "0x7fc15e4c": 3550,
      "0x7fc15e5c": 3551,
      "0x7fc15ed9": 3552,
      "0x7fc15ed4": 3553,
      "0x7fc15e5a": 3554,
      "0x7fc15eb2": 3555,
      "0x7fc15ebe": 3556,
      "0x7fc15e66": 3557,
      "0x7fc15e79": 3558,
      "0x7fc15e9c": 3559,
      "0x7fc15efb": 3560,
      "0x7fc15eb9": 3561,
      "dc8": 3562,
      "dc30": 3563,
      "dcf0": 3564,
      "dc310": 3565,
      "dcec0": 3566,
      "c0f0": 3567,
      "f058": 3568,
      "f068": 3569,
      "f0520": 3570,
      "f05b0": 3571,
      "f0cf0": 3572,
      "4b8b0": 3573,
      "4b10": 3574,
      "4b68": 3575,
      "6058": 3576,
      "70a0": 3577,
      "7030": 3578,
      "7050": 3579,
      "70450": 3580,
      "10aa0": 3581,
      "40a0": 3582,
      "4058": 3583,
      "4060": 3584,
      "40b0": 3585,
      "4078": 3586,
      "40f8": 3587,
      "40d80": 3588,
      "5060": 3589,
      "5010": 3590,
      "5068": 3591,
      "0x7fc1608b": 3592,
      "0x7fc16058": 3593,
      "0x7fc1606a": 3594,
      "0x7fc160c2": 3595,
      "0x7fc160dc": 3596,
      "0x7fc160c0": 3597,
      "0x7fc16060": 3598,
      "0x7fc16070": 3599,
      "0x7fc16010": 3600,
      "0x7fc1609e": 3601,
      "0x7fc160c8": 3602,
      "0x7fc1605b": 3603,
      "0x7fc1606e": 3604,
      "0x7fc16091": 3605,
      "0x7fc1605f": 3606,
      "0x7fc160ab": 3607,
      "0x7fc1606b": 3608,
      "0x7fc16093": 3609,
      "0x7fc16071": 3610,
      "0x7fc1604f": 3611,
      "0x7fc16051": 3612,
      "0x7fc16074": 3613,
      "0x7fc1607b": 3614,
      "0x7fc16042": 3615,
      "0x7fc1609f": 3616,
      "0x7fc1604c": 3617,
      "0x7fc16061": 3618,
      "0x7fc16013": 3619,
      "0x7fc16057": 3620,
      "0x7fc16067": 3621,
      "0x7fc160b2": 3622,
      "0x7fc16077": 3623,
      "0x7fc16066": 3624,
      "0x7fc1603e": 3625,
      "0x7fc160ac": 3626,
      "0x7fc1606c": 3627,
      "0x7fc1609c": 3628,
      "0x7fc160b4": 3629,
      "0x7fc160b9": 3630,
      "0x7fc160bc": 3631,
      "0x7fc16044": 3632,
      "0x7fc15f7f": 3633,
      "0x7fc15f55": 3634,
      "0x7fc15fa7": 3635,
      "0x7fc15fa9": 3636,
      "0x7fc15f0e": 3637,
      "0x7fc15f8b": 3638,
      "0x7fc15fa0": 3639,
      "0x7fc15f7e": 3640,
      "0x7fc15f9d": 3641,
      "0x7fc15f56": 3642,
      "0x7fc15f6a": 3643,
      "0x7fc15f28": 3644,
      "0x7fc15f38": 3645,
      "0x7fc15f60": 3646,
      "0x7fc15f10": 3647,
      "0x7fc15fc3": 3648,
      "0x7fc15fe0": 3649,
      "0x7fc15f73": 3650,
      "0x7fc15fc4": 3651,
      "0x7fc15ff2": 3652,
      "0x7fc15fde": 3653,
      "0x7fc15f98": 3654,
      "0x7fc15f6e": 3655,
      "0x7fc15f63": 3656,
      "0x7fc15f54": 3657,
      "0x7fc15fab": 3658,
      "0x7fc15f6b": 3659,
      "0x7fc15f5e": 3660,
      "0x7fc15f93": 3661,
      "0x7fc15ff3": 3662,
      "0x7fc15fd3": 3663,
      "0x7fc15f4f": 3664,
      "0x7fc15f7b": 3665,
      "0x7fc15fae": 3666,
      "0x7fc15fcf": 3667,
      "0x7fc15fa1": 3668,
      "0x7fc15f9f": 3669,
      "0x7fc15fd2": 3670,
      "0x7fc15fd4": 3671,
      "0x7fc15f69": 3672,
      "0x7fc15fd7": 3673,
      "0x7fc15f12": 3674,
      "0x7fc15fb2": 3675,
      "0x7fc15fac": 3676,
      "0x7fc15fa4": 3677,
      "0x7fc15f9c": 3678,
      "0x7fc15f64": 3679,
      "0x7fc15f97": 3680,
      "d010": 3681,
      "d0d0": 3682,
      "df90": 3683,
      "df30": 3684,
      "df10": 3685,
      "dfc78": 3686,
      "b090": 3687,
      "b078": 3688,
      "b01b0": 3689,
      "c300": 3690,
      "c3c0": 3691,
      "c360": 3692,
      "c3d0": 3693,
      "c3400": 3694,
      "72a0": 3695,
      "7380": 3696,
      "73a0": 3697,
      "7330": 3698,
      "7360": 3699,
      "7370": 3700,
      "7310": 3701,
      "73fe0": 3702,
      "c4a0": 3703,
      "c420": 3704,
      "c4f0": 3705,
      "c4800": 3706,
      "f280": 3707,
      "f2a0": 3708,
      "f220": 3709,
      "7890": 3710,
      "7840": 3711,
      "78f30": 3712,
      "0x55bb37e7": 3713,
      "0x55bb37ef": 3714,
      "0x55bb37f2": 3715,
      "0x55bb36e1": 3716,
      "0x55bb36e2": 3717,
      "0x55bb36ec": 3718,
      "688": 3719,
      "68a0": 3720,
      "6870": 3721,
      "6850": 3722,
      "68d0": 3723,
      "683b": 3724,
      "68c30": 3725,
      "0x55bb36f6": 3726,
      "0x55bb36f7": 3727,
      "0x55bb36fa": 3728,
      "0x55bb36fb": 3729,
      "9e90": 3730,
      "9ef0": 3731,
      "9e40": 3732,
      "9e88": 3733,
      "9e920": 3734,
      "0x55bb3681": 3735,
      "33a0": 3736,
      "3320": 3737,
      "33c0": 3738,
      "3330": 3739,
      "3340": 3740,
      "33d0": 3741,
      "33c00": 3742,
      "0x55bb390b": 3743,
      "0x55bb3787": 3744,
      "0x55bb378d": 3745,
      "0x55bb378f": 3746,
      "0x55bb37b2": 3747,
      "0x55bb37bf": 3748,
      "0x55bb3812": 3749,
      "0x55bb381b": 3750,
      "0x55bb3c15f": 3751,
      "0x55bb3742": 3752,
      "0x55bb374a": 3753,
      "de10": 3754,
      "dee0": 3755,
      "de560": 3756,
      "0x55bb38ed": 3757,
      "0x55bb3702": 3758,
      "0x55bb3704": 3759,
      "0x55bb370a": 3760,
      "0x55bb370b": 3761,
      "0x55bb3916": 3762,
      "0x55bb3721": 3763,
      "0x55bb3722": 3764,
      "0x55bb3724": 3765,
      "0x55bb3824": 3766,
      "0x55bb3884": 3767,
      "0x55bb3887": 3768,
      "0x55bb3889": 3769,
      "0x55bb39e2": 3770,
      "0x55bb39ed": 3771,
      "0x55bb379a": 3772,
      "0x55bb379c": 3773,
      "0x55bb3ae3e": 3774,
      "0x55bb3b32": 3775,
      "0x55bb3a07": 3776,
      "0x55bb3bef": 3777,
      "0x55bb3be57": 3778,
      "0x55bb3864": 3779,
      "0x55bb38f6": 3780,
      "0x55bb38ff": 3781,
      "ce90": 3782,
      "cea0": 3783,
      "ce20": 3784,
      "ce48": 3785,
      "ce30": 3786,
      "ce50": 3787,
      "0x55bb3831": 3788,
      "0x55bb383f": 3789,
      "0x55bb37ab": 3790,
      "0x55bb37ac": 3791,
      "0x55bb3841": 3792,
      "0x55bb3bf1": 3793,
      "0x55bb3982": 3794,
      "0x55bb39bc": 3795,
      "0x55bb3b8f": 3796,
      "0x55bb3a71": 3797,
      "0x55bb3891": 3798,
      "0x55bb3947": 3799,
      "0x55bb3854": 3800,
      "0x55bb385c": 3801,
      "0x55bb393c": 3802,
      "0x55bb393f": 3803,
      "0x55bb36da": 3804,
      "0x55bb3996": 3805,
      "0x55bb3b6b": 3806,
      "0x55bb3b6f": 3807,
      "0x55bb3b0f": 3808,
      "0x55bb3b2a": 3809,
      "0x55bb3b241": 3810,
      "0x55bb3b24f": 3811,
      "0x55bb392a": 3812,
      "0x55bb392c": 3813,
      "0x55bb392f": 3814,
      "0x55bb3a34": 3815,
      "0x55bb3a62": 3816,
      "0x55bb3a6b": 3817,
      "0x55bb3a6c": 3818,
      "0x55bb3671": 3819,
      "0x55bb37d4": 3820,
      "0x55bb37d7": 3821,
      "0x55bb36ba": 3822,
      "0x55bb36bb": 3823,
      "0x55bb3c01": 3824,
      "55c038": 3825,
      "0x55bb3c26": 3826,
      "0x55bb3b42": 3827,
      "0x55bb3ba6": 3828,
      "0x55bb3ba5b": 3829,
      "0x55bb395c": 3830,
      "0x55bb36a4": 3831,
      "0x55bb36a5": 3832,
      "0x55bb3877": 3833,
      "0x55bb3a57": 3834,
      "0x55bb3a5b": 3835,
      "0x55bb3771": 3836,
      "0x55bb377c": 3837,
      "0x55bb377d": 3838,
      "0x55bb38d5": 3839,
      "0x55bb369b": 3840,
      "0x55bb3bd2": 3841,
      "0x55bb38cb": 3842,
      "0x55bb38cc": 3843,
      "0x55bb39cb": 3844,
      "9850": 3845,
      "98cd0": 3846,
      "5280": 3847,
      "52b0": 3848,
      "52a60": 3849,
      "52270": 3850,
      "0x55bb366b": 3851,
      "0x55bb366f": 3852,
      "0x55bb3649": 3853,
      "a830": 3854,
      "a8fa0": 3855,
      "f858": 3856,
      "f840": 3857,
      "d8a0": 3858,
      "d820": 3859,
      "d810": 3860,
      "c8d0": 3861,
      "0x55bb3626": 3862,
      "0x55bb3624f": 3863,
      "1e00": 3864,
      "1ec0": 3865,
      "1e60": 3866,
      "5b00": 3867,
      "5b70": 3868,
      "5b700": 3869,
      "5bbf0": 3870,
      "5338": 3871,
      "5330": 3872,
      "53f0": 3873,
      "53f00": 3874,
      "e880": 3875,
      "e860": 3876,
      "e8770": 3877,
      "e8700": 3878,
      "6eb0": 3879,
      "6ec80": 3880,
      "91a0": 3881,
      "9130": 3882,
      "91b0": 3883,
      "5f70": 3884,
      "5fd60": 3885,
      "5f470": 3886,
      "9480": 3887,
      "9430": 3888,
      "cc80": 3889,
      "cc20": 3890,
      "cc40": 3891,
      "ccb0": 3892,
      "cc088": 3893,
      "cc730": 3894,
      "9b90": 3895,
      "9b10": 3896,
      "9b180": 3897,
      "9b770": 3898,
      "a3a0": 3899,
      "a300": 3900,
      "a340": 3901,
      "a350": 3902,
      "a3970": 3903,
      "63a0": 3904,
      "6320": 3905,
      "63f0": 3906,
      "63b0": 3907,
      "5490": 3908,
      "5400": 3909,
      "5430": 3910,
      "54e0": 3911,
      "54a00": 3912,
      "54940": 3913,
      "1f80": 3914,
      "1f90": 3915,
      "1f20": 3916,
      "1f40": 3917,
      "1f7d0": 3918,
      "1f4e0": 3919,
      "abf0": 3920,
      "ab60": 3921,
      "abe0": 3922,
      "ab088": 3923,
      "ab670": 3924,
      "6ba0": 3925,
      "6b00": 3926,
      "6bd0": 3927,
      "6bcb0": 3928,
      "5e20": 3929,
      "5e00": 3930,
      "5ef0": 3931,
      "5e40": 3932,
      "5ee0": 3933,
      "d180": 3934,
      "d118": 3935,
      "d130": 3936,
      "d150": 3937,
      "41d0": 3938,
      "4198": 3939,
      "41b8": 3940,
      "41b60": 3941,
      "9380": 3942,
      "9320": 3943,
      "9300": 3944,
      "9350": 3945,
      "934b0": 3946,
      "93780": 3947,
      "93150": 3948,
      "4e30": 3949,
      "4ed0": 3950,
      "4ee0": 3951,
      "4eff0": 3952,
      "6280": 3953,
      "6220": 3954,
      "62c0": 3955,
      "6210": 3956,
      "62980": 3957,
      "7140": 3958,
      "7150": 3959,
      "f3a0": 3960,
      "f3d0": 3961,
      "f3b0": 3962,
      "d390": 3963,
      "d300": 3964,
      "d360": 3965,
      "d3b8": 3966,
      "4f80": 3967,
      "4f20": 3968,
      "4f60": 3969,
      "4f10": 3970,
      "4fd0": 3971,
      "4f710": 3972,
      "6fd0": 3973,
      "6fa60": 3974,
      "5118": 3975,
      "51b0": 3976,
      "51370": 3977,
      "cb00": 3978,
      "cb50": 3979,
      "cb98": 3980,
      "cbbe0": 3981,
      "7420": 3982,
      "74f0": 3983,
      "7498": 3984,
      "7b80": 3985,
      "7b10": 3986,
      "7b088": 3987,
      "aef0": 3988,
      "ae70": 3989,
      "aee0": 3990,
      "cfa0": 3991,
      "cf8b0": 3992,
      "cfe0": 3993,
      "cfa20": 3994,
      "cfc00": 3995,
      "dba0": 3996,
      "db20": 3997,
      "db70": 3998,
      "db40": 3999,
      "dbb00": 4000,
      "a1c0": 4001,
      "a130": 4002,
      "a160": 4003,
      "a110": 4004,
      "af70": 4005,
      "5930": 4006,
      "59e0": 4007,
      "59b8": 4008,
      "d680": 4009,
      "d670": 4010,
      "d610": 4011,
      "d6420": 4012,
      "4280": 4013,
      "4220": 4014,
      "4228": 4015,
      "42f0": 4016,
      "4270": 4017,
      "42d0": 4018,
      "42b0": 4019,
      "9fc0": 4020,
      "9ff0": 4021,
      "9f60": 4022,
      "9f40": 4023,
      "9fe0": 4024,
      "4c00": 4025,
      "4c60": 4026,
      "4c9b0": 4027,
      "5c90": 4028,
      "5c20": 4029,
      "5c40": 4030,
      "d2a0": 4031,
      "d2b0": 4032,
      "6190": 4033,
      "6170": 4034,
      "6110": 4035,
      "d960": 4036,
      "d970": 4037,
      "d9cc0": 4038,
      "0x7fc15ded8": 4039,
      "bff0": 4040,
      "bf40": 4041,
      "bfb90": 4042,
      "d480": 4043,
      "d490": 4044,
      "d4e0": 4045,
      "d4620": 4046,
      "d4db0": 4047,
      "69f0": 4048,
      "6960": 4049,
      "69a90": 4050,
      "69c90": 4051,
      "d720": 4052,
      "d700": 4053,
      "d730": 4054,
      "5a10": 4055,
      "1270": 4056,
      "12a30": 4057,
      "12310": 4058,
      "1380": 4059,
      "13c0": 4060,
      "6790": 4061,
      "6720": 4062,
      "67c0": 4063,
      "9250": 4064,
      "92af0": 4065,
      "b2c0": 4066,
      "b2f0": 4067,
      "b210": 4068,
      "b2ff0": 4069,
      "bea0": 4070,
      "be088": 4071,
      "be780": 4072,
      "c10018": 4073,
      "0x7fc15f81": 4074,
      "77c": 4075,
      "7710": 4076,
      "6680": 4077,
      "6630": 4078,
      "6610": 4079,
      "d3078": 4080,
      "fe40": 4081,
      "fef00": 4082,
      "3ee0": 4083,
      "1400": 4084,
      "1430": 4085,
      "1460": 4086,
      "1470": 4087,
      "1440": 4088,
      "1450": 4089,
      "14aa0": 4090,
      "ac80": 4091,
      "ac00": 4092,
      "acc0": 4093,
      "acd0": 4094,
      "ace0": 4095,
      "7920": 4096,
      "79c0": 4097,
      "7970": 4098,
      "a400": 4099,
      "a440": 4100,
      "a4e0": 4101,
      "a49f0": 4102,
      "0x7fc15e81": 4103,
      "0x7fc16022": 4104,
      "0x7fc16024": 4105,
      "6c30": 4106,
      "6c60": 4107,
      "9cf0": 4108,
      "9c70": 4109,
      "aa058": 4110,
      "aa078": 4111,
      "b4a0": 4112,
      "b4980": 4113,
      "ffff8": 4114,
      "d500": 4115,
      "d538": 4116,
      "d5b0": 4117,
      "d5f8": 4118,
      "d5df0": 4119,
      "6400": 4120,
      "6470": 4121,
      "9730": 4122,
      "9710": 4123,
      "97c90": 4124,
      "0x7fc1608f": 4125,
      "0x7fc15ee4": 4126,
      "0x7fc1603b": 4127,
      "0x7fc15fe4": 4128,
      "0x7fc15feb": 4129,
      "0x7fc15fef": 4130,
      "ad060": 4131,
      "ad068": 4132,
      "1700": 4133,
      "17088": 4134,
      "2360": 4135,
      "23d8": 4136,
      "ac058": 4137,
      "fb00": 4138,
      "fb40": 4139,
      "fb7d0": 4140,
      "af068": 4141,
      "0x7fc161054": 4142,
      "0x7fc16104f": 4143,
      "0x7fc1610d2": 4144,
      "a690": 4145,
      "a600": 4146,
      "a630": 4147,
      "a610": 4148,
      "1900": 4149,
      "b940": 4150,
      "b9b0": 4151,
      "a70018": 4152,
      "0x7fc15f32": 4153,
      "bc60": 4154,
      "d200": 4155,
      "d2078": 4156,
      "f720": 4157,
      "f760": 4158,
      "f770": 4159,
      "1158": 4160,
      "1140": 4161,
      "1150": 4162,
      "44c0": 4163,
      "a3068": 4164,
      "fc40": 4165,
      "fc50": 4166,
      "fc700": 4167,
      "0x7fc16001": 4168,
      "75078": 4169,
      "9c070": 4170,
      "9f058": 4171,
      "9f050": 4172,
      "18058": 4173,
      "7a078": 4174,
      "9900": 4175,
      "d8080": 4176,
      "7e0018": 4177,
      "a2068": 4178,
      "d5090": 4179,
      "2e050": 4180,
      "31068": 4181,
      "58058": 4182,
      "6900": 4183,
      "cd068": 4184,
      "1b1c0": 4185,
      "2c30": 4186,
      "2c9d0": 4187,
      "2c750": 4188,
      "6a068": 4189,
      "94058": 4190,
      "200018": 4191,
      "0x7fc1613866": 4192,
      "0x7fc161386562": 4193,
      "0x7fc16138683b": 4194,
      "550018": 4195,
      "49088": 4196,
      "59068": 4197,
      "60058": 4198,
      "98078": 4199,
      "98088": 4200,
      "3be0": 4201,
      "5e0a0": 4202,
      "6808": 4203,
      "68058": 4204,
      "c3058": 4205,
      "c7078": 4206,
      "74078": 4207,
      "dab8": 4208,
      "daa8": 4209,
      "2b20": 4210,
      "2bd0": 4211,
      "6f058": 4212,
      "7d058": 4213,
      "0x7fc161280": 4214,
      "f2068": 4215,
      "1f078": 4216,
      "17078": 4217,
      "2b058": 4218,
      "9b068": 4219,
      "b0070": 4220,
      "27078": 4221,
      "53068": 4222,
      "96058": 4223,
      "0x7fc15f76": 4224,
      "0x7fc15fb6": 4225,
      "6d18": 4226,
      "6d28": 4227,
      "6d088": 4228,
      "1c9b0": 4229,
      "b2068": 4230,
      "caa8": 4231,
      "caa90": 4232,
      "de8e0": 4233,
      "f9570": 4234,
      "198a0": 4235,
      "47c0": 4236,
      "f4a50": 4237,
      "1e068": 4238,
      "bb068": 4239,
      "0x7fc15ead": 4240,
      "130c0": 4241,
      "496b0": 4242,
      "bc090": 4243,
      "bf078": 4244,
      "f6c10": 4245,
      "c9b8": 4246,
      "638a0": 4247,
      "76088": 4248,
      "7b810": 4249,
      "95a8": 4250,
      "1d8f0": 4251,
      "45a60": 4252,
      "5d88": 4253,
      "a18a0": 4254,
      "b178": 4255,
      "1b8a0": 4256,
      "4ad60": 4257,
      "96820": 4258,
      "9cbe0": 4259,
      "b6570": 4260,
      "5d2c0": 4261,
      "ca7e0": 4262,
      "c5fc0": 4263,
      "fb820": 4264,
      "f5e60": 4265,
      "0x7fc160e0f7": 4266,
      "5c170": 4267,
      "5c210": 4268,
      "7c3b0": 4269,
      "7cfb0": 4270,
      "d7eb0": 4271,
      "0x7fc16136e678": 4272,
      "0x7fc16136c77c": 4273,
      "4d540": 4274,
      "959a0": 4275,
      "aa4f0": 4276,
      "0xffffffff8": 4277
    },
    "merges": [
      "0 x",
      "7 f",
      "0x 7f",
      "c 1",
      "0x7f c1",
      "0x7fc1 6",
      "0x7fc16 1",
      "0x7fc161 3",
      "b 3",
      "5 5",
      "b b3",
      "0x 55",
      "0x55 bb3",
      "0x7fc1613 b",
      "8 0",
      "9 0",
      "a 7",
      "a 9",
      "d d",
      "0 e",
      "8 b",
      "1 8",
      "0 18",
      "0x55bb3 5",
      "0x55bb35 80",
      "a 0",
      "2 0",
      "5 8",
      "7 e",
      "9 d",
      "a 2",
      "5 6",
      "6 a",
      "f 018",
      "2 e",
      "a 80",
      "2 90",
      "7 dd",
      "a7 4",
      "8 a9",
      "8b 9",
      "f dd",
      "6a a0",
      "56 20",
      "0x7f fdd",
      "0x7ffdd 2e",
      "9d 290",
      "a2 a80",
      "8a9 90",
      "7e 0e",
      "0x7fc1613 9d290",
      "0x7fc1613 a2a80",
      "0x7fc1613 8a990",
      "0x7fc1613 a9",
      "0x7fc1613 7dd",
      "0x7fc1613b 6aa0",
      "0x7fc1613b 5620",
      "0x7fc1613b 7e0e",
      "a7 8b9",
      "0x7ffdd2e a78b9",
      "0x7fc1613a9 a74",
      "0x7fc16137dd 58",
      "0x55bb3580 f018",
      "0x7fc16 0e",
      "0x7fc160e d",
      "8b 0",
      "8 8b0",
      "0x7fc160ed 88b0",
      "0 0",
      "2 8",
      "0x55bb3 7",
      "0x55bb3 8",
      "0x55bb3 b",
      "3 8",
      "0x55bb3 9",
      "4 8",
      "00 8",
      "0x55bb3 a",
      "0x55bb3580 6",
      "0x55bb3 6",
      "0 28",
      "0 48",
      "0 38",
      "0x7fc1 5",
      "0 8",
      "c 2",
      "0x7fc15 e",
      "b3 5",
      "0x55bb35806 b35",
      "c2 c",
      "0x55bb35806 c2c",
      "00 0",
      "d c",
      "c 0",
      "0x55bb35 7f",
      "dc 58",
      "0x55bb357f dc58",
      "3 0",
      "f 0",
      "4 b",
      "6 0",
      "7 0",
      "1 0",
      "4 0",
      "5 0",
      "0x7fc16 0",
      "0x7fc15 f",
      "d 0",
      "d f",
      "b 0",
      "c 3",
      "e 0",
      "7 2",
      "7 3",
      "c 4",
      "f 2",
      "7 8",
      "0x55bb3 7e",
      "1 018",
      "7 018",
      "0x55bb3 7f",
      "0x55bb36 e",
      "1 008",
      "a0 08",
      "20 08",
      "6 8",
      "7 008",
      "0x55bb3 80",
      "4 018",
      "5 008",
      "80 08",
      "6 018",
      "0x55bb36 f",
      "9 e",
      "a 018",
      "5 018",
      "6 008",
      "c 008",
      "0x55bb36 8",
      "90 18",
      "90 08",
      "3 3",
      "4 008",
      "0x55bb3 90",
      "c 018",
      "80 18",
      "b 018",
      "0x55bb37 8",
      "0x55bb37 1",
      "b 008",
      "0x7fc160ed 72",
      "0x7fc160ed72 4b",
      "0x55bb37 b",
      "20 28",
      "0x55bb38 1",
      "d 018",
      "0x55bb3 c1",
      "0x55bb37 4",
      "d e",
      "d 008",
      "0x55bb38 e",
      "0x55bb37 6",
      "00 08",
      "0x55bb37 0",
      "4 028",
      "80 28",
      "0x55bb39 1",
      "3 018",
      "0x55bb37 3",
      "0x55bb37 2",
      "0x55bb38 2",
      "0x55bb38 8",
      "f 008",
      "0x55bb39 e",
      "0x55bb37 9",
      "0x55bb3a e",
      "0x55bb3 b3",
      "0x55bb3 a0",
      "0x55bb3b e",
      "90 28",
      "0x55bb38 6",
      "0x55bb38 f",
      "5 028",
      "a0 28",
      "0x55bb3 a9",
      "0x55bb3 9d",
      "c e",
      "0x55bb37 5",
      "0x7fc15 df",
      "c 028",
      "0x55bb3a 1",
      "2 018",
      "0x55bb38 3",
      "0x55bb3 a2",
      "1 028",
      "a0 38",
      "0x55bb37 a",
      "0x55bb38 4",
      "0x55bb3b f",
      "0x55bb39 8",
      "0x55bb39 b",
      "20 38",
      "0x55bb3b 8",
      "0x55bb3a f",
      "6 028",
      "f 028",
      "0x55bb3b 1",
      "c 048",
      "0x55bb3 a7",
      "0x55bb3b b",
      "0x55bb39 f",
      "0x7fc15e 1",
      "3 008",
      "d 028",
      "0x55bb3 8b",
      "0x55bb38 9",
      "0x55bb39 4",
      "0x55bb3a 8",
      "0x55bb38 5",
      "7 048",
      "0x55bb39 3",
      "0x55bb36 d",
      "0x55bb39 9",
      "0x55bb3a b",
      "0x55bb39 6",
      "80 38",
      "0x55bb3b 6",
      "5 038",
      "6 048",
      "0x55bb3b 0",
      "0x55bb3a 4",
      "b 028",
      "0x55bb3b 2",
      "0x55bb39 2",
      "0x55bb3a 3",
      "0x55bb3a 6",
      "0x55bb36 7",
      "90 48",
      "0x55bb37 d",
      "0x55bb36 b",
      "d 048",
      "a0 48",
      "20 48",
      "0x55bb38 a",
      "7 028",
      "b 048",
      "e 018",
      "0x55bb3 c0",
      "0x55bb3b 9",
      "4 038",
      "6 038",
      "f 048",
      "55 c",
      "0x55bb3 c2",
      "0x55bb3b 4",
      "f 038",
      "0x7fc15e 2",
      "0x55bb3b a",
      "0x55bb35806 55c",
      "0x55bb39 5",
      "e 008",
      "0x7fc15e 0",
      "0x55bb3 6a",
      "0x55bb36 c",
      "0x55bb39 a",
      "3 028",
      "0x55bb37 c",
      "0x55bb38 7",
      "0x55bb3a 5",
      "0x55bb37 7",
      "1 038",
      "0x55bb38 d",
      "5 048",
      "7 038",
      "d 038",
      "c 038",
      "1 048",
      "0x7fc161 28",
      "0x7fc16128 f2",
      "0x55bb3 c3",
      "0x55bb36 9",
      "80 48",
      "0x55bb3b 5",
      "0x55bb3a a",
      "4 048",
      "90 38",
      "0x55bb3a d",
      "b 038",
      "0x55bb3b d",
      "0x55bb38 c",
      "0x55bb3a c",
      "0x55bb3b c",
      "0x55bb39 7",
      "0x55bb39 c",
      "00 28",
      "e 028",
      "0x55bb3b 7",
      "3 048",
      "3 038",
      "00 48",
      "e 038",
      "00 38",
      "56 7",
      "9 8",
      "0x55bb35806 567",
      "5 2",
      "0x7fc16128f2 28",
      "5 73",
      "0x55bb35806 573",
      "e 048",
      "0x55bb35806 b",
      "0x55bb36 6",
      "0x7fc15e 3",
      "0x55bb3 c",
      "0x55bb36 3",
      "0x55bb36 4",
      "b 8",
      "a 8",
      "f 8",
      "d 8",
      "c4 9",
      "c 8",
      "0x55bb35806 c49",
      "0x55bb35806b 52",
      "20 00",
      "a0 00",
      "0x55bb36 2",
      "1 e",
      "7 000",
      "80 00",
      "08 8",
      "90 00",
      "6 000",
      "1 000",
      "f 000",
      "5 b",
      "4 000",
      "c 000",
      "d 000",
      "5 3",
      "5 000",
      "e 8",
      "d 9e",
      "6 e",
      "0x55bb35806 d9e",
      "9 1",
      "0x7fc16128f2 33",
      "5 f",
      "9 4",
      "c c",
      "9 b",
      "a 3",
      "6 3",
      "5 4",
      "1 f",
      "a b",
      "6 b",
      "00 00",
      "5 e",
      "d 1",
      "4 1",
      "9 3",
      "4 e",
      "6 2",
      "7 1",
      "f 3",
      "d 3",
      "4 f",
      "6 f",
      "4 3",
      "5 1",
      "c b",
      "7 4",
      "7 b",
      "a e",
      "c f",
      "d b",
      "a 1",
      "8 8",
      "a f",
      "5 9",
      "d 6",
      "4 2",
      "9 f",
      "4 c",
      "5 c",
      "d 2",
      "6 1",
      "d 9",
      "0x7fc15 de",
      "b f",
      "d 4",
      "d f0",
      "a0 0",
      "6 9",
      "d 7",
      "5 a",
      "1 2",
      "1 3",
      "5 7",
      "6 7",
      "9 2",
      "b 2",
      "b e",
      "c1 0",
      "0x7fc15f 8",
      "7 7",
      "6 6",
      "d 30",
      "f e",
      "3 e",
      "1 4",
      "a c",
      "b 000",
      "7 9",
      "a 4",
      "0x7fc15e 8",
      "0x7fc160 2",
      "6 c",
      "9 c",
      "4 e018",
      "a a0",
      "b 4",
      "a 90",
      "f f",
      "6 20",
      "d 5",
      "80 0",
      "8b0 08",
      "6 4",
      "9 7",
      "a b0",
      "0x7fc16 08",
      "0x7fc15e e",
      "0x7fc160 3",
      "0x7fc15f e",
      "0x55bb35806b 98",
      "a d0",
      "1 7",
      "2 3",
      "5 00",
      "a c0",
      "b 7018",
      "d 90",
      "f b",
      "dd 0",
      "a f0",
      "a d028",
      "0x7fc161 0",
      "a 6",
      "a 50",
      "7f 0",
      "1 90",
      "1 1008",
      "5 c0",
      "5 c028",
      "a 1008",
      "d b0",
      "d e0",
      "7f 018",
      "7e 008",
      "c4 018",
      "a 60",
      "0e 0",
      "4b 0",
      "1 a018",
      "5 a0",
      "5 4028",
      "5 3018",
      "7 7018",
      "b 9",
      "b 1018",
      "b 0008",
      "c c0",
      "c 5018",
      "d 60",
      "d b008",
      "d 0008",
      "e 3",
      "f a018",
      "55 008",
      "80 018",
      "a7 0",
      "0x7fc15f 3",
      "b c",
      "d 20",
      "f 7",
      "1 1",
      "4 4",
      "4 d048",
      "5 2018",
      "5 e008",
      "6 0008",
      "7 4018",
      "9 4018",
      "9 8008",
      "a 30",
      "a 4008",
      "c 7018",
      "c 0008",
      "d 00",
      "f c",
      "f 6018",
      "0x7fc16 00",
      "0x55bb36 7f",
      "9d 0",
      "1 4018",
      "1 d018",
      "4 8008",
      "4 8028",
      "5 1008",
      "6 c018",
      "6 b018",
      "7 50",
      "7 1018",
      "9 c0",
      "9 f0",
      "9 1018",
      "9 b008",
      "a c008",
      "a 3018",
      "a e008",
      "b c008",
      "e c008",
      "e 3018",
      "f 8008",
      "c1 018",
      "b3 0",
      "a7 018",
      "0x55bb36 7e",
      "0x55bb36 df",
      "0x55bb36 de",
      "0x55bb36 ce",
      "5 20",
      "a e0",
      "1 80",
      "1 f008",
      "4 7008",
      "4 4018",
      "4 5018",
      "5 a018",
      "5 d008",
      "6 7008",
      "7 a0",
      "7 5018",
      "9 90",
      "9 20",
      "9 a008",
      "9 7008",
      "b d008",
      "c a008",
      "d 80",
      "d 70",
      "f 5008",
      "a7 028",
      "a0 018",
      "7e 0",
      "0x55bb37 20",
      "0x55bb37 7e",
      "4b 018",
      "73 008",
      "9e 028",
      "0x55bb374 e",
      "5 f0",
      "1 f018",
      "1 2008",
      "1 6008",
      "1 c008",
      "1 2028",
      "1 3008",
      "4 f018",
      "4 0008",
      "5 9008",
      "5 4008",
      "5 b018",
      "5 0008",
      "5 f008",
      "6 70",
      "6 5008",
      "6 6018",
      "a 20",
      "a 9018",
      "a 9008",
      "a e018",
      "c 20",
      "c a018",
      "c d018",
      "d a0",
      "d 50",
      "d 1008",
      "d 6018",
      "d 2018",
      "f 4008",
      "f f008",
      "f e008",
      "2e 0",
      "0x55bb37 7f",
      "0x55bb37 80",
      "0x55bb37 df",
      "0x55bb38 73",
      "0x55bb36 dd",
      "0x7fc15 f0",
      "c2 018",
      "10 018",
      "3 10",
      "6 50",
      "9 30",
      "dc 0",
      "1 5008",
      "1 6018",
      "1 8018",
      "1 e018",
      "3 9008",
      "4 a008",
      "4 9008",
      "4 d018",
      "4 c028",
      "5 80",
      "5 d0",
      "5 1018",
      "6 90",
      "6 b0",
      "6 1018",
      "6 a008",
      "6 9018",
      "6 8018",
      "6 5028",
      "6 f038",
      "6 1048",
      "7 8008",
      "7 6008",
      "7 9018",
      "7 8038",
      "9 6018",
      "9 5018",
      "9 4008",
      "9 c048",
      "a b038",
      "b a038",
      "b 4038",
      "c 90",
      "c d0",
      "c 2008",
      "c 9008",
      "c f028",
      "c 0028",
      "d 10",
      "d 5008",
      "d 5018",
      "d 4008",
      "f a008",
      "f 7008",
      "f 4018",
      "f 9008",
      "0x55bb3 7dd",
      "80 008",
      "9d 018",
      "2e 008",
      "290 08",
      "0x55bb37 55",
      "0x55bb37 90",
      "0x55bb37 0e",
      "0x55bb37 00",
      "0x55bb37 50",
      "0x55bb37 73",
      "0x55bb37 9e",
      "0x55bb37 ce",
      "0x55bb38 28",
      "0x55bb38 60",
      "0x55bb39 80",
      "0x55bb39 c3",
      "0x55bb36 dc",
      "dc 018",
      "4b 008",
      "c3 048",
      "1 b",
      "9 e0",
      "1 7018",
      "1 4008",
      "1 0008",
      "1 9028",
      "2 c",
      "2 3018",
      "3 6008",
      "3 d018",
      "4 1018",
      "4 2008",
      "4 1028",
      "4 3008",
      "5 70",
      "5 40",
      "5 9018",
      "5 b008",
      "5 a038",
      "5 e018",
      "6 a0",
      "6 e0",
      "6 2008",
      "6 c008",
      "6 4008",
      "6 7048",
      "7 60",
      "7 70",
      "7 2008",
      "7 c018",
      "7 a028",
      "7 d048",
      "9 f018",
      "9 40",
      "9 2008",
      "9 3018",
      "a 40",
      "a 1018",
      "a 2008",
      "a a018",
      "a 5018",
      "a f028",
      "b 5008",
      "b 6018",
      "b d018",
      "b 2018",
      "c 6008",
      "c c008",
      "c 7048",
      "d a008",
      "d 3048",
      "e e",
      "f 1018",
      "f 8018",
      "f 2028",
      "f 9028",
      "f c048",
      "f b028",
      "f d038",
      "7f 028",
      "c1 008",
      "b3 008",
      "55 018",
      "90 008",
      "20 0",
      "20 038",
      "56 0",
      "a80 08",
      "0x55bb37 c1",
      "0x55bb37 58",
      "0x55bb37 dc",
      "0x55bb37 4b",
      "0x55bb37 70",
      "0x55bb37 78",
      "0x55bb37 33",
      "0x55bb38 ce",
      "0x55bb3b 9d",
      "0x55bb39 7f",
      "0x55bb36 80",
      "0x55bb36 73",
      "df 008",
      "73 018",
      "0x55bb36e 8",
      "0x55bb36f e",
      "0x55bb368 8",
      "0x55bb375 e",
      "0x55bb36d 2",
      "0x7fc1613 8",
      "1 a008",
      "1 b018",
      "2 5018",
      "3 000",
      "3 7008",
      "3 8018",
      "3 f008",
      "4 f0",
      "4 6018",
      "4 2028",
      "4 a038",
      "5 10",
      "5 2008",
      "5 c018",
      "5 0028",
      "6 d008",
      "6 2018",
      "6 3008",
      "6 d028",
      "6 e018",
      "6 3028",
      "7 30",
      "7 10",
      "7 5008",
      "7 2028",
      "7 c048",
      "7 0038",
      "8 6008",
      "9 1008",
      "9 9018",
      "9 c018",
      "9 9028",
      "9 b028",
      "a 6008",
      "a 5048",
      "b b",
      "b 9018",
      "b 7048",
      "b 6048",
      "b e018",
      "c 80",
      "c 6018",
      "c 9018",
      "c b018",
      "c b008",
      "c 8028",
      "c d028",
      "c 8038",
      "c 5038",
      "d 4018",
      "d a048",
      "d 0038",
      "e 2018",
      "f 7018",
      "f c008",
      "f c018",
      "f b018",
      "f d018",
      "f 0008",
      "b3 038",
      "55 0",
      "80 048",
      "90 0",
      "90 028",
      "6a 018",
      "0x55bb37 9d",
      "0x55bb37 a2",
      "0x55bb37 56",
      "0x55bb37 2e",
      "0x55bb37 38",
      "0x55bb37 48",
      "0x55bb37 30",
      "0x55bb37 60",
      "0x55bb37 b0",
      "0x55bb37 c3",
      "0x55bb37 68",
      "0x55bb37 de",
      "0x55bb38 7f",
      "0x55bb38 80",
      "0x55bb38 dd",
      "0x55bb38 70",
      "0x55bb38 d0",
      "0x55bb38 9e",
      "0x55bb38 33",
      "0x55bb38 de",
      "0x55bb3b c1",
      "0x55bb3b dd",
      "0x55bb3b df",
      "0x55bb39 a2",
      "0x55bb39 9e",
      "0x55bb3a 8b",
      "0x55bb36 90",
      "0x55bb36 f0",
      "0x55bb36 70",
      "0x55bb36 78",
      "0x7fc15f 1",
      "0x7fc15f 2",
      "c3 038",
      "0x55bb36f 8",
      "0x55bb378 8",
      "0x55bb3a9 8",
      "0x55bb385 e",
      "7 20",
      "56 008",
      "1 7008",
      "1 5018",
      "1 3028",
      "1 3038",
      "2 5008",
      "3 9018",
      "3 a028",
      "3 e038",
      "4 90",
      "4 f048",
      "5 90",
      "5 8008",
      "6 00",
      "6 7018",
      "6 8028",
      "6 3018",
      "6 e028",
      "7 a018",
      "7 d018",
      "7 b048",
      "9 80",
      "9 a0",
      "9 70",
      "9 50",
      "9 8018",
      "9 a028",
      "9 2018",
      "9 5038",
      "a 10",
      "a b018",
      "a b008",
      "a d008",
      "a 2038",
      "a 6028",
      "b f018",
      "b 8018",
      "b b018",
      "b 1028",
      "b b048",
      "b 5048",
      "c 60",
      "c 7008",
      "c 8008",
      "c 8018",
      "c f038",
      "d 1018",
      "d 8018",
      "d 5028",
      "d 7048",
      "d 9038",
      "e 1008",
      "f e0",
      "f 9018",
      "f e038",
      "b3 018",
      "0x55bb3 8a9",
      "20 018",
      "20 008",
      "7e 048",
      "56 028",
      "56 038",
      "2e 018",
      "a80 18",
      "290 18",
      "0x55bb37 a7",
      "0x55bb37 a9",
      "0x55bb37 8b",
      "0x55bb37 a0",
      "0x55bb37 28",
      "0x55bb37 10",
      "0x55bb37 40",
      "0x55bb37 72",
      "0x55bb38 a2",
      "0x55bb38 c3",
      "0x55bb3b 2e",
      "0x55bb3b f0",
      "0x55bb39 dd",
      "0x55bb3a 58",
      "0x55bb3a 56",
      "0x55bb3a df",
      "0x55bb3a 33",
      "0x55bb36 d0",
      "0x55bb36 72",
      "0x55bb36 f2",
      "30 018",
      "f0 018",
      "4b 048",
      "70 018",
      "0x7fc160 1",
      "0x7fc160 b",
      "0x7fc160 c",
      "9e 018",
      "33 008",
      "0x55bb390 0",
      "0x55bb376 e",
      "0x55bb373 e",
      "0x55bb379 8",
      "0x55bb38f e",
      "ce 018",
      "ce 008",
      "ce 028",
      "0x55bb398 e",
      "0x55bb39b 8",
      "0x55bb3af e",
      "0x55bb36d 3",
      "0x55bb3c 0e",
      "4 00",
      "1 9008",
      "1 b008",
      "1 d008",
      "1 4028",
      "1 5028",
      "1 2018",
      "1 1028",
      "2 1018",
      "2 f028",
      "3 b",
      "3 c018",
      "3 0008",
      "3 1028",
      "4 40",
      "4 c008",
      "4 9018",
      "4 4028",
      "4 3018",
      "4 5028",
      "4 6028",
      "4 6038",
      "4 7038",
      "4 3048",
      "5 e0",
      "5 7018",
      "5 7008",
      "5 8018",
      "5 d018",
      "5 3008",
      "6 80",
      "6 f018",
      "6 1008",
      "6 b008",
      "6 2028",
      "6 2048",
      "6 4038",
      "6 d038",
      "6 c038",
      "6 4048",
      "6 0038",
      "7 80",
      "7 a008",
      "7 9008",
      "7 b018",
      "7 d008",
      "7 b028",
      "9 8028",
      "9 3008",
      "9 6038",
      "9 3038",
      "a 4018",
      "a 6018",
      "a c018",
      "a c048",
      "a 3008",
      "a 5038",
      "a f038",
      "a 3028",
      "b 1008",
      "b 8008",
      "b 8028",
      "b f008",
      "b 6028",
      "b a048",
      "c f018",
      "c 00",
      "c 30",
      "c 70",
      "c 5008",
      "c 2048",
      "c b048",
      "d f018",
      "d 40",
      "d 7018",
      "d b018",
      "d 8038",
      "d 6038",
      "f 80",
      "f 00",
      "f 3018",
      "f 6048",
      "f b038",
      "c1 028",
      "55 028",
      "0x55bb3 bb3",
      "0x55bb3 a74",
      "0x55bb3 8b0",
      "90 018",
      "a7 008",
      "dd 028",
      "8b 018",
      "a0 038",
      "20 028",
      "9d 008",
      "a2 018",
      "0x55bb37 b3",
      "0x55bb38 c1",
      "0x55bb38 55",
      "0x55bb38 90",
      "0x55bb38 18",
      "0x55bb38 9d",
      "0x55bb38 38",
      "0x55bb38 48",
      "0x55bb38 dc",
      "0x55bb38 40",
      "0x55bb3b 7f",
      "0x55bb3b 18",
      "0x55bb3b 20",
      "0x55bb3b 56",
      "0x55bb3b 28",
      "0x55bb3b 4b",
      "0x55bb3b c3",
      "0x55bb3b 72",
      "0x55bb3b 73",
      "0x55bb3b c4",
      "0x55bb3b 9e",
      "0x55bb3b de",
      "0x55bb3b ce",
      "0x55bb39 c1",
      "0x55bb39 56",
      "0x55bb39 2e",
      "0x55bb39 50",
      "0x55bb39 e0",
      "0x55bb39 73",
      "0x55bb39 33",
      "0x55bb39 ce",
      "0x55bb3a 90",
      "0x55bb3a dd",
      "0x55bb3a 0e",
      "0x55bb36 8b",
      "0x55bb36 c0",
      "0x7fc15e f",
      "0x7fc15e 2e",
      "0x7fc15e 33",
      "dc 048",
      "40 018",
      "50 018",
      "0x7fc15f 4",
      "df 028",
      "72 018",
      "f2 018",
      "0x55bb37e 0",
      "0x55bb380 0",
      "0x55bb368 e",
      "0x55bb37b e",
      "de 048",
      "0x55bb38e e",
      "0x55bb376 3",
      "0x55bb373 2",
      "0x55bb383 e",
      "0x55bb37a e",
      "0x55bb384 e",
      "0x55bb39b e",
      "0x55bb3af 3",
      "0x55bb38b 8",
      "0x55bb393 e",
      "0x55bb36c 8",
      "0x55bb366 e",
      "0x55bb3c 2e",
      "1 c0",
      "1 d0",
      "1 8028",
      "1 b028",
      "1 9048",
      "1 6038",
      "1 e028",
      "2 b018",
      "2 d008",
      "3 4018",
      "3 4028",
      "4 1008",
      "4 a018",
      "4 6008",
      "4 c018",
      "4 2038",
      "4 5038",
      "4 0048",
      "5 b0",
      "5 1028",
      "5 f028",
      "5 d048",
      "5 2048",
      "5 f048",
      "5 3028",
      "5 7038",
      "6 9008",
      "6 4028",
      "6 9028",
      "6 6028",
      "6 6048",
      "6 f048",
      "6 e038",
      "7 40",
      "7 1008",
      "7 6018",
      "7 c008",
      "7 b008",
      "7 9028",
      "7 5028",
      "7 2038",
      "7 7048",
      "7 6048",
      "9 5008",
      "9 a018",
      "9 6008",
      "9 2028",
      "9 4028",
      "9 f008",
      "9 f038",
      "9 7038",
      "a a008",
      "a f008",
      "a 4038",
      "a e028",
      "b 4008",
      "b 9028",
      "b c028",
      "b c048",
      "b 9048",
      "b 2048",
      "b e028",
      "c b0",
      "c d008",
      "c c028",
      "c c038",
      "c 9038",
      "d a",
      "d 7008",
      "d 8008",
      "d a018",
      "d 2038",
      "d 9048",
      "f 1038",
      "f 3048",
      "7f 038",
      "0x55bb3 a80",
      "0x55bb3 c2c",
      "dd 048",
      "9d 048",
      "9d 038",
      "a80 38",
      "290 48",
      "0x55bb37 18",
      "0x55bb37 c2",
      "0x55bb37 c0",
      "0x55bb37 d0",
      "0x55bb37 c4",
      "0x55bb38 a7",
      "0x55bb38 a0",
      "0x55bb38 20",
      "0x55bb38 7e",
      "0x55bb38 56",
      "0x55bb38 2e",
      "0x55bb38 30",
      "0x55bb38 4b",
      "0x55bb38 10",
      "0x55bb38 df",
      "0x55bb38 68",
      "0x55bb3b 55",
      "0x55bb3b 80",
      "0x55bb3b a9",
      "0x55bb3b 0e",
      "0x55bb3b a0",
      "0x55bb3b 58",
      "0x55bb3b 7e",
      "0x55bb3b 6a",
      "0x55bb3b dc",
      "0x55bb3b e0",
      "0x55bb3b 78",
      "0x55bb39 90",
      "0x55bb39 a9",
      "0x55bb39 7e",
      "0x55bb39 30",
      "0x55bb3a 7f",
      "0x55bb3a c1",
      "0x55bb3a 55",
      "0x55bb3a a9",
      "0x55bb3a dc",
      "0x55bb3a 30",
      "0x55bb3a 4b",
      "0x55bb3a 50",
      "0x55bb3a c3",
      "0x55bb3a e0",
      "0x55bb3a c4",
      "0x55bb3a ce",
      "0x55bb36 c1",
      "0x55bb36 a9",
      "0x55bb36 c3",
      "0x55bb36 9e",
      "0x7fc15e 7",
      "0x7fc15e 0e",
      "4b 028",
      "60 018",
      "0x7fc15f c",
      "0x7fc15f f",
      "e0 018",
      "73 028",
      "0x55bb37e 8",
      "0x55bb37e e",
      "0x55bb37f 0",
      "0x55bb36e e",
      "0x55bb36f 3",
      "9e 008",
      "9e 038",
      "33 028",
      "0x55bb390 2",
      "0x55bb390 e",
      "0x55bb371 e",
      "0x55bb37b 8",
      "0x55bb3c1 e",
      "0x55bb388 8",
      "0x55bb388 e",
      "0x55bb39e e",
      "0x55bb3ae 8",
      "0x55bb38f 3",
      "0x55bb39d e",
      "ce 038",
      "0x55bb375 2",
      "0x55bb37a 8",
      "0x55bb3bf 8",
      "0x55bb3b8 8",
      "0x55bb3b1 e",
      "0x55bb3a7 0",
      "0x7fc15e1 e",
      "0x55bb38b 2",
      "0x55bb3a8 8",
      "0x55bb3a8 e",
      "0x55bb399 8",
      "0x55bb3a4 e",
      "0x55bb37d 8",
      "0x55bb36b 8",
      "0x7fc15e2 3",
      "0x55bb3ba 8",
      "0x55bb395 e",
      "0x55bb36a 8",
      "0x55bb39a e",
      "0x55bb37c 8",
      "0x55bb3a5 e",
      "0x55bb3b5 e",
      "0x55bb3aa e",
      "0x55bb3ad 8",
      "0x55bb3bc 8",
      "0x55bb3c 20",
      "0x55bb3c 28",
      "1 60",
      "1 c018",
      "1 c028",
      "1 c048",
      "1 7048",
      "1 b048",
      "1 b038",
      "1 0048",
      "2 b",
      "2 a008",
      "2 8008",
      "2 4028",
      "2 a028",
      "2 3008",
      "2 6048",
      "2 f048",
      "4 a0",
      "4 30",
      "4 60",
      "4 7018",
      "4 5008",
      "4 4008",
      "4 f028",
      "4 c048",
      "4 e008",
      "4 d038",
      "5 f018",
      "5 c008",
      "5 8028",
      "5 7048",
      "5 8038",
      "5 7028",
      "5 d038",
      "5 9038",
      "5 b038",
      "6 f0",
      "6 60",
      "6 40",
      "6 8008",
      "6 6008",
      "6 a028",
      "6 a038",
      "6 f028",
      "6 5038",
      "6 9048",
      "6 d048",
      "7 d0",
      "7 7008",
      "7 0008",
      "7 4028",
      "7 8028",
      "7 7038",
      "7 0028",
      "7 0048",
      "9 a",
      "9 b018",
      "9 5028",
      "9 9048",
      "9 7028",
      "9 3028",
      "9 1048",
      "a f018",
      "a a028",
      "a 6048",
      "a 6038",
      "b 6008",
      "b b008",
      "b 2028",
      "b b028",
      "b 4048",
      "c 50",
      "c c018",
      "c 6048",
      "c b028",
      "d 9018",
      "d 9008",
      "d 2028",
      "d 3018",
      "d 3008",
      "d 3028",
      "d 8048",
      "f 30",
      "f 1028",
      "f f028",
      "f 3008",
      "f d028",
      "f f048",
      "f f038",
      "f 0048",
      "c1 038",
      "0x7fc161 2",
      "b3 048",
      "0x55bb3 8b9",
      "0e 008",
      "0e 028",
      "a0 028",
      "a0 048",
      "7e 018",
      "56 018",
      "2e 048",
      "00 028",
      "0x55bb37 08",
      "0x55bb38 b3",
      "0x55bb38 c0",
      "0x55bb38 f0",
      "0x55bb38 72",
      "0x55bb38 c4",
      "0x55bb3b 8b",
      "0x55bb3b 00",
      "0x55bb3b c2",
      "0x55bb3b c0",
      "0x55bb3b d0",
      "0x55bb3b 68",
      "0x55bb39 b3",
      "0x55bb39 55",
      "0x55bb39 18",
      "0x55bb39 a0",
      "0x55bb39 9d",
      "0x55bb39 38",
      "0x55bb39 48",
      "0x55bb39 c0",
      "0x55bb39 4b",
      "0x55bb39 72",
      "0x55bb39 78",
      "0x55bb3a a0",
      "0x55bb3a a2",
      "0x55bb3a 38",
      "0x55bb3a 48",
      "0x55bb3a c0",
      "0x55bb3a 10",
      "0x55bb3a d0",
      "0x55bb3a 68",
      "0x55bb3a de",
      "0x55bb36 c4",
      "0x7fc15e 28",
      "c4 048",
      "0x55bb37e 2",
      "0x55bb37f 8",
      "0x55bb37f e",
      "0x55bb380 8",
      "0x55bb390 8",
      "0x55bb378 e",
      "0x55bb371 3",
      "de 008",
      "de 028",
      "0x55bb38e 8",
      "0x55bb391 e",
      "0x55bb382 3",
      "0x55bb3a0 8",
      "0x55bb3be e",
      "0x55bb386 3",
      "0x55bb39d 0",
      "0x55bb3a2 8",
      "0x55bb3b8 e",
      "0x55bb3b1 2",
      "0x55bb3bb e",
      "0x55bb39f 8",
      "0x55bb38b e",
      "0x55bb394 e",
      "0x55bb36d 8",
      "0x55bb3ab 8",
      "0x55bb3ab e",
      "0x55bb396 e",
      "0x55bb3a3 e",
      "0x55bb3a6 3",
      "0x55bb38a 8",
      "0x55bb3ba e",
      "0x55bb369 3",
      "0x55bb3bd 8",
      "0x55bb3c 38",
      "f 20",
      "1 f0",
      "1 70",
      "1 40",
      "1 8008",
      "1 9018",
      "1 a038",
      "1 d028",
      "1 d048",
      "1 e008",
      "1 8048",
      "1 e038",
      "2 b0",
      "2 7018",
      "2 4018",
      "2 2028",
      "2 7028",
      "3 b018",
      "3 2018",
      "3 d028",
      "4 10",
      "4 8018",
      "4 9028",
      "4 4038",
      "4 1038",
      "4 0028",
      "4 3038",
      "5 2028",
      "5 4038",
      "6 30",
      "6 10",
      "6 d0",
      "6 d018",
      "6 b028",
      "6 b048",
      "6 e008",
      "6 1038",
      "7 00",
      "7 b0",
      "7 1028",
      "7 d028",
      "7 9048",
      "7 1048",
      "7 8048",
      "9 10",
      "9 b0",
      "9 7018",
      "9 c028",
      "9 2038",
      "9 6028",
      "9 2048",
      "9 1038",
      "a 5008",
      "a 4028",
      "a 9028",
      "a a038",
      "a 2048",
      "a f048",
      "a 1048",
      "b 00",
      "b 2008",
      "b 9008",
      "b f028",
      "b 8038",
      "b f048",
      "b d038",
      "b e038",
      "b e048",
      "c f0",
      "c f008",
      "c 9028",
      "c a028",
      "c a038",
      "c 6028",
      "c 0048",
      "d 5038",
      "d 6048",
      "d 2048",
      "d b048",
      "d 4038",
      "f 90",
      "f f0",
      "f 1008",
      "f 5018",
      "f 5028",
      "f 2038",
      "f 8038",
      "f e018",
      "f 6038",
      "f 3028",
      "f 5048",
      "f 7038",
      "f 3038",
      "0x55bb3 b35",
      "a7 038",
      "dd 008",
      "0e 018",
      "20 048",
      "7e 028",
      "8b0 38",
      "00 008",
      "0x55bb37 6a",
      "0x55bb38 8b",
      "0x55bb38 e0",
      "0x55bb38 f2",
      "0x55bb3b 90",
      "0x55bb3b a2",
      "0x55bb3b 48",
      "0x55bb3b 08",
      "0x55bb3b 60",
      "0x55bb3b 40",
      "0x55bb3b 50",
      "0x55bb3b b0",
      "0x55bb39 58",
      "0x55bb39 28",
      "0x55bb39 c2",
      "0x55bb39 f0",
      "0x55bb39 60",
      "0x55bb39 70",
      "0x55bb39 10",
      "0x55bb39 40",
      "0x55bb39 b0",
      "0x55bb39 c4",
      "0x55bb3a b3",
      "0x55bb3a a7",
      "0x55bb3a 18",
      "0x55bb3a 20",
      "0x55bb3a 6a",
      "0x55bb3a f0",
      "0x55bb3a b0",
      "0x55bb36 b3",
      "0x55bb36 c2",
      "0x55bb36 e0",
      "0x7fc15 df0",
      "0x7fc15e 4",
      "0x7fc15e 18",
      "0x7fc15e 20",
      "0x7fc15e 00",
      "0x7fc15e 38",
      "0x7fc15e 08",
      "0x7fc15e 30",
      "dc 008",
      "dc 028",
      "0x7fc160 4",
      "0x7fc160 9",
      "0x7fc160 a",
      "d0 018",
      "df 048",
      "c3 018",
      "c3 028",
      "c4 008",
      "c4 038",
      "0x55bb380 3",
      "0x55bb380 e",
      "0x55bb3c1 0",
      "0x55bb3c1 8",
      "de 018",
      "de 038",
      "0x55bb39e 8",
      "0x55bb3ae e",
      "0x55bb3b3 0",
      "0x55bb3b3 8",
      "0x55bb3a0 0",
      "0x55bb3a9 e",
      "0x55bb39d 8",
      "0x7fc15df 8",
      "0x7fc15df e",
      "0x55bb3a2 e",
      "0x55bb3bf e",
      "0x55bb398 8",
      "0x55bb3af 8",
      "0x55bb3a7 8",
      "0x55bb3a7 e",
      "0x55bb3bb 2",
      "0x55bb389 8",
      "0x55bb3b6 3",
      "0x55bb3b6 e",
      "0x55bb36b e",
      "0x55bb38a e",
      "0x55bb3b9 8",
      "0x55bb3b4 3",
      "0x55bb3b4 e",
      "0x55bb36a e",
      "0x55bb38d 2",
      "0x55bb3c 30",
      "0x7fc15de e",
      "1 10",
      "4 70",
      "4 e0",
      "f a0",
      "1 b0",
      "1 1018",
      "1 a028",
      "1 8038",
      "1 5038",
      "1 7028",
      "1 1038",
      "1 5048",
      "1 9038",
      "1 0038",
      "2 70",
      "2 50",
      "2 c018",
      "2 b008",
      "2 6038",
      "2 c038",
      "2 8048",
      "3 5018",
      "3 b028",
      "4 2018",
      "4 7028",
      "4 9038",
      "4 e028",
      "5 30",
      "5 a008",
      "5 4018",
      "5 a028",
      "5 b048",
      "5 e028",
      "6 c0",
      "6 4018",
      "6 8038",
      "6 a048",
      "6 5048",
      "6 8048",
      "6 3038",
      "6 e048",
      "7 c028",
      "7 a038",
      "7 6028",
      "7 4038",
      "7 c038",
      "7 4048",
      "9 60",
      "9 c008",
      "9 9008",
      "9 b048",
      "9 f048",
      "9 4048",
      "a 2028",
      "a d018",
      "a b028",
      "a a048",
      "a 9038",
      "b a008",
      "b 7008",
      "b 4028",
      "b 5028",
      "b 5038",
      "b e008",
      "b 0048",
      "c a0",
      "c 5028",
      "c 2038",
      "c 0038",
      "d 7028",
      "d 1038",
      "d 7038",
      "d 1048",
      "e 000",
      "f 50",
      "f 2008",
      "f a028",
      "f 0028",
      "c1 048",
      "90 038",
      "dd 018",
      "0e 048",
      "0e 038",
      "a0 008",
      "2e 038",
      "a80 28",
      "a80 48",
      "290 28",
      "0x55bb38 58",
      "0x55bb38 c2",
      "0x55bb38 50",
      "0x55bb38 78",
      "0x55bb3b a7",
      "0x55bb3b 70",
      "0x55bb3b 10",
      "0x55bb39 8b",
      "0x55bb39 20",
      "0x55bb39 6a",
      "0x55bb39 f2",
      "0x55bb39 68",
      "0x55bb3a 60",
      "0x55bb3a 40",
      "0x55bb3a f2",
      "0x55bb36 a7",
      "0x55bb36 a2",
      "0x55bb36 b0",
      "0x7fc15e 10",
      "0x7fc15f 7",
      "c3 008",
      "73 038",
      "0x55bb380 2",
      "0x55bb368 2",
      "33 038",
      "0x55bb381 e",
      "0x55bb3c1 3",
      "0x55bb38e 3",
      "0x55bb379 3",
      "0x55bb3b3 e",
      "0x55bb3be 8",
      "0x55bb386 e",
      "0x55bb375 3",
      "0x7fc15df 1",
      "0x7fc15df 3",
      "0x7fc15df f",
      "0x55bb3a1 e",
      "0x55bb3bb 8",
      "0x55bb39f e",
      "0x7fc15e1 1",
      "0x55bb3a4 3",
      "0x7fc15e2 f",
      "0x7fc15e0 3",
      "0x55bb39a 8",
      "0x55bb38d 8",
      "0x55bb3c3 3",
      "0x55bb369 8",
      "0x55bb3aa 8",
      "0x55bb3ad 3",
      "0x55bb38c 8",
      "0x55bb39c 8",
      "0x55bb3c 00",
      "0x55bb3c 08",
      "1 00",
      "1 2038",
      "1 a048",
      "1 f038",
      "1 7038",
      "1 d038",
      "1 e048",
      "2 20",
      "2 c0",
      "2 30",
      "2 f0",
      "2 6018",
      "2 2018",
      "2 d028",
      "2 8038",
      "2 5048",
      "4 80",
      "4 20",
      "4 f008",
      "4 a028",
      "4 9048",
      "4 f038",
      "4 3028",
      "4 e038",
      "5 9048",
      "5 f038",
      "5 1038",
      "5 3048",
      "5 0048",
      "5 e038",
      "5 e048",
      "6 5018",
      "6 f008",
      "6 6038",
      "6 7038",
      "6 b038",
      "7 90",
      "7 4008",
      "7 5038",
      "7 a048",
      "7 1038",
      "9 a038",
      "9 f028",
      "9 7048",
      "a 5028",
      "a c028",
      "a 1038",
      "a c038",
      "a e038",
      "b d0",
      "b a018",
      "b 5018",
      "b c018",
      "c 2028",
      "c d048",
      "c 6038",
      "c d038",
      "c b038",
      "d 6008",
      "d 9028",
      "d 1028",
      "d 6028",
      "d 4048",
      "d 0048",
      "f 8028",
      "f c028",
      "f 5038",
      "f e028",
      "7f 048",
      "b3 028",
      "55 048",
      "2e 028",
      "0x55bb38 6a",
      "0x55bb3b f2",
      "0x55bb39 a7",
      "0x55bb36 a0",
      "0x7fc160 5",
      "0x7fc15f b",
      "0x55bb36e 3",
      "0x55bb390 3",
      "0x55bb38f 8",
      "0x7fc15df 2",
      "0x7fc15e1 3",
      "0x7fc15e1 b",
      "0x55bb399 3",
      "0x55bb3b0 3",
      "0x55bb3b2 3",
      "0x55bb3a6 e",
      "0x55bb37d 3",
      "0x7fc15e2 1",
      "0x55bb395 3",
      "0x55bb38d 3",
      "0x55bb3ac 8",
      "e 90",
      "1 20",
      "1 50",
      "1 f028",
      "1 6048",
      "1 c038",
      "1 4048",
      "1 3048",
      "2 f018",
      "2 1008",
      "2 8028",
      "2 2038",
      "2 c048",
      "2 4048",
      "4 50",
      "4 d008",
      "4 7048",
      "4 2048",
      "4 0038",
      "5 9028",
      "5 a048",
      "5 c038",
      "5 8048",
      "6 d",
      "6 2038",
      "6 0028",
      "6 3048",
      "6 0048",
      "7 6038",
      "7 5048",
      "7 d038",
      "7 9038",
      "9 5048",
      "9 c038",
      "9 8048",
      "9 9038",
      "9 3048",
      "a 1028",
      "a b048",
      "b a028",
      "b 2038",
      "b f038",
      "b 1048",
      "b 8048",
      "b 9038",
      "b 0028",
      "b 0038",
      "c e0",
      "c c048",
      "c 9048",
      "c f048",
      "c 7038",
      "d 2008",
      "d 4028",
      "d 8028",
      "d a028",
      "d a038",
      "d b028",
      "d 3038",
      "f 40",
      "f d008",
      "f 4028",
      "f 7028",
      "f b048",
      "f 1048",
      "f 0038",
      "80 038",
      "90 048",
      "56 048",
      "00 038",
      "0x55bb3a c2",
      "0x55bb36 9d",
      "0x55bb36 6a",
      "0x55bb36 33",
      "0x7fc15e 6",
      "0x7fc160 7",
      "b0 018",
      "c4 028",
      "0x55bb368 3",
      "33 048",
      "0x55bb381 3",
      "0x55bb374 3",
      "0x7fc15df 4",
      "0x7fc15df 7",
      "0x7fc15df b",
      "0x55bb3a1 3",
      "0x55bb3a2 3",
      "0x55bb398 3",
      "0x55bb39f 3",
      "0x7fc15e1 c",
      "0x7fc15e1 f",
      "0x55bb389 3",
      "0x55bb394 3",
      "0x55bb3a8 3",
      "0x55bb385 3",
      "0x55bb38a 3",
      "0x7fc15e2 2",
      "0x7fc15e2 4",
      "0x7fc15e0 f",
      "0x55bb3a5 3",
      "0x55bb3bd 3",
      "0x7fc15e3 4",
      "1 c",
      "2 60",
      "1 6028",
      "1 f048",
      "1 1048",
      "1 0028",
      "2 10",
      "2 a018",
      "2 d018",
      "2 b028",
      "2 d038",
      "3 f0",
      "3 e0",
      "4 d028",
      "4 c038",
      "4 1048",
      "5 d028",
      "5 b028",
      "5 0038",
      "6 c028",
      "6 1028",
      "6 c048",
      "6 7028",
      "6 9038",
      "7 7028",
      "7 b038",
      "9 1028",
      "9 a048",
      "a d048",
      "a d038",
      "a 3048",
      "a 3038",
      "b 20",
      "b 70",
      "b 4018",
      "b d048",
      "b b038",
      "c a",
      "e b0",
      "f 1",
      "f f018",
      "f c0",
      "f 70",
      "f 10",
      "f 6028",
      "f d048",
      "f a048",
      "f 4048",
      "a7 048",
      "dd 038",
      "9d 028",
      "290 38",
      "8b0 28",
      "8b0 48",
      "00 048",
      "0x55bb36 2e",
      "dc 038",
      "c0 018",
      "0x7fc160 6",
      "0x7fc160 d",
      "0x55bb37f 3",
      "de 8",
      "0x55bb391 3",
      "0x55bb372 3",
      "0x55bb388 3",
      "0x55bb3be 3",
      "0x7fc15df 6",
      "0x7fc15e1 4",
      "0x7fc15e1 9",
      "0x55bb3c0 3",
      "0x55bb3b9 3",
      "0x7fc15e2 7",
      "0x7fc15e2 b",
      "0x55bb3ba 3",
      "0x7fc15e0 1",
      "0x7fc15e0 2",
      "0x7fc15e0 4",
      "0x7fc15e0 6",
      "0x7fc15e0 b",
      "0x55bb3b5 3",
      "0x55bb3aa 3",
      "0x7fc15e3 1",
      "0x7fc15e3 5",
      "0x7fc15de f",
      "f 9",
      "1 3018",
      "1 2048",
      "1 98",
      "2 d0",
      "2 6008",
      "2 c028",
      "2 1028",
      "2 5038",
      "2 d048",
      "2 a048",
      "2 2048",
      "2 7038",
      "2 1048",
      "3 20",
      "3 00",
      "4 7",
      "4 8038",
      "4 6048",
      "4 a048",
      "5 c048",
      "5 4048",
      "7 8018",
      "9 6048",
      "a 9048",
      "a 4048",
      "b 40",
      "b d028",
      "b 7028",
      "b c038",
      "c 8048",
      "d b038",
      "d 0028",
      "e 30",
      "e d0",
      "f 4",
      "f 60",
      "f d0",
      "f 7048",
      "f 2048",
      "f 4038",
      "f 9038",
      "f e048",
      "00 018",
      "0x55bb36 30",
      "0x55bb36 50",
      "0x55bb36 52",
      "0x7fc15e c",
      "4b 038",
      "0x7fc160 f",
      "33 018",
      "0x55bb378 3",
      "0x55bb370 3",
      "0x55bb39e 3",
      "0x55bb3b3 3",
      "0x55bb3a0 3",
      "ce 048",
      "0x7fc15df c",
      "0x55bb384 3",
      "0x55bb3b8 3",
      "0x55bb3a7 3",
      "0x7fc15e1 2",
      "0x7fc15e1 6",
      "0x7fc15e1 7",
      "0x7fc15e2 6",
      "0x7fc15e2 9",
      "0x7fc15e0 7",
      "0x7fc15e0 9",
      "0x55bb39a 3",
      "0x7fc15e3 2",
      "0x7fc15e3 6",
      "0x7fc15e3 9",
      "1e 8",
      "0x7fc161 1",
      "1 e0",
      "1 4038",
      "2 2",
      "2 a0",
      "2 40",
      "2 7008",
      "2 c008",
      "2 4038",
      "2 1038",
      "2 b038",
      "2 3048",
      "3 90",
      "3 30",
      "3 60",
      "4 d0",
      "4 5048",
      "4 4048",
      "5 48",
      "5 2038",
      "5 1048",
      "7 2048",
      "9 b038",
      "a e048",
      "b 80",
      "b 90",
      "b a0",
      "b 50",
      "b b0",
      "b 7038",
      "c a048",
      "c 7028",
      "c 5048",
      "f a038",
      "7f 008",
      "7e 038",
      "0x55bb36 5",
      "0x55bb36 40",
      "0x7fc15e 9",
      "0x7fc15e a",
      "0x7fc15e b",
      "0x7fc15e d",
      "0x7fc15f d",
      "df 038",
      "73 048",
      "0x55bb37e 3",
      "0x55bb3ae 3",
      "0x55bb3a9 3",
      "0x55bb39d 3",
      "0x7fc15df a",
      "0x55bb3b1 3",
      "0x7fc15e1 5",
      "0x55bb396 3",
      "0x7fc15e0 c",
      "0x7fc15e0 d",
      "0x55bb36a 3",
      "98 8",
      "0x7fc15e3 7",
      "d 08",
      "1 30",
      "2 f",
      "2 80",
      "2 2008",
      "2 8018",
      "2 7048",
      "2 f038",
      "2 3028",
      "3 80",
      "4 6",
      "4 9",
      "4 8048",
      "4 e048",
      "5 088",
      "5 e8",
      "6 f8",
      "7 c0",
      "a c8",
      "b c0",
      "b f0",
      "b 10",
      "b 6038",
      "c 40",
      "e 10",
      "f 6",
      "f 6008",
      "f b008",
      "f 9048",
      "f c038",
      "80 028",
      "0x55bb36 28",
      "0x55bb36 48",
      "0x55bb36 4b",
      "0x55bb36 54",
      "0x7fc15f 6",
      "9e 048",
      "0x7fc15df 5",
      "0x7fc15df 9",
      "0x7fc15df d",
      "0x55bb37a 3",
      "0x7fc15e1 d",
      "0x55bb392 3",
      "0x55bb3c2 3",
      "0x7fc15e2 5",
      "0x7fc15e2 a",
      "0x7fc15e2 c",
      "0x7fc15e2 d",
      "0x7fc15e0 5",
      "0x7fc15e0 a",
      "0x55bb364 1",
      "0x55bb364 2",
      "0x55bb364 3",
      "5b 000",
      "3 c0",
      "4 c0",
      "c 9",
      "dd 000",
      "0x55bb35806b 4c",
      "1 a",
      "1 a0",
      "2 4",
      "2 4008",
      "2 f008",
      "2 a038",
      "2 6028",
      "2 b048",
      "3 a0",
      "6 38",
      "7 6",
      "7 a",
      "7 b8",
      "8 d0",
      "9 5",
      "9 8038",
      "a b8",
      "b 78",
      "b 1038",
      "d 78",
      "d 5048",
      "d a8",
      "e 80",
      "e a0",
      "e 40",
      "f 8048",
      "b3 000",
      "55 038",
      "9d 000",
      "56 8",
      "0x55bb36 55",
      "0x55bb36 38",
      "0x55bb36 53",
      "0x55bb36 51",
      "dc 000",
      "0x7fc15f 92",
      "0x55bb3bf 3",
      "0x7fc15e1 a",
      "0x55bb36c 6",
      "0x55bb363 4",
      "f8 8",
      "1e 000",
      "e8 8",
      "5e 50",
      "f3 20",
      "0x7fc16138 e3",
      "0x7fc16138e3 40",
      "1 48",
      "1 d8",
      "2 3038",
      "3 b0",
      "4 5a",
      "5 3038",
      "5 d8",
      "6 cf",
      "7 08",
      "9 9",
      "9 a8",
      "a a",
      "a 18",
      "b 1",
      "b 7",
      "b 60",
      "c 38",
      "d 58",
      "d 68",
      "e 20",
      "f 18",
      "f b0",
      "7f c0",
      "90 78",
      "0e 8",
      "0e 000",
      "a80 00",
      "290 00",
      "4b 8",
      "4b 000",
      "0x7fc160 fe",
      "df 000",
      "c4 10",
      "0x55bb37f c",
      "9e 000",
      "0x55bb37c f",
      "0x55bb364 e",
      "a8 8",
      "c8 8",
      "9b 000",
      "63 000",
      "6b 000",
      "5e 000",
      "62 d0",
      "cb c0",
      "7b 000",
      "ae 000",
      "d7 80",
      "13 000",
      "fe 000",
      "0x7fc1610 4",
      "3 40",
      "7 98",
      "e 00",
      "f a",
      "55 000",
      "1 55",
      "1 b8",
      "2 a8",
      "3 70",
      "3 50",
      "4 a",
      "4 58",
      "4 d8",
      "4 088",
      "5 08",
      "5 b8",
      "6 78",
      "7 c",
      "7 58",
      "7 de",
      "7 d8",
      "9 6",
      "9 68",
      "9 4038",
      "9 98",
      "9 51",
      "9 cb",
      "a e8",
      "b 6",
      "b e0",
      "c 7",
      "c 78",
      "d 98",
      "d b8",
      "d af",
      "e 60",
      "e 70",
      "e e0",
      "f d8",
      "f 088",
      "f d4",
      "7f 000",
      "c1 8",
      "c1 f0",
      "0x7fc1613 6",
      "80 8",
      "80 78",
      "a7 a0",
      "a9 8",
      "a0 000",
      "7e 000",
      "56 000",
      "56 b0",
      "2e 8",
      "0x55bb36 57",
      "dc 90",
      "c0 68",
      "50 58",
      "0x7fc160 30",
      "0x7fc160 df",
      "0x7fc160 d8",
      "0x7fc160 1e",
      "0x7fc160 5e",
      "0x7fc160 43",
      "0x7fc160 bf",
      "0x7fc160 12",
      "0x7fc15f a",
      "0x7fc15f 52",
      "0x7fc15f 1e",
      "c3 000",
      "73 000",
      "c4 000",
      "f2 f0",
      "0x55bb36e 4",
      "0x55bb36e b",
      "9e 8",
      "0x55bb378 6",
      "0x55bb37b 1",
      "0x55bb374 1",
      "de 80",
      "0x55bb391 c",
      "0x55bb373 1",
      "0x55bb388 2",
      "0x55bb379 b",
      "0x55bb37a f",
      "0x55bb367 4",
      "0x55bb367 c",
      "0x55bb36a a",
      "0x55bb36a b",
      "0x55bb377 9",
      "0x55bb369 f",
      "0x55bb363 2",
      "0x55bb363 7",
      "0x55bb363 b",
      "0x55bb363 c",
      "0x55bb363 e",
      "0x55bb363 f",
      "0x55bb364 c",
      "b8 8",
      "0x55bb362 b",
      "1e a0",
      "53 000",
      "53 60",
      "53 70",
      "53 50",
      "6e 000",
      "91 90",
      "5f 60",
      "94 60",
      "94 d0",
      "1f 30",
      "ab 000",
      "ab c0",
      "41 50",
      "43 000",
      "cb 000",
      "74 e0",
      "7b b0",
      "af 30",
      "d6 d0",
      "5c d0",
      "a6 d0",
      "1 c8",
      "1 cc",
      "4 08",
      "8 e0",
      "9 f8",
      "0x7fc161 1e",
      "1 6",
      "1 58",
      "1 94",
      "1 77",
      "2 1",
      "2 7",
      "2 28",
      "2 de0",
      "4 55",
      "4 78",
      "5 38",
      "5 c8",
      "5 d1",
      "5 d2",
      "5 c10",
      "6 58",
      "6 08",
      "6 d8",
      "7 a2",
      "7 a8",
      "7 088",
      "7 d000",
      "7 d30",
      "9 78",
      "9 b8",
      "9 6e",
      "a f8",
      "a 1f",
      "a ac",
      "b 48",
      "c 5",
      "c a7",
      "c f8",
      "c 088",
      "c 5f",
      "d 088",
      "e c0",
      "e f0",
      "f 68",
      "f b8",
      "f f8",
      "f c8",
      "f 91",
      "f 5e",
      "f 71",
      "c1 000",
      "0x7fc16 018",
      "b3 30",
      "b3 f0",
      "80 000",
      "90 000",
      "a9 40",
      "0e d0",
      "8b 8",
      "8b a0",
      "a0 50",
      "a0 78",
      "a0 88",
      "20 000",
      "7e 8",
      "6a 60",
      "6a b0",
      "2e 000",
      "7dd 0",
      "0x7fc160e 0",
      "8b0 00",
      "00 000",
      "28 8",
      "0x55bb36 56",
      "0x55bb36 5a",
      "0x7fc15e dc",
      "0x7fc15e 78",
      "0x7fc15e b8",
      "0x7fc15e 63",
      "0x7fc15e 4e",
      "0x7fc15e 4f",
      "0x7fc15e cb",
      "0x7fc15e 74",
      "0x7fc15e db",
      "0x7fc15e d2",
      "0x7fc15e 92",
      "0x7fc15e b4",
      "30 10",
      "10 78",
      "0x7fc160 b3",
      "0x7fc160 80",
      "0x7fc160 dd",
      "0x7fc160 2e",
      "0x7fc160 40",
      "0x7fc160 d0",
      "0x7fc160 68",
      "0x7fc160 ce",
      "0x7fc160 94",
      "0x7fc160 9b",
      "0x7fc160 a3",
      "0x7fc160 d1",
      "0x7fc160 41",
      "0x7fc160 4e",
      "0x7fc160 6f",
      "0x7fc160 a1",
      "0x7fc160 d6",
      "0x7fc160 d4",
      "0x7fc160 d7",
      "0x7fc160 14",
      "0x7fc160 a4",
      "0x7fc15f 5",
      "0x7fc15f c1",
      "0x7fc15f 20",
      "0x7fc15f 2e",
      "0x7fc15f c8",
      "0x7fc15f 5f",
      "0x7fc15f d1",
      "0x7fc15f 41",
      "0x7fc15f 61",
      "0x7fc15f 3e",
      "0x7fc15f 11",
      "df 00",
      "e0 68",
      "0x55bb37e b",
      "0x55bb37f f",
      "0x55bb380 b",
      "0x55bb368 6",
      "0x55bb378 9",
      "0x55bb37b b",
      "0x55bb381 1",
      "de 000",
      "0x55bb376 4",
      "0x55bb370 6",
      "0x55bb370 d",
      "0x55bb391 2",
      "0x55bb388 f",
      "0x55bb379 4",
      "0x55bb3ae f",
      "0x55bb3b3 b",
      "ce 8",
      "ce 000",
      "ce 10",
      "0x55bb3bb f",
      "0x55bb38b b",
      "0x55bb36d b",
      "0x55bb396 f",
      "0x55bb37d 2",
      "0x55bb36b 1",
      "0x55bb36c b",
      "0x55bb36c c",
      "0x55bb37c 9",
      "0x55bb387 4",
      "0x55bb38d b",
      "0x7fc15e3 a",
      "0x55bb363 a",
      "0x55bb364 d",
      "0x55bb362 f",
      "5b d0",
      "6e 90",
      "6e 00",
      "cc 60",
      "9b f0",
      "a3 000",
      "a3 60",
      "6b c0",
      "d1 20",
      "41 60",
      "93 000",
      "93 30",
      "4e 000",
      "62 70",
      "71 e0",
      "f3 90",
      "f3 000",
      "f3 10",
      "d3 000",
      "4f c0",
      "6f 30",
      "6f 40",
      "51 60",
      "74 c0",
      "db 90",
      "db 000",
      "a1 20",
      "a1 b0",
      "d6 60",
      "d6 50",
      "4c 50",
      "5c b0",
      "d2 30",
      "d9 a0",
      "69 70",
      "d7 b0",
      "57 60",
      "be 000",
      "0x7fc15f8 e",
      "66 00",
      "b4 80",
      "ff ff",
      "d5 d0",
      "23 000",
      "fc 60",
      "330 c",
      "0x7fc160fe 330c",
      "1 7000",
      "2 9",
      "c 54",
      "c 720",
      "d 55",
      "e a50",
      "df c0",
      "0x55bb362 5",
      "5b a0",
      "91 28",
      "5f 00",
      "1 18",
      "1 38",
      "1 93",
      "1 af",
      "1 d9",
      "1 d30",
      "1 5c0",
      "1 d00",
      "2 78",
      "2 8000",
      "2 54",
      "2 630",
      "3 08",
      "3 a8",
      "4 df",
      "4 c8",
      "4 2000",
      "4 a000",
      "4 5a0",
      "4 990",
      "5 c1",
      "5 a2",
      "5 c2",
      "5 df",
      "5 c3",
      "5 33",
      "5 de",
      "5 98",
      "5 a8",
      "5 f8",
      "5 1e",
      "5 ae",
      "5 800",
      "5 a70",
      "6 b3",
      "6 48",
      "6 c8",
      "6 6000",
      "6 9b",
      "6 43",
      "6 9f",
      "6 5a",
      "7 c3",
      "7 c000",
      "7 63",
      "7 74",
      "7 cf",
      "7 d5",
      "7 d70",
      "9 55",
      "9 18",
      "9 28",
      "9 48",
      "9 c4",
      "9 c8",
      "9 a000",
      "9 1e",
      "9 cc",
      "9 ab0",
      "a 5",
      "a 58",
      "a 38",
      "a 6000",
      "a 5b",
      "a 5f",
      "a 54",
      "a d1",
      "a 6f",
      "a 42",
      "a 560",
      "a 548",
      "b dd",
      "b 28",
      "b 68",
      "b 8000",
      "b be",
      "b 77",
      "b 17",
      "b 760",
      "c 56",
      "c 28",
      "c 98",
      "c b8",
      "c d8",
      "c 77",
      "c a4",
      "c a30",
      "c de80",
      "d b3",
      "d 7e",
      "d 9d",
      "d a2",
      "d 38",
      "d 7000",
      "d a30",
      "e 50",
      "e a10",
      "e 1d0",
      "f 48",
      "f 08",
      "f 9e",
      "f 53",
      "f 4c",
      "f c10",
      "7f 8",
      "7f 10",
      "7f 50",
      "c1 30",
      "c1 10",
      "c1 68",
      "0x7fc1613 6e",
      "0x7fc1613 6c",
      "55 c0",
      "bb3 018",
      "90 58",
      "90 68",
      "a7 80",
      "a7 000",
      "a7 30",
      "dd 00",
      "dd 88",
      "0e 90",
      "0e 20",
      "8b 90",
      "8b 10",
      "8b 40",
      "18 8",
      "18 50",
      "a0 58",
      "a0 68",
      "20 78",
      "58 e",
      "7e 60",
      "9d 50",
      "a2 8",
      "56 2",
      "56 10",
      "6a 80",
      "2e f0",
      "2e 10",
      "2e 50",
      "290 0",
      "a74 038",
      "fdd 0",
      "fdd 028",
      "0x7fc160e 3",
      "88b0 08",
      "00 78",
      "0x55bb36 60",
      "0x55bb36 68",
      "0x55bb36 5b",
      "0x55bb36 59",
      "0x55bb36 5c",
      "c2 50",
      "0x7fc15e a7",
      "0x7fc15e 56",
      "0x7fc15e 52",
      "0x7fc15e d8",
      "0x7fc15e 6e",
      "0x7fc15e 91",
      "0x7fc15e 94",
      "0x7fc15e 9b",
      "0x7fc15e ab",
      "0x7fc15e 6b",
      "0x7fc15e 6f",
      "0x7fc15e 51",
      "0x7fc15e 88",
      "0x7fc15e 67",
      "0x7fc15e ff",
      "0x7fc15e bc",
      "b35 018",
      "c2c 028",
      "dc 80",
      "30 58",
      "4b 70",
      "4b d0",
      "60 68",
      "70 20",
      "70 58",
      "70 78",
      "10 58",
      "10 d0",
      "50 78",
      "0x7fc160 7f",
      "0x7fc160 a7",
      "0x7fc160 0e",
      "0x7fc160 9d",
      "0x7fc160 b0",
      "0x7fc160 72",
      "0x7fc160 33",
      "0x7fc160 a8",
      "0x7fc160 63",
      "0x7fc160 54",
      "0x7fc160 d3",
      "0x7fc160 cb",
      "0x7fc160 db",
      "0x7fc160 59",
      "0x7fc160 92",
      "0x7fc160 17",
      "0x7fc15f 90",
      "0x7fc15f 18",
      "0x7fc15f dc",
      "0x7fc15f 50",
      "0x7fc15f b0",
      "0x7fc15f 78",
      "0x7fc15f 68",
      "0x7fc15f 9e",
      "0x7fc15f ce",
      "0x7fc15f a8",
      "0x7fc15f 5b",
      "0x7fc15f d9",
      "0x7fc15f fe",
      "0x7fc15f bc",
      "0x7fc15f fc",
      "0x7fc15f 9a",
      "d0 a0",
      "d0 78",
      "d0 68",
      "df 8",
      "c3 80",
      "e0 78",
      "72 b0",
      "c4 c0",
      "f2 c0",
      "f2 70",
      "f2 40",
      "0x55bb37e 1",
      "0x55bb37e 4",
      "0x55bb37f 6",
      "0x55bb380 4",
      "0x55bb36f 1",
      "0x55bb368 4",
      "0x55bb368 9",
      "0x55bb368 f",
      "33 000",
      "33 10",
      "33 50",
      "0x55bb390 4",
      "0x55bb371 1",
      "0x55bb371 a",
      "0x55bb371 d",
      "b008 8",
      "0x55bb381 c",
      "0x55bb381 d",
      "0x55bb3c1 2",
      "0x55bb374 4",
      "0x55bb374 6",
      "0x55bb374 c",
      "de a0",
      "0x55bb376 1",
      "0x55bb373 f",
      "0x55bb382 a",
      "0x55bb382 b",
      "0x55bb382 c",
      "0x55bb388 1",
      "0x55bb379 1",
      "0x55bb386 2",
      "0x55bb386 7",
      "0x55bb386 c",
      "0x55bb38f 1",
      "0x55bb38f b",
      "0x55bb3a9 c",
      "ce 70",
      "ce e0",
      "0x55bb375 9",
      "0x55bb375 b",
      "0x55bb37a 6",
      "0x55bb3b1 1",
      "0x55bb389 9",
      "0x55bb385 1",
      "0x55bb385 2",
      "0x55bb385 b",
      "0x55bb36d 1",
      "0x55bb36d 4",
      "0x55bb396 c",
      "0x55bb392 2",
      "0x55bb3a6 7",
      "0x55bb367 6",
      "0x55bb367 a",
      "0x55bb37d 6",
      "0x55bb37d b",
      "0x55bb36b 2",
      "0x55bb36b 4",
      "0x55bb36b 5",
      "0x55bb38a d",
      "0x55bb3c2 7",
      "0x55bb36a c",
      "0x55bb36c 7",
      "0x55bb39a c",
      "0x55bb37c 7",
      "0x55bb37c b",
      "0x55bb37c d",
      "0x55bb387 a",
      "0x55bb3c3 2",
      "0x55bb369 1",
      "0x55bb369 6",
      "0x55bb3ad a",
      "0x55bb3ac a",
      "0x55bb3bc c",
      "0x55bb3b7 1",
      "98 20",
      "98 f0",
      "98 40",
      "0x55bb363 1",
      "0x55bb363 6",
      "b8 40",
      "d8 8",
      "1e 10",
      "5b f0",
      "5b e0",
      "53 a0",
      "53 20",
      "53 10",
      "6e 30",
      "91 80",
      "91 20",
      "91 70",
      "91 e0",
      "5f 20",
      "5f d0",
      "94 f0",
      "cc 00",
      "cc 30",
      "9b 80",
      "9b c0",
      "9b 60",
      "a3 c0",
      "a3 b0",
      "63 d0",
      "1f c0",
      "1f 60",
      "ab 20",
      "ab 50",
      "6b 10",
      "6b b0",
      "d1 d0",
      "d1 b0",
      "41 70",
      "41 b0",
      "93 18",
      "93 60",
      "71 80",
      "71 a0",
      "71 20",
      "71 00",
      "71 10",
      "71 390",
      "f3 f0",
      "d3 a0",
      "d3 20",
      "d3 70",
      "d3 b0",
      "6f 60",
      "6f e0",
      "43 50",
      "51 80",
      "51 70",
      "cb 20",
      "cb 28",
      "74 80",
      "7b 40",
      "ae 20",
      "cf 80",
      "cf 10",
      "a1 80",
      "a1 70",
      "a1 50",
      "a1 e0",
      "af f0",
      "59 80",
      "59 60",
      "9f 00",
      "4c d0",
      "4c d8",
      "5c a0",
      "5c 00",
      "5c 70",
      "d9 b0",
      "bf a0",
      "bf 30",
      "bf 50",
      "d4 70",
      "a00 018",
      "69 90",
      "69 b0",
      "d7 50",
      "5a f0",
      "5a 50",
      "5a e0",
      "12 60",
      "13 d0",
      "57 00",
      "b2 30",
      "66 c0",
      "66 50",
      "3e 80",
      "3e 000",
      "ac 90",
      "79 90",
      "79 50",
      "0x7fc15e8 2",
      "0x7fc15e8 4",
      "6c 00",
      "6c 70",
      "9c c0",
      "620 0",
      "d5 f0",
      "97 c0",
      "0x7fc1608 4",
      "0x7fc1608 e",
      "17 d0",
      "a6 80",
      "de0 68",
      "b9 60",
      "b9 70",
      "e3 000",
      "f7 d0",
      "44 d0",
      "fc d0",
      "9c0 78",
      "990 78",
      "ee 000",
      "ee 40",
      "0x7fc160c 9",
      "440 78",
      "1c0 68",
      "460 58",
      "0x7fc1604 a",
      "960 78",
      "f40 78",
      "0x7fc160f a9",
      "ba0 68",
      "2 6",
      "2 0e0",
      "6 a000",
      "e 930",
      "7f e90",
      "55 70",
      "0x7fc160e b3",
      "dc b0",
      "91 520",
      "1f d0",
      "ab 40",
      "d7 60",
      "ff b0",
      "0x7fc16138 9128",
      "0 018",
      "1 9d",
      "1 a2",
      "1 28",
      "1 08",
      "1 f8",
      "1 088",
      "1 b2",
      "1 a90",
      "1 620",
      "1 5a0",
      "1 670",
      "1 2e0",
      "1 580",
      "1 5d0",
      "1 cd0",
      "1 6e0",
      "1 960",
      "2 d",
      "2 a7",
      "2 dd",
      "2 58",
      "2 48",
      "2 98",
      "2 c8",
      "2 9b",
      "2 df0",
      "2 500",
      "2 af0",
      "2 180",
      "2 d80",
      "2 200",
      "2 fe0",
      "2 680",
      "2 f30",
      "2 1b0",
      "2 100",
      "2 230",
      "3 a",
      "3 38",
      "3 d0",
      "3 088",
      "3 ab0",
      "3 520",
      "3 c60",
      "3 c70",
      "3 fa0",
      "4 5",
      "4 dd",
      "4 28",
      "4 38",
      "4 c3",
      "4 4e",
      "4 a90",
      "4 d5",
      "4 ad0",
      "4 a50",
      "4 4b0",
      "4 e88",
      "5 0e",
      "5 290",
      "5 28",
      "5 72",
      "5 9000",
      "5 1000",
      "5 f000",
      "5 4000",
      "5 a00",
      "5 d30",
      "5 da0",
      "5 ce10",
      "5 a150",
      "6 55",
      "6 2e",
      "6 98",
      "6 52",
      "6 088",
      "6 f000",
      "6 e8",
      "6 69",
      "6 d30",
      "6 5c0",
      "6 520",
      "6 d10",
      "6 5b0",
      "6 562",
      "7 6a",
      "7 78",
      "7 c8",
      "7 9000",
      "7 5b",
      "7 9b",
      "7 ab",
      "7 5e",
      "7 4e",
      "7 6c",
      "7 64",
      "7 ac0",
      "7 af0",
      "7 a60",
      "7 7e0",
      "7 650",
      "7 5d0",
      "7 5b0",
      "7 62d0",
      "8 a0",
      "8 cd0",
      "8 3f0",
      "9 58",
      "9 56",
      "9 38",
      "9 8000",
      "9 c000",
      "9 53",
      "9 5f",
      "9 ae",
      "9 59",
      "9 57",
      "9 9c",
      "9 620",
      "9 64",
      "9 dd0",
      "9 a50",
      "9 5c0",
      "9 9c0",
      "9 540",
      "9 940",
      "9 660",
      "a b3",
      "a de",
      "a 52",
      "a 2000",
      "a f000",
      "a 5e",
      "a 67",
      "a c10",
      "a 66",
      "a a4",
      "a d90",
      "a ae0",
      "a da0",
      "a d320",
      "b 18",
      "b 9d",
      "b 2e",
      "b 08",
      "b a8",
      "b f8",
      "b d8",
      "b 6e",
      "b d9",
      "b d60",
      "b 6f0",
      "b 6bc0",
      "c 58",
      "c 72",
      "c a000",
      "c 57",
      "c ab0",
      "c d90",
      "c 5a0",
      "c d80",
      "c d70",
      "c 5f0",
      "c 930",
      "c d10",
      "c 780",
      "c d40",
      "c 5160",
      "d 290",
      "d 73",
      "d a000",
      "d 5b",
      "d 4000",
      "d 94",
      "d 0000",
      "d 4e",
      "d a90",
      "d 800",
      "e 7",
      "e 18",
      "e 98",
      "e b8",
      "e f8",
      "e d8",
      "e 500",
      "e dd0",
      "e 5a0",
      "e f80",
      "f 5",
      "f 7e",
      "f a80",
      "f 28",
      "f 38",
      "f 78",
      "f a8",
      "f 43",
      "f 9f",
      "f 61",
      "f a00",
      "f 9c",
      "f 97",
      "f 17",
      "f 0e0",
      "f 670",
      "f dc0",
      "f 550",
      "f 6c0",
      "0x ffff",
      "7f 20",
      "7f 00",
      "7f 60",
      "7f 460",
      "c1 80",
      "c1 20",
      "c1 c0",
      "0x7fc16 008",
      "0x7fc16 048",
      "0x7fc16 038",
      "0x7fc16 000",
      "0x7fc16 088",
      "0x7fc161 20",
      "0x7fc161 14",
      "0x7fc1613 a8",
      "0x7fc1613 6b",
      "0x7fc1613 88",
      "0x7fc1613 67",
      "b3 8",
      "55 e",
      "55 08",
      "55 30",
      "55 50",
      "55 b0",
      "55 68",
      "bb3 048",
      "80 30",
      "80 f0",
      "80 610",
      "90 ad0",
      "a7 8",
      "a7 20",
      "a7 60",
      "a7 770",
      "a9 4",
      "a9 90",
      "a9 58",
      "a9 c0",
      "a9 60",
      "a9 df0",
      "a9 e30",
      "dd 38",
      "dd 60",
      "dd 70",
      "0e c0",
      "0e 70",
      "0e 400",
      "8b c0",
      "8b f0",
      "8b 60",
      "8b 900",
      "18 20",
      "18 30",
      "0x55bb3580 e",
      "a0 3000",
      "a0 f80",
      "20 8",
      "20 a0",
      "20 58",
      "20 40",
      "20 68",
      "20 2b0",
      "58 cc0",
      "58 9e0",
      "58 5e0",
      "7e 90",
      "7e 50",
      "9d b0",
      "9d e0",
      "9d 088",
      "9d a70",
      "a2 58",
      "a2 c0",
      "a2 70",
      "56 00",
      "56 30",
      "56 70",
      "56 d0",
      "56 e0",
      "56 a90",
      "6a 8",
      "6a f0",
      "6a c50",
      "6a f10",
      "2e c60",
      "2e 1b0",
      "2e 2c0",
      "a80 018",
      "a80 008",
      "290 018",
      "290 008",
      "fdd 008",
      "6aa0 38",
      "6aa0 48",
      "0x7fc160e 8",
      "0x7fc160e 12",
      "0x7fc160e 11",
      "0x7fc160e f91",
      "8b0 008",
      "8b0 028",
      "88b0 28",
      "00 58",
      "28 80",
      "28 f0",
      "28 40",
      "0x55bb37 a74",
      "0x55bb37 9d0",
      "0x55bb38 c2c",
      "38 38",
      "38 30",
      "38 40",
      "38 500",
      "38 900",
      "38 300",
      "48 8",
      "48 10",
      "48 190",
      "48 9c0",
      "0x55bb36 58",
      "0x55bb36 fdd",
      "0x55bb36 8b0",
      "0x55bb36 b35",
      "0x55bb36 5f",
      "0x55bb36 5e",
      "08 f0",
      "0x7fc15e 5",
      "0x7fc15e c1",
      "0x7fc15e 80",
      "0x7fc15e 90",
      "0x7fc15e a9",
      "0x7fc15e 6a",
      "0x7fc15e 48",
      "0x7fc15e c0",
      "0x7fc15e f0",
      "0x7fc15e 50",
      "0x7fc15e b0",
      "0x7fc15e c3",
      "0x7fc15e e0",
      "0x7fc15e 73",
      "0x7fc15e c4",
      "0x7fc15e 68",
      "0x7fc15e 9e",
      "0x7fc15e ce",
      "0x7fc15e 53",
      "0x7fc15e e8",
      "0x7fc15e 5f",
      "0x7fc15e cc",
      "0x7fc15e a3",
      "0x7fc15e 54",
      "0x7fc15e 93",
      "0x7fc15e 62",
      "0x7fc15e d3",
      "0x7fc15e 43",
      "0x7fc15e af",
      "0x7fc15e 59",
      "0x7fc15e d6",
      "0x7fc15e 42",
      "0x7fc15e 4c",
      "0x7fc15e 5c",
      "0x7fc15e d9",
      "0x7fc15e d4",
      "0x7fc15e 5a",
      "0x7fc15e b2",
      "0x7fc15e be",
      "0x7fc15e 66",
      "0x7fc15e 79",
      "0x7fc15e 9c",
      "0x7fc15e fb",
      "0x7fc15e b9",
      "dc 8",
      "dc 30",
      "dc f0",
      "dc 310",
      "dc ec0",
      "c0 f0",
      "f0 58",
      "f0 68",
      "f0 520",
      "f0 5b0",
      "f0 cf0",
      "4b 8b0",
      "4b 10",
      "4b 68",
      "60 58",
      "70 a0",
      "70 30",
      "70 50",
      "70 450",
      "10 aa0",
      "40 a0",
      "40 58",
      "40 60",
      "40 b0",
      "40 78",
      "40 f8",
      "40 d80",
      "50 60",
      "50 10",
      "50 68",
      "0x7fc160 8b",
      "0x7fc160 58",
      "0x7fc160 6a",
      "0x7fc160 c2",
      "0x7fc160 dc",
      "0x7fc160 c0",
      "0x7fc160 60",
      "0x7fc160 70",
      "0x7fc160 10",
      "0x7fc160 9e",
      "0x7fc160 c8",
      "0x7fc160 5b",
      "0x7fc160 6e",
      "0x7fc160 91",
      "0x7fc160 5f",
      "0x7fc160 ab",
      "0x7fc160 6b",
      "0x7fc160 93",
      "0x7fc160 71",
      "0x7fc160 4f",
      "0x7fc160 51",
      "0x7fc160 74",
      "0x7fc160 7b",
      "0x7fc160 42",
      "0x7fc160 9f",
      "0x7fc160 4c",
      "0x7fc160 61",
      "0x7fc160 13",
      "0x7fc160 57",
      "0x7fc160 67",
      "0x7fc160 b2",
      "0x7fc160 77",
      "0x7fc160 66",
      "0x7fc160 3e",
      "0x7fc160 ac",
      "0x7fc160 6c",
      "0x7fc160 9c",
      "0x7fc160 b4",
      "0x7fc160 b9",
      "0x7fc160 bc",
      "0x7fc160 44",
      "0x7fc15f 7f",
      "0x7fc15f 55",
      "0x7fc15f a7",
      "0x7fc15f a9",
      "0x7fc15f 0e",
      "0x7fc15f 8b",
      "0x7fc15f a0",
      "0x7fc15f 7e",
      "0x7fc15f 9d",
      "0x7fc15f 56",
      "0x7fc15f 6a",
      "0x7fc15f 28",
      "0x7fc15f 38",
      "0x7fc15f 60",
      "0x7fc15f 10",
      "0x7fc15f c3",
      "0x7fc15f e0",
      "0x7fc15f 73",
      "0x7fc15f c4",
      "0x7fc15f f2",
      "0x7fc15f de",
      "0x7fc15f 98",
      "0x7fc15f 6e",
      "0x7fc15f 63",
      "0x7fc15f 54",
      "0x7fc15f ab",
      "0x7fc15f 6b",
      "0x7fc15f 5e",
      "0x7fc15f 93",
      "0x7fc15f f3",
      "0x7fc15f d3",
      "0x7fc15f 4f",
      "0x7fc15f 7b",
      "0x7fc15f ae",
      "0x7fc15f cf",
      "0x7fc15f a1",
      "0x7fc15f 9f",
      "0x7fc15f d2",
      "0x7fc15f d4",
      "0x7fc15f 69",
      "0x7fc15f d7",
      "0x7fc15f 12",
      "0x7fc15f b2",
      "0x7fc15f ac",
      "0x7fc15f a4",
      "0x7fc15f 9c",
      "0x7fc15f 64",
      "0x7fc15f 97",
      "d0 10",
      "d0 d0",
      "df 90",
      "df 30",
      "df 10",
      "df c78",
      "b0 90",
      "b0 78",
      "b0 1b0",
      "c3 00",
      "c3 c0",
      "c3 60",
      "c3 d0",
      "c3 400",
      "72 a0",
      "73 80",
      "73 a0",
      "73 30",
      "73 60",
      "73 70",
      "73 10",
      "73 fe0",
      "c4 a0",
      "c4 20",
      "c4 f0",
      "c4 800",
      "f2 80",
      "f2 a0",
      "f2 20",
      "78 90",
      "78 40",
      "78 f30",
      "0x55bb37e 7",
      "0x55bb37e f",
      "0x55bb37f 2",
      "0x55bb36e 1",
      "0x55bb36e 2",
      "0x55bb36e c",
      "68 8",
      "68 a0",
      "68 70",
      "68 50",
      "68 d0",
      "68 3b",
      "68 c30",
      "0x55bb36f 6",
      "0x55bb36f 7",
      "0x55bb36f a",
      "0x55bb36f b",
      "9e 90",
      "9e f0",
      "9e 40",
      "9e 88",
      "9e 920",
      "0x55bb368 1",
      "33 a0",
      "33 20",
      "33 c0",
      "33 30",
      "33 40",
      "33 d0",
      "33 c00",
      "0x55bb390 b",
      "0x55bb378 7",
      "0x55bb378 d",
      "0x55bb378 f",
      "0x55bb37b 2",
      "0x55bb37b f",
      "0x55bb381 2",
      "0x55bb381 b",
      "0x55bb3c1 5f",
      "0x55bb374 2",
      "0x55bb374 a",
      "de 10",
      "de e0",
      "de 560",
      "0x55bb38e d",
      "0x55bb370 2",
      "0x55bb370 4",
      "0x55bb370 a",
      "0x55bb370 b",
      "0x55bb391 6",
      "0x55bb372 1",
      "0x55bb372 2",
      "0x55bb372 4",
      "0x55bb382 4",
      "0x55bb388 4",
      "0x55bb388 7",
      "0x55bb388 9",
      "0x55bb39e 2",
      "0x55bb39e d",
      "0x55bb379 a",
      "0x55bb379 c",
      "0x55bb3ae 3e",
      "0x55bb3b3 2",
      "0x55bb3a0 7",
      "0x55bb3be f",
      "0x55bb3be 57",
      "0x55bb386 4",
      "0x55bb38f 6",
      "0x55bb38f f",
      "ce 90",
      "ce a0",
      "ce 20",
      "ce 48",
      "ce 30",
      "ce 50",
      "0x55bb383 1",
      "0x55bb383 f",
      "0x55bb37a b",
      "0x55bb37a c",
      "0x55bb384 1",
      "0x55bb3bf 1",
      "0x55bb398 2",
      "0x55bb39b c",
      "0x55bb3b8 f",
      "0x55bb3a7 1",
      "0x55bb389 1",
      "0x55bb394 7",
      "0x55bb385 4",
      "0x55bb385 c",
      "0x55bb393 c",
      "0x55bb393 f",
      "0x55bb36d a",
      "0x55bb399 6",
      "0x55bb3b6 b",
      "0x55bb3b6 f",
      "0x55bb3b0 f",
      "0x55bb3b2 a",
      "0x55bb3b2 41",
      "0x55bb3b2 4f",
      "0x55bb392 a",
      "0x55bb392 c",
      "0x55bb392 f",
      "0x55bb3a3 4",
      "0x55bb3a6 2",
      "0x55bb3a6 b",
      "0x55bb3a6 c",
      "0x55bb367 1",
      "0x55bb37d 4",
      "0x55bb37d 7",
      "0x55bb36b a",
      "0x55bb36b b",
      "0x55bb3c0 1",
      "55c 038",
      "0x55bb3c2 6",
      "0x55bb3b4 2",
      "0x55bb3ba 6",
      "0x55bb3ba 5b",
      "0x55bb395 c",
      "0x55bb36a 4",
      "0x55bb36a 5",
      "0x55bb387 7",
      "0x55bb3a5 7",
      "0x55bb3a5 b",
      "0x55bb377 1",
      "0x55bb377 c",
      "0x55bb377 d",
      "0x55bb38d 5",
      "0x55bb369 b",
      "0x55bb3bd 2",
      "0x55bb38c b",
      "0x55bb38c c",
      "0x55bb39c b",
      "98 50",
      "98 cd0",
      "52 80",
      "52 b0",
      "52 a60",
      "52 270",
      "0x55bb366 b",
      "0x55bb366 f",
      "0x55bb364 9",
      "a8 30",
      "a8 fa0",
      "f8 58",
      "f8 40",
      "d8 a0",
      "d8 20",
      "d8 10",
      "c8 d0",
      "0x55bb362 6",
      "0x55bb362 4f",
      "1e 00",
      "1e c0",
      "1e 60",
      "5b 00",
      "5b 70",
      "5b 700",
      "5b bf0",
      "53 38",
      "53 30",
      "53 f0",
      "53 f00",
      "e8 80",
      "e8 60",
      "e8 770",
      "e8 700",
      "6e b0",
      "6e c80",
      "91 a0",
      "91 30",
      "91 b0",
      "5f 70",
      "5f d60",
      "5f 470",
      "94 80",
      "94 30",
      "cc 80",
      "cc 20",
      "cc 40",
      "cc b0",
      "cc 088",
      "cc 730",
      "9b 90",
      "9b 10",
      "9b 180",
      "9b 770",
      "a3 a0",
      "a3 00",
      "a3 40",
      "a3 50",
      "a3 970",
      "63 a0",
      "63 20",
      "63 f0",
      "63 b0",
      "54 90",
      "54 00",
      "54 30",
      "54 e0",
      "54 a00",
      "54 940",
      "1f 80",
      "1f 90",
      "1f 20",
      "1f 40",
      "1f 7d0",
      "1f 4e0",
      "ab f0",
      "ab 60",
      "ab e0",
      "ab 088",
      "ab 670",
      "6b a0",
      "6b 00",
      "6b d0",
      "6b cb0",
      "5e 20",
      "5e 00",
      "5e f0",
      "5e 40",
      "5e e0",
      "d1 80",
      "d1 18",
      "d1 30",
      "d1 50",
      "41 d0",
      "41 98",
      "41 b8",
      "41 b60",
      "93 80",
      "93 20",
      "93 00",
      "93 50",
      "93 4b0",
      "93 780",
      "93 150",
      "4e 30",
      "4e d0",
      "4e e0",
      "4e ff0",
      "62 80",
      "62 20",
      "62 c0",
      "62 10",
      "62 980",
      "71 40",
      "71 50",
      "f3 a0",
      "f3 d0",
      "f3 b0",
      "d3 90",
      "d3 00",
      "d3 60",
      "d3 b8",
      "4f 80",
      "4f 20",
      "4f 60",
      "4f 10",
      "4f d0",
      "4f 710",
      "6f d0",
      "6f a60",
      "51 18",
      "51 b0",
      "51 370",
      "cb 00",
      "cb 50",
      "cb 98",
      "cb be0",
      "74 20",
      "74 f0",
      "74 98",
      "7b 80",
      "7b 10",
      "7b 088",
      "ae f0",
      "ae 70",
      "ae e0",
      "cf a0",
      "cf 8b0",
      "cf e0",
      "cf a20",
      "cf c00",
      "db a0",
      "db 20",
      "db 70",
      "db 40",
      "db b00",
      "a1 c0",
      "a1 30",
      "a1 60",
      "a1 10",
      "af 70",
      "59 30",
      "59 e0",
      "59 b8",
      "d6 80",
      "d6 70",
      "d6 10",
      "d6 420",
      "42 80",
      "42 20",
      "42 28",
      "42 f0",
      "42 70",
      "42 d0",
      "42 b0",
      "9f c0",
      "9f f0",
      "9f 60",
      "9f 40",
      "9f e0",
      "4c 00",
      "4c 60",
      "4c 9b0",
      "5c 90",
      "5c 20",
      "5c 40",
      "d2 a0",
      "d2 b0",
      "61 90",
      "61 70",
      "61 10",
      "d9 60",
      "d9 70",
      "d9 cc0",
      "0x7fc15de d8",
      "bf f0",
      "bf 40",
      "bf b90",
      "d4 80",
      "d4 90",
      "d4 e0",
      "d4 620",
      "d4 db0",
      "69 f0",
      "69 60",
      "69 a90",
      "69 c90",
      "d7 20",
      "d7 00",
      "d7 30",
      "5a 10",
      "12 70",
      "12 a30",
      "12 310",
      "13 80",
      "13 c0",
      "67 90",
      "67 20",
      "67 c0",
      "92 50",
      "92 af0",
      "b2 c0",
      "b2 f0",
      "b2 10",
      "b2 ff0",
      "be a0",
      "be 088",
      "be 780",
      "c10 018",
      "0x7fc15f8 1",
      "77 c",
      "77 10",
      "66 80",
      "66 30",
      "66 10",
      "d30 78",
      "fe 40",
      "fe f00",
      "3e e0",
      "14 00",
      "14 30",
      "14 60",
      "14 70",
      "14 40",
      "14 50",
      "14 aa0",
      "ac 80",
      "ac 00",
      "ac c0",
      "ac d0",
      "ac e0",
      "79 20",
      "79 c0",
      "79 70",
      "a4 00",
      "a4 40",
      "a4 e0",
      "a4 9f0",
      "0x7fc15e8 1",
      "0x7fc1602 2",
      "0x7fc1602 4",
      "6c 30",
      "6c 60",
      "9c f0",
      "9c 70",
      "aa0 58",
      "aa0 78",
      "b4 a0",
      "b4 980",
      "ff ff8",
      "d5 00",
      "d5 38",
      "d5 b0",
      "d5 f8",
      "d5 df0",
      "64 00",
      "64 70",
      "97 30",
      "97 10",
      "97 c90",
      "0x7fc1608 f",
      "0x7fc15ee 4",
      "0x7fc1603 b",
      "0x7fc15fe 4",
      "0x7fc15fe b",
      "0x7fc15fe f",
      "ad0 60",
      "ad0 68",
      "17 00",
      "17 088",
      "23 60",
      "23 d8",
      "ac0 58",
      "fb 00",
      "fb 40",
      "fb 7d0",
      "af0 68",
      "0x7fc1610 54",
      "0x7fc1610 4f",
      "0x7fc1610 d2",
      "a6 90",
      "a6 00",
      "a6 30",
      "a6 10",
      "190 0",
      "b9 40",
      "b9 b0",
      "a70 018",
      "0x7fc15f3 2",
      "bc 60",
      "d20 0",
      "d20 78",
      "f7 20",
      "f7 60",
      "f7 70",
      "11 58",
      "11 40",
      "11 50",
      "44 c0",
      "a30 68",
      "fc 40",
      "fc 50",
      "fc 700",
      "0x7fc1600 1",
      "750 78",
      "9c0 70",
      "9f0 58",
      "9f0 50",
      "180 58",
      "7a0 78",
      "990 0",
      "d80 80",
      "7e0 018",
      "a20 68",
      "d50 90",
      "2e0 50",
      "310 68",
      "580 58",
      "690 0",
      "cd0 68",
      "1b 1c0",
      "2c 30",
      "2c 9d0",
      "2c 750",
      "6a0 68",
      "940 58",
      "200 018",
      "0x7fc16138 66",
      "0x7fc16138 6562",
      "0x7fc16138 683b",
      "550 018",
      "490 88",
      "590 68",
      "600 58",
      "980 78",
      "980 88",
      "3b e0",
      "5e0 a0",
      "680 8",
      "680 58",
      "c30 58",
      "c70 78",
      "740 78",
      "da b8",
      "da a8",
      "2b 20",
      "2b d0",
      "6f0 58",
      "7d0 58",
      "0x7fc1612 80",
      "f20 68",
      "1f0 78",
      "170 78",
      "2b0 58",
      "9b0 68",
      "b00 70",
      "270 78",
      "530 68",
      "960 58",
      "0x7fc15f7 6",
      "0x7fc15fb 6",
      "6d 18",
      "6d 28",
      "6d 088",
      "1c 9b0",
      "b20 68",
      "ca a8",
      "ca a90",
      "de8 e0",
      "f9 570",
      "198 a0",
      "47 c0",
      "f4 a50",
      "1e0 68",
      "bb0 68",
      "0x7fc15ea d",
      "130 c0",
      "49 6b0",
      "bc0 90",
      "bf0 78",
      "f6 c10",
      "c9 b8",
      "638 a0",
      "76 088",
      "7b8 10",
      "95 a8",
      "1d8 f0",
      "45a 60",
      "5d8 8",
      "a18 a0",
      "b1 78",
      "1b8 a0",
      "4a d60",
      "968 20",
      "9cb e0",
      "b6 570",
      "5d2 c0",
      "ca7 e0",
      "c5f c0",
      "fb8 20",
      "f5e 60",
      "0x7fc160e0 f7",
      "5c1 70",
      "5c2 10",
      "7c3 b0",
      "7cf b0",
      "d7e b0",
      "0x7fc16136e 678",
      "0x7fc16136c 77c",
      "4d5 40",
      "959 a0",
      "aa4 f0",
      "0xffff ffff8"
    ]
  }
}