{
  "version": "1.0",
  "truncation": null,
  "padding": null,
  "added_tokens": [
    {
      "id": 0,
      "content": "[UNK]",
      "single_word": false,
      "lstrip": false,
      "rstrip": false,
      "normalized": false,
      "special": true
    },
    {
      "id": 1411,
      "content": "da",
      "single_word": false,
      "lstrip": false,
      "rstrip": false,
      "normalized": true,
      "special": false
    },
    {
      "id": 1412,
      "content": "60",
      "single_word": false,
      "lstrip": false,
      "rstrip": false,
      "normalized": true,
      "special": false
    },
    {
      "id": 1413,
      "content": "2d",
      "single_word": false,
      "lstrip": false,
      "rstrip": false,
      "normalized": true,
      "special": false
    },
    {
      "id": 1414,
      "content": "40",
      "single_word": false,
      "lstrip": false,
      "rstrip": false,
      "normalized": true,
      "special": false
    },
    {
      "id": 1415,
      "content": "5c",
      "single_word": false,
      "lstrip": false,
      "rstrip": false,
      "normalized": true,
      "special": false
    },
    {
      "id": 1416,
      "content": "3a",
      "single_word": false,
      "lstrip": false,
      "rstrip": false,
      "normalized": true,
      "special": false
    },
    {
      "id": 1417,
      "content": "0d",
      "single_word": false,
      "lstrip": false,
      "rstrip": false,
      "normalized": true,
      "special": false
    },
    {
      "id": 1418,
      "content": "48",
      "single_word": false,
      "lstrip": false,
      "rstrip": false,
      "normalized": true,
      "special": false
    },
    {
      "id": 1419,
      "content": "f2",
      "single_word": false,
      "lstrip": false,
      "rstrip": false,
      "normalized": true,
      "special": false
    },
    {
      "id": 1420,
      "content": "e3",
      "single_word": false,
      "lstrip": false,
      "rstrip": false,
      "normalized": true,
      "special": false
    },
    {
      "id": 1421,
      "content": "ef",
      "single_word": false,
      "lstrip": false,
      "rstrip": false,
      "normalized": true,
      "special": false
    },
    {
      "id": 1422,
      "content": "03",
      "single_word": false,
      "lstrip": false,
      "rstrip": false,
      "normalized": true,
      "special": false
    },
    {
      "id": 1423,
      "content": "39",
      "single_word": false,
      "lstrip": false,
      "rstrip": false,
      "normalized": true,
      "special": false
    },
    {
      "id": 1424,
      "content": "2f",
      "single_word": false,
      "lstrip": false,
      "rstrip": false,
      "normalized": true,
      "special": false
    },
    {
      "id": 1425,
      "content": "04",
      "single_word": false,
      "lstrip": false,
      "rstrip": false,
      "normalized": true,
      "special": false
    },
    {
      "id": 1426,
      "content": "27",
      "single_word": false,
      "lstrip": false,
      "rstrip": false,
      "normalized": true,
      "special": false
    },
    {
      "id": 1427,
      "content": "f0",
      "single_word": false,
      "lstrip": false,
      "rstrip": false,
      "normalized": true,
      "special": false
    },
    {
      "id": 1428,
      "content": "19",
      "single_word": false,
      "lstrip": false,
      "rstrip": false,
      "normalized": true,
      "special": false
    },
    {
      "id": 1429,
      "content": "31",
      "single_word": false,
      "lstrip": false,
      "rstrip": false,
      "normalized": true,
      "special": false
    },
    {
      "id": 1430,
      "content": "67",
      "single_word": false,
      "lstrip": false,
      "rstrip": false,
      "normalized": true,
      "special": false
    },
    {
      "id": 1431,
      "content": "1c",
      "single_word": false,
      "lstrip": false,
      "rstrip": false,
      "normalized": true,
      "special": false
    },
    {
      "id": 1432,
      "content": "eb",
      "single_word": false,
      "lstrip": false,
      "rstrip": false,
      "normalized": true,
      "special": false
    },
    {
      "id": 1433,
      "content": "f4",
      "single_word": false,
      "lstrip": false,
      "rstrip": false,
      "normalized": true,
      "special": false
    },
    {
      "id": 1434,
      "content": "e6",
      "single_word": false,
      "lstrip": false,
      "rstrip": false,
      "normalized": true,
      "special": false
    },
    {
      "id": 1435,
      "content": "0a",
      "single_word": false,
      "lstrip": false,
      "rstrip": false,
      "normalized": true,
      "special": false
    },
    {
      "id": 1436,
      "content": "b1",
      "single_word": false,
      "lstrip": false,
      "rstrip": false,
      "normalized": true,
      "special": false
    },
    {
      "id": 1437,
      "content": "70",
      "single_word": false,
      "lstrip": false,
      "rstrip": false,
      "normalized": true,
      "special": false
    },
    {
      "id": 1438,
      "content": "e2",
      "single_word": false,
      "lstrip": false,
      "rstrip": false,
      "normalized": true,
      "special": false
    },
    {
      "id": 1439,
      "content": "a5",
      "single_word": false,
      "lstrip": false,
      "rstrip": false,
      "normalized": true,
      "special": false
    },
    {
      "id": 1440,
      "content": "d3",
      "single_word": false,
      "lstrip": false,
      "rstrip": false,
      "normalized": true,
      "special": false
    },
    {
      "id": 1441,
      "content": "6a",
      "single_word": false,
      "lstrip": false,
      "rstrip": false,
      "normalized": true,
      "special": false
    },
    {
      "id": 1442,
      "content": "7b",
      "single_word": false,
      "lstrip": false,
      "rstrip": false,
      "normalized": true,
      "special": false
    },
    {
      "id": 1443,
      "content": "db",
      "single_word": false,
      "lstrip": false,
      "rstrip": false,
      "normalized": true,
      "special": false
    },
    {
      "id": 1444,
      "content": "b8",
      "single_word": false,
      "lstrip": false,
      "rstrip": false,
      "normalized": true,
      "special": false
    },
    {
      "id": 1445,
      "content": "84",
      "single_word": false,
      "lstrip": false,
      "rstrip": false,
      "normalized": true,
      "special": false
    },
    {
      "id": 1446,
      "content": "73",
      "single_word": false,
      "lstrip": false,
      "rstrip": false,
      "normalized": true,
      "special": false
    },
    {
      "id": 1447,
      "content": "85",
      "single_word": false,
      "lstrip": false,
      "rstrip": false,
      "normalized": true,
      "special": false
    },
    {
      "id": 1448,
      "content": "dc",
      "single_word": false,
      "lstrip": false,
      "rstrip": false,
      "normalized": true,
      "special": false
    },
    {
      "id": 1449,
      "content": "3d",
      "single_word": false,
      "lstrip": false,
      "rstrip": false,
      "normalized": true,
      "special": false
    },
    {
      "id": 1450,
      "content": "b0",
      "single_word": false,
      "lstrip": false,
      "rstrip": false,
      "normalized": true,
      "special": false
    },
    {
      "id": 1451,
      "content": "6f",
      "single_word": false,
      "lstrip": false,
      "rstrip": false,
      "normalized": true,
      "special": false
    },
    {
      "id": 1452,
      "content": "2a",
      "single_word": false,
      "lstrip": false,
      "rstrip": false,
      "normalized": true,
      "special": false
    },
    {
      "id": 1453,
      "content": "4c",
      "single_word": false,
      "lstrip": false,
      "rstrip": false,
      "normalized": true,
      "special": false
    },
    {
      "id": 1454,
      "content": "4a",
      "single_word": false,
      "lstrip": false,
      "rstrip": false,
      "normalized": true,
      "special": false
    },
    {
      "id": 1455,
      "content": "5a",
      "single_word": false,
      "lstrip": false,
      "rstrip": false,
      "normalized": true,
      "special": false
    },
    {
      "id": 1456,
      "content": "bd",
      "single_word": false,
      "lstrip": false,
      "rstrip": false,
      "normalized": true,
      "special": false
    },
    {
      "id": 1457,
      "content": "0b",
      "single_word": false,
      "lstrip": false,
      "rstrip": false,
      "normalized": true,
      "special": false
    },
    {
      "id": 1458,
      "content": "44",
      "single_word": false,
      "lstrip": false,
      "rstrip": false,
      "normalized": true,
      "special": false
    },
    {
      "id": 1459,
      "content": "1e",
      "single_word": false,
      "lstrip": false,
      "rstrip": false,
      "normalized": true,
      "special": false
    },
    {
      "id": 1460,
      "content": "91",
      "single_word": false,
      "lstrip": false,
      "rstrip": false,
      "normalized": true,
      "special": false
    },
    {
      "id": 1461,
      "content": "79",
      "single_word": false,
      "lstrip": false,
      "rstrip": false,
      "normalized": true,
      "special": false
    },
    {
      "id": 1462,
      "content": "b9",
      "single_word": false,
      "lstrip": false,
      "rstrip": false,
      "normalized": true,
      "special": false
    },
    {
      "id": 1463,
      "content": "63",
      "single_word": false,
      "lstrip": false,
      "rstrip": false,
      "normalized": true,
      "special": false
    },
    {
      "id": 1464,
      "content": "d5",
      "single_word": false,
      "lstrip": false,
      "rstrip": false,
      "normalized": true,
      "special": false
    },
    {
      "id": 1465,
      "content": "7c",
      "single_word": false,
      "lstrip": false,
      "rstrip": false,
      "normalized": true,
      "special": false
    },
    {
      "id": 1466,
      "content": "49",
      "single_word": false,
      "lstrip": false,
      "rstrip": false,
      "normalized": true,
      "special": false
    },
    {
      "id": 1467,
      "content": "a1",
      "single_word": false,
      "lstrip": false,
      "rstrip": false,
      "normalized": true,
      "special": false
    },
    {
      "id": 1468,
      "content": "22",
      "single_word": false,
      "lstrip": false,
      "rstrip": false,
      "normalized": true,
      "special": false
    },
    {
      "id": 1469,
      "content": "32",
      "single_word": false,
      "lstrip": false,
      "rstrip": false,
      "normalized": true,
      "special": false
    },
    {
      "id": 1470,
      "content": "07",
      "single_word": false,
      "lstrip": false,
      "rstrip": false,
      "normalized": true,
      "special": false
    },
    {
      "id": 1471,
      "content": "21",
      "single_word": false,
      "lstrip": false,
      "rstrip": false,
      "normalized": true,
      "special": false
    },
    {
      "id": 1472,
      "content": "a6",
      "single_word": false,
      "lstrip": false,
      "rstrip": false,
      "normalized": true,
      "special": false
    },
    {
      "id": 1473,
      "content": "61",
      "single_word": false,
      "lstrip": false,
      "rstrip": false,
      "normalized": true,
      "special": false
    },
    {
      "id": 1474,
      "content": "25",
      "single_word": false,
      "lstrip": false,
      "rstrip": false,
      "normalized": true,
      "special": false
    },
    {
      "id": 1475,
      "content": "8a",
      "single_word": false,
      "lstrip": false,
      "rstrip": false,
      "normalized": true,
      "special": false
    },
    {
      "id": 1476,
      "content": "24",
      "single_word": false,
      "lstrip": false,
      "rstrip": false,
      "normalized": true,
      "special": false
    },
    {
      "id": 1477,
      "content": "64",
      "single_word": false,
      "lstrip": false,
      "rstrip": false,
      "normalized": true,
      "special": false
    },
    {
      "id": 1478,
      "content": "5e",
      "single_word": false,
      "lstrip": false,
      "rstrip": false,
      "normalized": true,
      "special": false
    },
    {
      "id": 1479,
      "content": "fc",
      "single_word": false,
      "lstrip": false,
      "rstrip": false,
      "normalized": true,
      "special": false
    },
    {
      "id": 1480,
      "content": "3c",
      "single_word": false,
      "lstrip": false,
      "rstrip": false,
      "normalized": true,
      "special": false
    },
    {
      "id": 1481,
      "content": "6d",
      "single_word": false,
      "lstrip": false,
      "rstrip": false,
      "normalized": true,
      "special": false
    },
    {
      "id": 1482,
      "content": "ce",
      "single_word": false,
      "lstrip": false,
      "rstrip": false,
      "normalized": true,
      "special": false
    },
    {
      "id": 1483,
      "content": "d1",
      "single_word": false,
      "lstrip": false,
      "rstrip": false,
      "normalized": true,
      "special": false
    },
    {
      "id": 1484,
      "content": "f7",
      "single_word": false,
      "lstrip": false,
      "rstrip": false,
      "normalized": true,
      "special": false
    },
    {
      "id": 1485,
      "content": "45",
      "single_word": false,
      "lstrip": false,
      "rstrip": false,
      "normalized": true,
      "special": false
    },
    {
      "id": 1486,
      "content": "01",
      "single_word": false,
      "lstrip": false,
      "rstrip": false,
      "normalized": true,
      "special": false
    },
    {
      "id": 1487,
      "content": "a8",
      "single_word": false,
      "lstrip": false,
      "rstrip": false,
      "normalized": true,
      "special": false
    },
    {
      "id": 1488,
      "content": "9f",
      "single_word": false,
      "lstrip": false,
      "rstrip": false,
      "normalized": true,
      "special": false
    },
    {
      "id": 1489,
      "content": "09",
      "single_word": false,
      "lstrip": false,
      "rstrip": false,
      "normalized": true,
      "special": false
    },
    {
      "id": 1490,
      "content": "35",
      "single_word": false,
      "lstrip": false,
      "rstrip": false,
      "normalized": true,
      "special": false
    },
    {
      "id": 1491,
      "content": "89",
      "single_word": false,
      "lstrip": false,
      "rstrip": false,
      "normalized": true,
      "special": false
    },
    {
      "id": 1492,
      "content": "f1",
      "single_word": false,
      "lstrip": false,
      "rstrip": false,
      "normalized": true,
      "special": false
    },
    {
      "id": 1493,
      "content": "83",
      "single_word": false,
      "lstrip": false,
      "rstrip": false,
      "normalized": true,
      "special": false
    },
    {
      "id": 1494,
      "content": "9d",
      "single_word": false,
      "lstrip": false,
      "rstrip": false,
      "normalized": true,
      "special": false
    },
    {
      "id": 1495,
      "content": "9a",
      "single_word": false,
      "lstrip": false,
      "rstrip": false,
      "normalized": true,
      "special": false
    },
    {
      "id": 1496,
      "content": "f8",
      "single_word": false,
      "lstrip": false,
      "rstrip": false,
      "normalized": true,
      "special": false
    },
    {
      "id": 1497,
      "content": "8b",
      "single_word": false,
      "lstrip": false,
      "rstrip": false,
      "normalized": true,
      "special": false
    },
    {
      "id": 1498,
      "content": "95",
      "single_word": false,
      "lstrip": false,
      "rstrip": false,
      "normalized": true,
      "special": false
    },
    {
      "id": 1499,
      "content": "c9",
      "single_word": false,
      "lstrip": false,
      "rstrip": false,
      "normalized": true,
      "special": false
    },
    {
      "id": 1500,
      "content": "dd",
      "single_word": false,
      "lstrip": false,
      "rstrip": false,
      "normalized": true,
      "special": false
    },
    {
      "id": 1501,
      "content": "59",
      "single_word": false,
      "lstrip": false,
      "rstrip": false,
      "normalized": true,
      "special": false
    },
    {
      "id": 1502,
      "content": "77",
      "single_word": false,
      "lstrip": false,
      "rstrip": false,
      "normalized": true,
      "special": false
    },
    {
      "id": 1503,
      "content": "65",
      "single_word": false,
      "lstrip": false,
      "rstrip": false,
      "normalized": true,
      "special": false
    },
    {
      "id": 1504,
      "content": "5d",
      "single_word": false,
      "lstrip": false,
      "rstrip": false,
      "normalized": true,
      "special": false
    },
    {
      "id": 1505,
      "content": "ae",
      "single_word": false,
      "lstrip": false,
      "rstrip": false,
      "normalized": true,
      "special": false
    },
    {
      "id": 1506,
      "content": "e5",
      "single_word": false,
      "lstrip": false,
      "rstrip": false,
      "normalized": true,
      "special": false
    },
    {
      "id": 1507,
      "content": "2c",
      "single_word": false,
      "lstrip": false,
      "rstrip": false,
      "normalized": true,
      "special": false
    },
    {
      "id": 1508,
      "content": "34",
      "single_word": false,
      "lstrip": false,
      "rstrip": false,
      "normalized": true,
      "special": false
    },
    {
      "id": 1509,
      "content": "9c",
      "single_word": false,
      "lstrip": false,
      "rstrip": false,
      "normalized": true,
      "special": false
    },
    {
      "id": 1510,
      "content": "f3",
      "single_word": false,
      "lstrip": false,
      "rstrip": false,
      "normalized": true,
      "special": false
    },
    {
      "id": 1511,
      "content": "2e",
      "single_word": false,
      "lstrip": false,
      "rstrip": false,
      "normalized": true,
      "special": false
    },
    {
      "id": 1512,
      "content": "81",
      "single_word": false,
      "lstrip": false,
      "rstrip": false,
      "normalized": true,
      "special": false
    },
    {
      "id": 1513,
      "content": "fd",
      "single_word": false,
      "lstrip": false,
      "rstrip": false,
      "normalized": true,
      "special": false
    },
    {
      "id": 1514,
      "content": "66",
      "single_word": false,
      "lstrip": false,
      "rstrip": false,
      "normalized": true,
      "special": false
    },
    {
      "id": 1515,
      "content": "b5",
      "single_word": false,
      "lstrip": false,
      "rstrip": false,
      "normalized": true,
      "special": false
    },
    {
      "id": 1516,
      "content": "54",
      "single_word": false,
      "lstrip": false,
      "rstrip": false,
      "normalized": true,
      "special": false
    },
    {
      "id": 1517,
      "content": "68",
      "single_word": false,
      "lstrip": false,
      "rstrip": false,
      "normalized": true,
      "special": false
    },
    {
      "id": 1518,
      "content": "ed",
      "single_word": false,
      "lstrip": false,
      "rstrip": false,
      "normalized": true,
      "special": false
    }
  ],
  "normalizer": null,
  "pre_tokenizer": {
    "type": "Whitespace"
  },
  "post_processor": null,
  "decoder": null,
  "model": {
    "type": "BPE",
    "dropout": null,
    "unk_token": "[UNK]",
    "continuing_subword_prefix": null,
    "end_of_word_suffix": null,
    "fuse_unk": false,
    "byte_fallback": false,
    "vocab": {
      "[UNK]": 0,
      "0": 1,
      "1": 2,
      "2": 3,
      "3": 4,
      "4": 5,
      "5": 6,
      "6": 7,
      "7": 8,
      "8": 9,
      "9": 10,
      "a": 11,
      "b": 12,
      "c": 13,
      "d": 14,
      "e": 15,
      "f": 16,
      "x": 17,
      "00": 18,
      "55": 19,
      "0x": 20,
      "000": 21,
      "0xc": 22,
      "5555": 23,
      "ff": 24,
      "0x5555": 25,
      "0xc0": 26,
      "0xc1": 27,
      "7ff": 28,
      "0x7ff": 29,
      "0x7ffff": 30,
      "0x7ffff4": 31,
      "0x7ffff4c": 32,
      "0xb": 33,
      "0xc6": 34,
      "0xbf": 35,
      "55556": 36,
      "0xc7": 37,
      "0xc4": 38,
      "0xc5": 39,
      "7000": 40,
      "b4": 41,
      "b000": 42,
      "e000": 43,
      "c000": 44,
      "1000": 45,
      "9000": 46,
      "d000": 47,
      "52": 48,
      "3000": 49,
      "a000": 50,
      "6000": 51,
      "8000": 52,
      "0000": 53,
      "f000": 54,
      "5000": 55,
      "2000": 56,
      "4000": 57,
      "0xc3": 58,
      "42": 59,
      "29": 60,
      "55557": 61,
      "520": 62,
      "42520": 63,
      "96": 64,
      "0xc8": 65,
      "26": 66,
      "94": 67,
      "555574": 68,
      "fe": 69,
      "26a": 70,
      "78": 71,
      "d9": 72,
      "5555f": 73,
      "e4": 74,
      "0x7ffff4d": 75,
      "0xc2": 76,
      "b43": 77,
      "26a00": 78,
      "94b43": 79,
      "555574fe": 80,
      "963": 81,
      "55556963": 82,
      "30": 83,
      "5555678": 84,
      "29d9": 85,
      "29e4": 86,
      "55556785": 87,
      "29d90": 88,
      "29e40": 89,
      "a2": 90,
      "b4b": 91,
      "55556b4b": 92,
      "58": 93,
      "c58": 94,
      "55557000": 95,
      "55556c58": 96,
      "5555730": 97,
      "5555730e": 98,
      "555596": 99,
      "c3": 100,
      "0xbff": 101,
      "0xc01": 102,
      "0xc11": 103,
      "0xc06": 104,
      "0xc08": 105,
      "0xc16": 106,
      "0xc18": 107,
      "cd": 108,
      "5555a2": 109,
      "5555b": 110,
      "0xc03": 111,
      "0xbfe": 112,
      "0xbfb": 113,
      "0xc04": 114,
      "0xc0a": 115,
      "0xc13": 116,
      "0xc14": 117,
      "0xc00": 118,
      "0xc0b": 119,
      "0xbfa": 120,
      "0xc0e": 121,
      "0xbfd": 122,
      "0xc10": 123,
      "0xc0d": 124,
      "0xc07": 125,
      "c8": 126,
      "0xc17": 127,
      "0xc09": 128,
      "0xc0f": 129,
      "0xc02": 130,
      "0xc12": 131,
      "0xc1a": 132,
      "0xc19": 133,
      "c6": 134,
      "0xc05": 135,
      "0xc15": 136,
      "0xc38": 137,
      "0xbfc": 138,
      "0xc0c": 139,
      "0xbf3": 140,
      "0x7ffff5": 141,
      "14": 142,
      "555596c8": 143,
      "0xc39": 144,
      "a4": 145,
      "55559": 146,
      "5f": 147,
      "8f": 148,
      "87": 149,
      "b3": 150,
      "0xbf2": 151,
      "e9": 152,
      "05": 153,
      "ea": 154,
      "72": 155,
      "c4": 156,
      "c2": 157,
      "0xc3a": 158,
      "0xc1b": 159,
      "55558f": 160,
      "5555745f": 161,
      "10": 162,
      "0xc66": 163,
      "5555c6": 164,
      "555598": 165,
      "5555fc3": 166,
      "5555fc3b": 167,
      "0xc64": 168,
      "0xc63": 169,
      "0xc6d": 170,
      "0xc56": 171,
      "0xc76": 172,
      "5555fb4": 173,
      "5555fb44": 174,
      "0xc5d": 175,
      "0xc55": 176,
      "0xc73": 177,
      "0xc68": 178,
      "55559687": 179,
      "0xc6b": 180,
      "0xc60": 181,
      "0xc6a": 182,
      "0xc62": 183,
      "0xc74": 184,
      "0xc69": 185,
      "0xc67": 186,
      "0xc61": 187,
      "0xc46": 188,
      "0xc5f": 189,
      "0xc70": 190,
      "0xc6f": 191,
      "0xc71": 192,
      "0xc53": 193,
      "0xc54": 194,
      "0xc3d": 195,
      "0xc72": 196,
      "0xc5a": 197,
      "0xc5b": 198,
      "5555a2cd": 199,
      "5555b5": 200,
      "55559805": 201,
      "5555b572": 202,
      "0xc44": 203,
      "5555a4": 204,
      "5555b6": 205,
      "5555a4c3": 206,
      "5555b694": 207,
      "5555c6cd": 208,
      "0xc4d": 209,
      "0xc43": 210,
      "14e9": 211,
      "14e9ea": 212,
      "0xc59": 213,
      "0xc58": 214,
      "0xc6e": 215,
      "55558f52": 216,
      "0xc77": 217,
      "0xc57": 218,
      "0xc52": 219,
      "5555fb3": 220,
      "5555fb35": 221,
      "0xc40": 222,
      "0xc7d": 223,
      "0xc5e": 224,
      "0xc3f": 225,
      "0xc41": 226,
      "0xbf0": 227,
      "0xc51": 228,
      "0xc78": 229,
      "0xc50": 230,
      "0xc3b": 231,
      "0xc79": 232,
      "0xc49": 233,
      "0xc4f": 234,
      "0xc42": 235,
      "0xc48": 236,
      "0xc7a": 237,
      "0xc47": 238,
      "0xc65": 239,
      "0xc4a": 240,
      "0xc4b": 241,
      "5555fc2": 242,
      "5555fc2c": 243,
      "0xc7b": 244,
      "0xc3e": 245,
      "0xc4e": 246,
      "0xc75": 247,
      "0xc83": 248,
      "0xc86": 249,
      "0xc84": 250,
      "0xc7f": 251,
      "0xc80": 252,
      "0xc81": 253,
      "0xc82": 254,
      "0xc7e": 255,
      "1c000": 256,
      "11000": 257,
      "0xc45": 258,
      "c1000": 259,
      "1b000": 260,
      "b9000": 261,
      "b1000": 262,
      "10000": 263,
      "1f000": 264,
      "b6000": 265,
      "cb000": 266,
      "cf000": 267,
      "1e000": 268,
      "70000": 269,
      "7f000": 270,
      "19000": 271,
      "55556b": 272,
      "13000": 273,
      "bc000": 274,
      "0xc6c": 275,
      "cd000": 276,
      "1a000": 277,
      "c4000": 278,
      "15000": 279,
      "14000": 280,
      "1d000": 281,
      "b2000": 282,
      "c7000": 283,
      "16000": 284,
      "be000": 285,
      "b5000": 286,
      "79000": 287,
      "7a000": 288,
      "bb000": 289,
      "c0000": 290,
      "12000": 291,
      "c8000": 292,
      "bf000": 293,
      "c5000": 294,
      "ce000": 295,
      "ca000": 296,
      "17000": 297,
      "75000": 298,
      "18000": 299,
      "a3000": 300,
      "ef000": 301,
      "5555a2a2": 302,
      "b4000": 303,
      "76000": 304,
      "b8000": 305,
      "7b000": 306,
      "7d000": 307,
      "c6000": 308,
      "c9000": 309,
      "b0000": 310,
      "0xc87": 311,
      "ba000": 312,
      "c3000": 313,
      "b7000": 314,
      "73000": 315,
      "77000": 316,
      "b3000": 317,
      "74000": 318,
      "72000": 319,
      "cc000": 320,
      "c2000": 321,
      "78000": 322,
      "ae000": 323,
      "eb000": 324,
      "71000": 325,
      "a0000": 326,
      "a7000": 327,
      "e7000": 328,
      "e2000": 329,
      "ad000": 330,
      "a5000": 331,
      "ac000": 332,
      "bd000": 333,
      "00000": 334,
      "af000": 335,
      "e0000": 336,
      "7e000": 337,
      "7c000": 338,
      "a4000": 339,
      "a6000": 340,
      "a1000": 341,
      "5a000": 342,
      "ab000": 343,
      "59000": 344,
      "e6000": 345,
      "dd000": 346,
      "e8000": 347,
      "55000": 348,
      "a2000": 349,
      "e5000": 350,
      "ee000": 351,
      "d3000": 352,
      "a9000": 353,
      "aa000": 354,
      "ec000": 355,
      "0xc5c": 356,
      "52000": 357,
      "ed000": 358,
      "d4000": 359,
      "a8000": 360,
      "50000": 361,
      "57000": 362,
      "e4000": 363,
      "dc000": 364,
      "d7000": 365,
      "d2000": 366,
      "39000": 367,
      "e3000": 368,
      "36000": 369,
      "e9000": 370,
      "53000": 371,
      "d8000": 372,
      "fb000": 373,
      "d5000": 374,
      "db000": 375,
      "5b000": 376,
      "d0000": 377,
      "31000": 378,
      "d9000": 379,
      "e1000": 380,
      "d6000": 381,
      "5c000": 382,
      "ea000": 383,
      "56000": 384,
      "37000": 385,
      "de000": 386,
      "ff000": 387,
      "35000": 388,
      "3c000": 389,
      "51000": 390,
      "d1000": 391,
      "fd000": 392,
      "54000": 393,
      "3a000": 394,
      "38000": 395,
      "5e000": 396,
      "df000": 397,
      "58000": 398,
      "34000": 399,
      "3d000": 400,
      "fc000": 401,
      "30000": 402,
      "3f000": 403,
      "33000": 404,
      "f3000": 405,
      "3b000": 406,
      "55556b10": 407,
      "da000": 408,
      "5d000": 409,
      "5f000": 410,
      "3e000": 411,
      "f7000": 412,
      "f5000": 413,
      "32000": 414,
      "fe000": 415,
      "f8000": 416,
      "fa000": 417,
      "f0000": 418,
      "f2000": 419,
      "9e000": 420,
      "f6000": 421,
      "f1000": 422,
      "f4000": 423,
      "0xc85": 424,
      "0xc3c": 425,
      "93000": 426,
      "0xc4c": 427,
      "f9000": 428,
      "0e000": 429,
      "0f000": 430,
      "07000": 431,
      "91000": 432,
      "8c000": 433,
      "84000": 434,
      "8e000": 435,
      "8f000": 436,
      "09000": 437,
      "68000": 438,
      "80000": 439,
      "94000": 440,
      "08000": 441,
      "92000": 442,
      "02000": 443,
      "0a000": 444,
      "95000": 445,
      "04000": 446,
      "01000": 447,
      "6b000": 448,
      "9b000": 449,
      "6e000": 450,
      "90000": 451,
      "0c000": 452,
      "81000": 453,
      "06000": 454,
      "9d000": 455,
      "97000": 456,
      "3e": 457,
      "0d000": 458,
      "83000": 459,
      "0xc7c": 460,
      "5555a23e": 461,
      "6d000": 462,
      "9f000": 463,
      "88000": 464,
      "03000": 465,
      "8b000": 466,
      "82000": 467,
      "8a000": 468,
      "89000": 469,
      "6c000": 470,
      "61000": 471,
      "0xc23": 472,
      "05000": 473,
      "98000": 474,
      "69000": 475,
      "85000": 476,
      "6a000": 477,
      "99000": 478,
      "9c000": 479,
      "96000": 480,
      "0xc1d": 481,
      "86000": 482,
      "0xc24": 483,
      "6f000": 484,
      "8d000": 485,
      "9a000": 486,
      "0xc26": 487,
      "22000": 488,
      "87000": 489,
      "60000": 490,
      "0b000": 491,
      "64000": 492,
      "62000": 493,
      "63000": 494,
      "67000": 495,
      "66000": 496,
      "25000": 497,
      "65000": 498,
      "2c000": 499,
      "2d000": 500,
      "28000": 501,
      "2e000": 502,
      "21000": 503,
      "2a000": 504,
      "0xc22": 505,
      "0xc28": 506,
      "0xc21": 507,
      "0xc20": 508,
      "0xc1f": 509,
      "0xc27": 510,
      "23000": 511,
      "2f000": 512,
      "24000": 513,
      "20000": 514,
      "29000": 515,
      "2b000": 516,
      "26000": 517,
      "27000": 518,
      "46000": 519,
      "4e000": 520,
      "40000": 521,
      "42000": 522,
      "5555b4": 523,
      "44000": 524,
      "4d000": 525,
      "43000": 526,
      "49000": 527,
      "48000": 528,
      "4a000": 529,
      "41000": 530,
      "45000": 531,
      "47000": 532,
      "4b000": 533,
      "4f000": 534,
      "0xc1e": 535,
      "4c000": 536,
      "0xc25": 537,
      "5555c4": 538,
      "30c": 539,
      "37": 540,
      "5555b30c": 541,
      "5555c437": 542,
      "5555a": 543,
      "0xc88": 544,
      "0xc1c": 545,
      "4f": 546,
      "5555d": 547,
      "0x7ffff50": 548,
      "d4": 549,
      "5555fa": 550,
      "5555fa5": 551,
      "5555b4d4": 552,
      "a0": 553,
      "5555f9": 554,
      "5555a26a": 555,
      "5555fa50": 556,
      "7a": 557,
      "5555a27a": 558,
      "5555fa4": 559,
      "5555fa41": 560,
      "af": 561,
      "5555f9af": 562,
      "6c": 563,
      "23": 564,
      "14c4": 565,
      "ad": 566,
      "55559623": 567,
      "14c4ad": 568,
      "d2": 569,
      "ca": 570,
      "55559ca": 571,
      "55558f6c": 572,
      "55559ca9": 573,
      "c64f": 574,
      "c64f3": 575,
      "55558": 576,
      "5555fb": 577,
      "a09": 578,
      "e1": 579,
      "5555b43": 580,
      "5555b432": 581,
      "3f": 582,
      "5555e1": 583,
      "0xc0b4": 584,
      "0xc0e4": 585,
      "0xc042": 586,
      "0xc0c3": 587,
      "0xc142": 588,
      "0xbfa2": 589,
      "0xc0ff": 590,
      "0xc152": 591,
      "0xc052": 592,
      "0xc0fe": 593,
      "0xbfc6": 594,
      "0xc0c6": 595,
      "0xbfc8": 596,
      "0xc058": 597,
      "0xc078": 598,
      "0xc0d9": 599,
      "0xc096": 600,
      "0xbfd9": 601,
      "0xc155": 602,
      "0xc126": 603,
      "0xc158": 604,
      "0xc0c8": 605,
      "0xc0cd": 606,
      "0xc129": 607,
      "0xbfc3": 608,
      "0xbfe4": 609,
      "0xc094": 610,
      "0xc055": 611,
      "0xc026": 612,
      "0xc0a2": 613,
      "0xbfb4": 614,
      "c0": 615,
      "0xbfcd": 616,
      "0xc029": 617,
      "0xc178": 618,
      "0xc194": 619,
      "1d": 620,
      "5555d8": 621,
      "6b": 622,
      "101": 623,
      "5555c64f": 624,
      "5555b46b": 625,
      "5555d101": 626,
      "5555e11d": 627,
      "5555d83f": 628,
      "0xc196": 629,
      "0xc1a2": 630,
      "0xc100": 631,
      "0xc000": 632,
      "0xc030": 633,
      "0xc130": 634,
      "5555bc": 635,
      "e7": 636,
      "6e": 637,
      "5555986e": 638,
      "55559e7": 639,
      "55559e7c": 640,
      "ab": 641,
      "555596ab": 642,
      "0xc1b3": 643,
      "18": 644,
      "5555a5": 645,
      "5555bc18": 646,
      "5555a5d2": 647,
      "0xc1b4": 648,
      "f9": 649,
      "5555fc4": 650,
      "0xc29": 651,
      "5555fc49": 652,
      "5555fb52": 653,
      "0xbf29": 654,
      "0xbf26": 655,
      "0xc394": 656,
      "9b": 657,
      "0xc396": 658,
      "a099b": 659,
      "1f": 660,
      "14c0": 661,
      "14c01f": 662,
      "14b": 663,
      "f95": 664,
      "14bf95": 665,
      "0xbf30": 666,
      "0xc3a2": 667,
      "0xc3a4": 668,
      "0xc32": 669,
      "55557d2": 670,
      "55557d20": 671,
      "98": 672,
      "94d": 673,
      "a094d": 674,
      "0xc696": 675,
      "2b": 676,
      "0xc6c2": 677,
      "0xc6d9": 678,
      "47": 679,
      "55559600": 680,
      "0xc6c4": 681,
      "55556b2b": 682,
      "0xc6e9": 683,
      "0xc6a2": 684,
      "0xc655": 685,
      "5555fb98": 686,
      "0xc5e4": 687,
      "0xc65f": 688,
      "0xc729": 689,
      "0xc6a4": 690,
      "0xbf05": 691,
      "0xc5d9": 692,
      "0xc5c4": 693,
      "0xc658": 694,
      "0xc6fe": 695,
      "0xc6b3": 696,
      "0xc629": 697,
      "0xc687": 698,
      "0xc678": 699,
      "0xc642": 700,
      "0xc672": 701,
      "0xc714": 702,
      "0xc626": 703,
      "0xc6cd": 704,
      "0xc6c8": 705,
      "0xc5fe": 706,
      "0xc5ff": 707,
      "0xc4ff": 708,
      "0xc742": 709,
      "0xc705": 710,
      "c67": 711,
      "0xc614": 712,
      "0xc5ea": 713,
      "0xc5b4": 714,
      "0xc5e9": 715,
      "0xc694": 716,
      "0xc5a4": 717,
      "0xc652": 718,
      "0xc5a2": 719,
      "0xc700": 720,
      "0xc5cd": 721,
      "0xc630": 722,
      "0xc5b3": 723,
      "0xc572": 724,
      "0xc587": 725,
      "0xc755": 726,
      "0xc5c6": 727,
      "0xc5c2": 728,
      "0xc414": 729,
      "0xc730": 730,
      "0xc4a2": 731,
      "0xc578": 732,
      "0xc610": 733,
      "0xc6b4": 734,
      "0xc6c6": 735,
      "0xc596": 736,
      "0xc710": 737,
      "0xc6e4": 738,
      "0xc726": 739,
      "0xc4ea": 740,
      "0xc778": 741,
      "0xc6ff": 742,
      "0xc4d9": 743,
      "0xc487": 744,
      "0xc4b3": 745,
      "0xc452": 746,
      "0xc4a4": 747,
      "0xbf1": 748,
      "0xc6ea": 749,
      "0xc68f": 750,
      "0xc478": 751,
      "0xc4c6": 752,
      "0xc6c3": 753,
      "0xc4cd": 754,
      "0xc3c3": 755,
      "0xc3ea": 756,
      "0xc7b4": 757,
      "0xc4b4": 758,
      "0xc542": 759,
      "0xc7a2": 760,
      "0xc4fe": 761,
      "0xc5c3": 762,
      "0xc794": 763,
      "0xc7c2": 764,
      "0xc3c6": 765,
      "0xc4c3": 766,
      "0xc3ff": 767,
      "0xc3fe": 768,
      "0xc3c8": 769,
      "0xc3c2": 770,
      "0xc7b3": 771,
      "0xc529": 772,
      "0xc3c4": 773,
      "0xc514": 774,
      "0xc594": 775,
      "0xc7a4": 776,
      "0xc3e4": 777,
      "0xc4c2": 778,
      "0xc458": 779,
      "0xc3cd": 780,
      "0xc4e9": 781,
      "0xc3b3": 782,
      "0xc3b4": 783,
      "0xc3e9": 784,
      "0xc605": 785,
      "0xc7c3": 786,
      "0xc75f": 787,
      "0xc7d9": 788,
      "0xc426": 789,
      "0xc7c4": 790,
      "0xc7cd": 791,
      "0xc7c8": 792,
      "0xc442": 793,
      "0xc505": 794,
      "0xc429": 795,
      "0xc530": 796,
      "0xc510": 797,
      "0xc78f": 798,
      "0xc7c6": 799,
      "0xc7e9": 800,
      "0xc455": 801,
      "0xc58f": 802,
      "0xc494": 803,
      "0xc472": 804,
      "0xc5c8": 805,
      "0xc7ff": 806,
      "0xc4c4": 807,
      "0xc7fe": 808,
      "0xc4c8": 809,
      "0xc496": 810,
      "0xc400": 811,
      "0xc3d9": 812,
      "0xc7ea": 813,
      "0xc410": 814,
      "0xc4e4": 815,
      "0xc526": 816,
      "0xc829": 817,
      "0xc45f": 818,
      "0xc814": 819,
      "0xc826": 820,
      "0xc430": 821,
      "0xc752": 822,
      "0xc800": 823,
      "0xc48f": 824,
      "55558f47": 825,
      "0xc600": 826,
      "0xc758": 827,
      "0xc858": 828,
      "0xc772": 829,
      "0xc842": 830,
      "0xc810": 831,
      "0xc855": 832,
      "0xc852": 833,
      "0xc405": 834,
      "0xc796": 835,
      "0xc787": 836,
      "0xc878": 837,
      "0xc830": 838,
      "0xc500": 839,
      "0xc887": 840,
      "cc": 841,
      "55558d": 842,
      "c94": 843,
      "b6": 844,
      "e93": 845,
      "55558c94": 846,
      "55558e93": 847,
      "55558db6": 848,
      "5555b4cc": 849,
      "0xc872": 850,
      "0xc85f": 851,
      "a09a2": 852,
      "0xc7e4": 853,
      "000000": 854,
      "0xc805": 855,
      "7ff000": 856,
      "0xc229": 857,
      "0xc287": 858,
      "0xc1c3": 859,
      "0xc1ff": 860,
      "0xc1d9": 861,
      "0xc1c8": 862,
      "0xc226": 863,
      "0xc1cd": 864,
      "0xc1c2": 865,
      "0xc1e9": 866,
      "0xc242": 867,
      "0xc1fe": 868,
      "0xc278": 869,
      "0xc272": 870,
      "0xc1e4": 871,
      "0xc26a": 872,
      "0xc1c4": 873,
      "0xc258": 874,
      "0xc214": 875,
      "0xc255": 876,
      "0xc1c6": 877,
      "0xc252": 878,
      "0xc1ea": 879,
      "5555fa5b": 880,
      "0xbf00": 881,
      "0xc200": 882,
      "0xc210": 883,
      "0xc25f": 884,
      "0xc28f": 885,
      "0xc230": 886,
      "0xc205": 887,
      "ba": 888,
      "5555f9ba": 889,
      "c678": 890,
      "a09c0": 891,
      "555576": 892,
      "0xbf10": 893,
      "5555fd": 894,
      "5555f9a0": 895,
      "82": 896,
      "555586": 897,
      "555580": 898,
      "c6789": 899,
      "c6726": 900,
      "50": 901,
      "c6750": 902,
      "b2": 903,
      "555578": 904,
      "555574b2": 905,
      "5555d0": 906,
      "5555c": 907,
      "c68": 908,
      "38": 909,
      "55559f9": 910,
      "5555938": 911,
      "55559f91": 912,
      "55559384": 913,
      "87a": 914,
      "c41": 915,
      "5555a87a": 916,
      "5555d26a": 917,
      "5555da0": 918,
      "5555bce1": 919,
      "5555cc41": 920,
      "5555da07": 921,
      "d0": 922,
      "5555e": 923,
      "7d": 924,
      "12": 925,
      "c69": 926,
      "0xc98": 927,
      "56": 928,
      "555583": 929,
      "555576d4": 930,
      "43": 931,
      "55557c0": 932,
      "55558643": 933,
      "55558010": 934,
      "55557847": 935,
      "55558347": 936,
      "55557c07": 937,
      "08": 938,
      "55558608": 939,
      "d8": 940,
      "c67d8": 941,
      "99": 942,
      "8c": 943,
      "fa": 944,
      "90": 945,
      "c6783": 946,
      "0xc99": 947,
      "555588": 948,
      "5b": 949,
      "5555885b": 950,
      "0xc0000": 951,
      "b7": 952,
      "ae9": 953,
      "ae98c": 954,
      "c83": 955,
      "583": 956,
      "5555a583": 957,
      "cb": 958,
      "5555b3f": 959,
      "5555c612": 960,
      "5555d7d": 961,
      "5555d0cb": 962,
      "5555b3f5": 963,
      "5555d7de": 964,
      "555580b7": 965,
      "97": 966,
      "7f": 967,
      "197": 968,
      "76c": 969,
      "80": 970,
      "5555d9": 971,
      "5555c83": 972,
      "5555b76c": 973,
      "5555d197": 974,
      "5555e17f": 975,
      "5555e82": 976,
      "5555d980": 977,
      "5555c832": 978,
      "36": 979,
      "5555fd82": 980,
      "5555fd56": 981,
      "5555fd36": 982,
      "ec": 983,
      "555576b4": 984,
      "55557690": 985,
      "555578ec": 986,
      "5555fb4c": 987,
      "55557d0": 988,
      "55557d0e": 989,
      "5555fbfa": 990,
      "14f": 991,
      "5555e828": 992,
      "88": 993,
      "5555d088": 994,
      "14c": 995,
      "14f14c": 996,
      "5555f930": 997,
      "c67f": 998,
      "0c": 999,
      "c689b": 1000,
      "c686c": 1001,
      "c7": 1002,
      "c69c7": 1003,
      "c69d0": 1004,
      "c67fc": 1005,
      "c682": 1006,
      "c682f": 1007,
      "c68c0": 1008,
      "c6930": 1009,
      "20": 1010,
      "14c2": 1011,
      "5555f920": 1012,
      "55c": 1013,
      "940": 1014,
      "5555f55c": 1015,
      "5555f940": 1016,
      "c67d2": 1017,
      "c677d": 1018,
      "9e": 1019,
      "d99e": 1020,
      "14ea": 1021,
      "d99ef9": 1022,
      "14ea0c": 1023,
      "46": 1024,
      "0xc5555": 1025,
      "55558f2b": 1026,
      "0xbf5f": 1027,
      "5555f6": 1028,
      "57": 1029,
      "28": 1030,
      "14c228": 1031,
      "5555f56": 1032,
      "5555f57": 1033,
      "5555f567": 1034,
      "5555f573": 1035,
      "13": 1036,
      "5555a246": 1037,
      "e8": 1038,
      "5555d090": 1039,
      "5555ff": 1040,
      "124": 1041,
      "5555e82c": 1042,
      "14f124": 1043,
      "5555c6e8": 1044,
      "555580cd": 1045,
      "5555c6fa": 1046,
      "fb": 1047,
      "c67c6": 1048,
      "41": 1049,
      "5555b4fa": 1050,
      "0xbf14": 1051,
      "df": 1052,
      "5555b4df": 1053,
      "76": 1054,
      "076": 1055,
      "1b": 1056,
      "5d0": 1057,
      "f23": 1058,
      "555594": 1059,
      "5555a0c": 1060,
      "5555af23": 1061,
      "5555d5d0": 1062,
      "1d6": 1063,
      "5555cfb": 1064,
      "5555c1d6": 1065,
      "5555e076": 1066,
      "5555941b": 1067,
      "5555a0ce": 1068,
      "5555cfb0": 1069,
      "02": 1070,
      "f5": 1071,
      "5555ee": 1072,
      "0e": 1073,
      "0af": 1074,
      "c13": 1075,
      "5555ea": 1076,
      "5555f30": 1077,
      "5555f46": 1078,
      "5555f0af": 1079,
      "3e5": 1080,
      "5555dc13": 1081,
      "5555e3e5": 1082,
      "5555f6e9": 1083,
      "5555f602": 1084,
      "5555eef5": 1085,
      "5555ea0e": 1086,
      "5555f30b": 1087,
      "5555f469": 1088,
      "87d": 1089,
      "5555887d": 1090,
      "33": 1091,
      "14c233": 1092,
      "d9e": 1093,
      "5555fd9e": 1094,
      "5555f955": 1095,
      "c65": 1096,
      "c687": 1097,
      "c687b": 1098,
      "5555fe": 1099,
      "62": 1100,
      "c6862": 1101,
      "0f": 1102,
      "75": 1103,
      "c6775": 1104,
      "944": 1105,
      "c6944": 1106,
      "d7": 1107,
      "c68d7": 1108,
      "c680f": 1109,
      "c67f2": 1110,
      "a8c": 1111,
      "55558a8c": 1112,
      "a0b": 1113,
      "555587": 1114,
      "8e": 1115,
      "5555988e": 1116,
      "55557d4": 1117,
      "555584": 1118,
      "55557d43": 1119,
      "51": 1120,
      "966": 1121,
      "10e": 1122,
      "55558966": 1123,
      "5555810e": 1124,
      "55558741": 1125,
      "55558451": 1126,
      "c1": 1127,
      "a82": 1128,
      "5555699": 1129,
      "55556a82": 1130,
      "5555ff58": 1131,
      "5555fec1": 1132,
      "55556991": 1133,
      "98f": 1134,
      "98f41": 1135,
      "a7": 1136,
      "3a0": 1137,
      "5555b3a0": 1138,
      "5555c4a7": 1139,
      "0xc96": 1140,
      "5555fa12": 1141,
      "c6513": 1142,
      "a0b7": 1143,
      "a0b77": 1144,
      "86": 1145,
      "a0b05": 1146,
      "a0b86": 1147,
      "555596e1": 1148,
      "17": 1149,
      "ee": 1150,
      "98ee": 1151,
      "98eed": 1152,
      "c5": 1153,
      "c6517": 1154,
      "92": 1155,
      "0xbf8": 1156,
      "c6500": 1157,
      "55556e8": 1158,
      "5555ffc5": 1159,
      "55556e8a": 1160,
      "0x7ffff51": 1161,
      "55558ab": 1162,
      "55558aba": 1163,
      "af0": 1164,
      "d0c8": 1165,
      "13af0": 1166,
      "69": 1167,
      "0098": 1168,
      "5556": 1169,
      "5555694": 1170,
      "555590c": 1171,
      "5555fe69": 1172,
      "55560098": 1173,
      "55556948": 1174,
      "555590c9": 1175,
      "d6": 1176,
      "5555ffd6": 1177,
      "f6": 1178,
      "5555fff6": 1179,
      "120": 1180,
      "c8392": 1181,
      "79b": 1182,
      "5555b72": 1183,
      "5555d12": 1184,
      "5555d8cc": 1185,
      "5555c79b": 1186,
      "5555b725": 1187,
      "5555d12f": 1188,
      "14bfb": 1189,
      "14bfb9": 1190,
      "16": 1191,
      "c816": 1192,
      "5555ffaf": 1193,
      "c8167": 1194,
      "9cc": 1195,
      "149cc": 1196,
      "d0c8f": 1197,
      "55558618": 1198,
      "4b": 1199,
      "c684b": 1200,
      "92e": 1201,
      "12092e": 1202,
      "5a4": 1203,
      "875a4": 1204,
      "d0c82": 1205,
      "55556af": 1206,
      "55556afc": 1207,
      "8d": 1208,
      "a098d": 1209,
      "5555fc8": 1210,
      "5555fc8f": 1211,
      "5555fc43": 1212,
      "de": 1213,
      "9b2": 1214,
      "1209b2": 1215,
      "5555a3": 1216,
      "5e7": 1217,
      "555595e7": 1218,
      "cf": 1219,
      "5555fcf": 1220,
      "5555fcf1": 1221,
      "400000": 1222,
      "93": 1223,
      "295": 1224,
      "c8295": 1225,
      "093": 1226,
      "55559093": 1227,
      "5555a3de": 1228,
      "9de": 1229,
      "555569de": 1230,
      "74": 1231,
      "55556d2": 1232,
      "55556d2d": 1233,
      "11": 1234,
      "9ca": 1235,
      "917": 1236,
      "949ca": 1237,
      "91711": 1238,
      "926": 1239,
      "55557cc": 1240,
      "14c474": 1241,
      "555586b": 1242,
      "5555890": 1243,
      "55558926": 1244,
      "555576c4": 1245,
      "55558094": 1246,
      "555580fb": 1247,
      "5555788f": 1248,
      "555583c5": 1249,
      "5555870f": 1250,
      "55558413": 1251,
      "55557cc9": 1252,
      "555586b1": 1253,
      "55558902": 1254,
      "55559d": 1255,
      "e0": 1256,
      "555588c": 1257,
      "555588c5": 1258,
      "b6c": 1259,
      "55558ec": 1260,
      "55558e0": 1261,
      "55558b6c": 1262,
      "55558d18": 1263,
      "55558ec9": 1264,
      "55558e0a": 1265,
      "4e4": 1266,
      "c64e4": 1267,
      "3b": 1268,
      "55559d3b": 1269,
      "5555963": 1270,
      "5555963c": 1271,
      "a9": 1272,
      "5555a5a9": 1273,
      "15": 1274,
      "910": 1275,
      "b15": 1276,
      "5555b910": 1277,
      "5555cb15": 1278,
      "5555cd": 1279,
      "c658": 1280,
      "5555db": 1281,
      "5555aa": 1282,
      "5555dbc5": 1283,
      "bc": 1284,
      "55559d2": 1285,
      "5555fab3": 1286,
      "5555a3bc": 1287,
      "55559d24": 1288,
      "c32": 1289,
      "c690": 1290,
      "120c32": 1291,
      "bb": 1292,
      "e02": 1293,
      "5555cc": 1294,
      "5555bf5": 1295,
      "5555be02": 1296,
      "5555a82": 1297,
      "5555d30c": 1298,
      "5555dad": 1299,
      "5555d38": 1300,
      "5555cd7a": 1301,
      "c6584": 1302,
      "5555aaec": 1303,
      "5555cc9e": 1304,
      "5555bf53": 1305,
      "5555a82a": 1306,
      "5555dade": 1307,
      "5555d38e": 1308,
      "06": 1309,
      "897": 1310,
      "55556f": 1311,
      "55556897": 1312,
      "965": 1313,
      "c6872": 1314,
      "120965": 1315,
      "c690b": 1316,
      "c650": 1317,
      "c67a2": 1318,
      "55556f76": 1319,
      "c6504": 1320,
      "1a": 1321,
      "555585": 1322,
      "c6806": 1323,
      "71": 1324,
      "5555fb71": 1325,
      "ac": 1326,
      "0x7ffff7f": 1327,
      "a09ac": 1328,
      "120c": 1329,
      "120c7a": 1330,
      "190": 1331,
      "53": 1332,
      "55557fe": 1333,
      "55557bb": 1334,
      "14e9ee": 1335,
      "55557853": 1336,
      "5555831a": 1337,
      "555585d4": 1338,
      "55557fe6": 1339,
      "55557bbb": 1340,
      "bf": 1341,
      "5555b4b": 1342,
      "96c": 1343,
      "5555fc68": 1344,
      "c696c": 1345,
      "5555b5bf": 1346,
      "c6974": 1347,
      "13190": 1348,
      "5555b4b1": 1349,
      "13190c": 1350,
      "1120": 1351,
      "7e": 1352,
      "a1120": 1353,
      "26e": 1354,
      "5555a26e": 1355,
      "5555fb9e": 1356,
      "c6833": 1357,
      "c658e": 1358,
      "4d": 1359,
      "f29": 1360,
      "5555bf29": 1361,
      "5555a44d": 1362,
      "5555b657": 1363,
      "c689": 1364,
      "55559dc1": 1365,
      "5555aad9": 1366,
      "2ea": 1367,
      "32ea": 1368,
      "7fe": 1369,
      "956": 1370,
      "a3": 1371,
      "aa": 1372,
      "c956": 1373,
      "555569b": 1374,
      "a09c8": 1375,
      "c947e": 1376,
      "555588a3": 1377,
      "c6907": 1378,
      "c689f": 1379,
      "7fe32ea": 1380,
      "c9568": 1381,
      "555569b8": 1382,
      "19e": 1383,
      "282": 1384,
      "2f6": 1385,
      "4e": 1386,
      "9e1": 1387,
      "be": 1388,
      "ebe": 1389,
      "55556fe": 1390,
      "55556a2": 1391,
      "555579e1": 1392,
      "55557ebe": 1393,
      "961": 1394,
      "55557497": 1395,
      "555597": 1396,
      "555593e": 1397,
      "555592f6": 1398,
      "5555a0": 1399,
      "a0961": 1400,
      "55558282": 1401,
      "555587c3": 1402,
      "93a": 1403,
      "1a5": 1404,
      "5555854e": 1405,
      "aa93a": 1406,
      "19e06": 1407,
      "55556fe1": 1408,
      "55556a2f": 1409,
      "555593e3": 1410
    },
    "merges": [
      "0 0",
      "5 5",
      "0 x",
      "00 0",
      "0x c",
      "55 55",
      "f f",
      "0x 5555",
      "0xc 0",
      "0xc 1",
      "7 ff",
      "0x 7ff",
      "0x7ff ff",
      "0x7ffff 4",
      "0x7ffff4 c",
      "0x b",
      "0xc 6",
      "0xb f",
      "5555 6",
      "0xc 7",
      "0xc 4",
      "0xc 5",
      "7 000",
      "b 4",
      "b 000",
      "e 000",
      "c 000",
      "1 000",
      "9 000",
      "d 000",
      "5 2",
      "3 000",
      "a 000",
      "6 000",
      "8 000",
      "00 00",
      "f 000",
      "5 000",
      "2 000",
      "4 000",
      "0xc 3",
      "4 2",
      "2 9",
      "5555 7",
      "52 0",
      "42 520",
      "9 6",
      "0xc 8",
      "2 6",
      "9 4",
      "55557 4",
      "f e",
      "26 a",
      "7 8",
      "d 9",
      "5555 f",
      "e 4",
      "0x7ffff4 d",
      "0xc 2",
      "b4 3",
      "26a 00",
      "94 b43",
      "555574 fe",
      "96 3",
      "55556 963",
      "3 0",
      "55556 78",
      "29 d9",
      "29 e4",
      "5555678 5",
      "29d9 0",
      "29e4 0",
      "a 2",
      "b4 b",
      "55556 b4b",
      "5 8",
      "c 58",
      "5555 7000",
      "55556 c58",
      "55557 30",
      "5555730 e",
      "5555 96",
      "c 3",
      "0xb ff",
      "0xc0 1",
      "0xc1 1",
      "0xc0 6",
      "0xc0 8",
      "0xc1 6",
      "0xc1 8",
      "c d",
      "5555 a2",
      "5555 b",
      "0xc0 3",
      "0xbf e",
      "0xbf b",
      "0xc0 4",
      "0xc0 a",
      "0xc1 3",
      "0xc1 4",
      "0xc 00",
      "0xc0 b",
      "0xbf a",
      "0xc0 e",
      "0xbf d",
      "0xc1 0",
      "0xc0 d",
      "0xc0 7",
      "c 8",
      "0xc1 7",
      "0xc0 9",
      "0xc0 f",
      "0xc0 2",
      "0xc1 2",
      "0xc1 a",
      "0xc1 9",
      "c 6",
      "0xc0 5",
      "0xc1 5",
      "0xc3 8",
      "0xbf c",
      "0xc0 c",
      "0xbf 3",
      "0x7ffff 5",
      "1 4",
      "555596 c8",
      "0xc3 9",
      "a 4",
      "5555 9",
      "5 f",
      "8 f",
      "8 7",
      "b 3",
      "0xbf 2",
      "e 9",
      "0 5",
      "e a",
      "7 2",
      "c 4",
      "c 2",
      "0xc3 a",
      "0xc1 b",
      "5555 8f",
      "555574 5f",
      "1 0",
      "0xc6 6",
      "5555 c6",
      "55559 8",
      "5555f c3",
      "5555fc3 b",
      "0xc6 4",
      "0xc6 3",
      "0xc6 d",
      "0xc5 6",
      "0xc7 6",
      "5555f b4",
      "5555fb4 4",
      "0xc5 d",
      "0xc 55",
      "0xc7 3",
      "0xc6 8",
      "555596 87",
      "0xc6 b",
      "0xc6 0",
      "0xc6 a",
      "0xc6 2",
      "0xc7 4",
      "0xc6 9",
      "0xc6 7",
      "0xc6 1",
      "0xc4 6",
      "0xc5 f",
      "0xc7 0",
      "0xc6 f",
      "0xc7 1",
      "0xc5 3",
      "0xc5 4",
      "0xc3 d",
      "0xc7 2",
      "0xc5 a",
      "0xc5 b",
      "5555a2 cd",
      "5555b 5",
      "555598 05",
      "5555b5 72",
      "0xc4 4",
      "5555 a4",
      "5555b 6",
      "5555a4 c3",
      "5555b6 94",
      "5555c6 cd",
      "0xc4 d",
      "0xc4 3",
      "14 e9",
      "14e9 ea",
      "0xc5 9",
      "0xc5 8",
      "0xc6 e",
      "55558f 52",
      "0xc7 7",
      "0xc5 7",
      "0xc5 2",
      "5555f b3",
      "5555fb3 5",
      "0xc4 0",
      "0xc7 d",
      "0xc5 e",
      "0xc3 f",
      "0xc4 1",
      "0xbf 0",
      "0xc5 1",
      "0xc7 8",
      "0xc5 0",
      "0xc3 b",
      "0xc7 9",
      "0xc4 9",
      "0xc4 f",
      "0xc4 2",
      "0xc4 8",
      "0xc7 a",
      "0xc4 7",
      "0xc6 5",
      "0xc4 a",
      "0xc4 b",
      "5555f c2",
      "5555fc2 c",
      "0xc7 b",
      "0xc3 e",
      "0xc4 e",
      "0xc7 5",
      "0xc8 3",
      "0xc8 6",
      "0xc8 4",
      "0xc7 f",
      "0xc8 0",
      "0xc8 1",
      "0xc8 2",
      "0xc7 e",
      "1 c000",
      "1 1000",
      "0xc4 5",
      "c 1000",
      "1 b000",
      "b 9000",
      "b 1000",
      "1 0000",
      "1 f000",
      "b 6000",
      "c b000",
      "c f000",
      "1 e000",
      "7 0000",
      "7 f000",
      "1 9000",
      "55556 b",
      "1 3000",
      "b c000",
      "0xc6 c",
      "c d000",
      "1 a000",
      "c 4000",
      "1 5000",
      "1 4000",
      "1 d000",
      "b 2000",
      "c 7000",
      "1 6000",
      "b e000",
      "b 5000",
      "7 9000",
      "7 a000",
      "b b000",
      "c 0000",
      "1 2000",
      "c 8000",
      "b f000",
      "c 5000",
      "c e000",
      "c a000",
      "1 7000",
      "7 5000",
      "1 8000",
      "a 3000",
      "e f000",
      "5555a2 a2",
      "b4 000",
      "7 6000",
      "b 8000",
      "7 b000",
      "7 d000",
      "c 6000",
      "c 9000",
      "b 0000",
      "0xc8 7",
      "b a000",
      "c 3000",
      "b 7000",
      "7 3000",
      "7 7000",
      "b 3000",
      "7 4000",
      "7 2000",
      "c c000",
      "c 2000",
      "7 8000",
      "a e000",
      "e b000",
      "7 1000",
      "a 0000",
      "a 7000",
      "e 7000",
      "e 2000",
      "a d000",
      "a 5000",
      "a c000",
      "b d000",
      "00 000",
      "a f000",
      "e 0000",
      "7 e000",
      "7 c000",
      "a 4000",
      "a 6000",
      "a 1000",
      "5 a000",
      "a b000",
      "5 9000",
      "e 6000",
      "d d000",
      "e 8000",
      "55 000",
      "a 2000",
      "e 5000",
      "e e000",
      "d 3000",
      "a 9000",
      "a a000",
      "e c000",
      "0xc5 c",
      "52 000",
      "e d000",
      "d 4000",
      "a 8000",
      "5 0000",
      "5 7000",
      "e 4000",
      "d c000",
      "d 7000",
      "d 2000",
      "3 9000",
      "e 3000",
      "3 6000",
      "e 9000",
      "5 3000",
      "d 8000",
      "f b000",
      "d 5000",
      "d b000",
      "5 b000",
      "d 0000",
      "3 1000",
      "d 9000",
      "e 1000",
      "d 6000",
      "5 c000",
      "e a000",
      "5 6000",
      "3 7000",
      "d e000",
      "ff 000",
      "3 5000",
      "3 c000",
      "5 1000",
      "d 1000",
      "f d000",
      "5 4000",
      "3 a000",
      "3 8000",
      "5 e000",
      "d f000",
      "5 8000",
      "3 4000",
      "3 d000",
      "f c000",
      "3 0000",
      "3 f000",
      "3 3000",
      "f 3000",
      "3 b000",
      "55556b 10",
      "d a000",
      "5 d000",
      "5 f000",
      "3 e000",
      "f 7000",
      "f 5000",
      "3 2000",
      "f e000",
      "f 8000",
      "f a000",
      "f 0000",
      "f 2000",
      "9 e000",
      "f 6000",
      "f 1000",
      "f 4000",
      "0xc8 5",
      "0xc3 c",
      "9 3000",
      "0xc4 c",
      "f 9000",
      "0 e000",
      "0 f000",
      "0 7000",
      "9 1000",
      "8 c000",
      "8 4000",
      "8 e000",
      "8 f000",
      "0 9000",
      "6 8000",
      "8 0000",
      "9 4000",
      "0 8000",
      "9 2000",
      "0 2000",
      "0 a000",
      "9 5000",
      "0 4000",
      "0 1000",
      "6 b000",
      "9 b000",
      "6 e000",
      "9 0000",
      "0 c000",
      "8 1000",
      "0 6000",
      "9 d000",
      "9 7000",
      "3 e",
      "0 d000",
      "8 3000",
      "0xc7 c",
      "5555a2 3e",
      "6 d000",
      "9 f000",
      "8 8000",
      "0 3000",
      "8 b000",
      "8 2000",
      "8 a000",
      "8 9000",
      "6 c000",
      "6 1000",
      "0xc2 3",
      "0 5000",
      "9 8000",
      "6 9000",
      "8 5000",
      "6 a000",
      "9 9000",
      "9 c000",
      "9 6000",
      "0xc1 d",
      "8 6000",
      "0xc2 4",
      "6 f000",
      "8 d000",
      "9 a000",
      "0xc 26",
      "2 2000",
      "8 7000",
      "6 0000",
      "0 b000",
      "6 4000",
      "6 2000",
      "6 3000",
      "6 7000",
      "6 6000",
      "2 5000",
      "6 5000",
      "2 c000",
      "2 d000",
      "2 8000",
      "2 e000",
      "2 1000",
      "2 a000",
      "0xc2 2",
      "0xc2 8",
      "0xc2 1",
      "0xc2 0",
      "0xc1 f",
      "0xc2 7",
      "2 3000",
      "2 f000",
      "2 4000",
      "2 0000",
      "2 9000",
      "2 b000",
      "2 6000",
      "2 7000",
      "4 6000",
      "4 e000",
      "4 0000",
      "4 2000",
      "5555 b4",
      "4 4000",
      "4 d000",
      "4 3000",
      "4 9000",
      "4 8000",
      "4 a000",
      "4 1000",
      "4 5000",
      "4 7000",
      "4 b000",
      "4 f000",
      "0xc1 e",
      "4 c000",
      "0xc2 5",
      "5555 c4",
      "30 c",
      "3 7",
      "5555b 30c",
      "5555c4 37",
      "5555 a",
      "0xc8 8",
      "0xc1 c",
      "4 f",
      "5555 d",
      "0x7ffff5 0",
      "d 4",
      "5555f a",
      "5555fa 5",
      "5555b4 d4",
      "a 0",
      "5555f 9",
      "5555a 26a",
      "5555fa5 0",
      "7 a",
      "5555a2 7a",
      "5555f a4",
      "5555fa4 1",
      "a f",
      "5555f9 af",
      "6 c",
      "2 3",
      "14 c4",
      "a d",
      "555596 23",
      "14c4 ad",
      "d 2",
      "c a",
      "55559 ca",
      "55558f 6c",
      "55559ca 9",
      "c6 4f",
      "c64f 3",
      "5555 8",
      "5555f b",
      "a0 9",
      "e 1",
      "5555 b43",
      "5555b43 2",
      "3 f",
      "5555 e1",
      "0xc0 b4",
      "0xc0 e4",
      "0xc0 42",
      "0xc0 c3",
      "0xc1 42",
      "0xbf a2",
      "0xc0 ff",
      "0xc1 52",
      "0xc0 52",
      "0xc0 fe",
      "0xbf c6",
      "0xc0 c6",
      "0xbf c8",
      "0xc0 58",
      "0xc0 78",
      "0xc0 d9",
      "0xc0 96",
      "0xbf d9",
      "0xc1 55",
      "0xc1 26",
      "0xc1 58",
      "0xc0 c8",
      "0xc0 cd",
      "0xc1 29",
      "0xbf c3",
      "0xbf e4",
      "0xc0 94",
      "0xc0 55",
      "0xc0 26",
      "0xc0 a2",
      "0xbf b4",
      "c 0",
      "0xbf cd",
      "0xc0 29",
      "0xc1 78",
      "0xc1 94",
      "1 d",
      "5555d 8",
      "6 b",
      "10 1",
      "5555c6 4f",
      "5555b4 6b",
      "5555d 101",
      "5555e1 1d",
      "5555d8 3f",
      "0xc1 96",
      "0xc1 a2",
      "0xc1 00",
      "0xc 000",
      "0xc0 30",
      "0xc1 30",
      "5555b c",
      "e 7",
      "6 e",
      "555598 6e",
      "55559 e7",
      "55559e7 c",
      "a b",
      "555596 ab",
      "0xc1 b3",
      "1 8",
      "5555a 5",
      "5555bc 18",
      "5555a5 d2",
      "0xc1 b4",
      "f 9",
      "5555f c4",
      "0xc 29",
      "5555fc4 9",
      "5555fb 52",
      "0xbf 29",
      "0xbf 26",
      "0xc3 94",
      "9 b",
      "0xc3 96",
      "a09 9b",
      "1 f",
      "14 c0",
      "14c0 1f",
      "14 b",
      "f9 5",
      "14b f95",
      "0xbf 30",
      "0xc3 a2",
      "0xc3 a4",
      "0xc3 2",
      "55557 d2",
      "55557d2 0",
      "9 8",
      "94 d",
      "a0 94d",
      "0xc6 96",
      "2 b",
      "0xc6 c2",
      "0xc6 d9",
      "4 7",
      "555596 00",
      "0xc6 c4",
      "55556b 2b",
      "0xc6 e9",
      "0xc6 a2",
      "0xc6 55",
      "5555fb 98",
      "0xc5 e4",
      "0xc6 5f",
      "0xc7 29",
      "0xc6 a4",
      "0xbf 05",
      "0xc5 d9",
      "0xc5 c4",
      "0xc6 58",
      "0xc6 fe",
      "0xc6 b3",
      "0xc6 29",
      "0xc6 87",
      "0xc6 78",
      "0xc6 42",
      "0xc6 72",
      "0xc7 14",
      "0xc6 26",
      "0xc6 cd",
      "0xc6 c8",
      "0xc5 fe",
      "0xc5 ff",
      "0xc4 ff",
      "0xc7 42",
      "0xc7 05",
      "c6 7",
      "0xc6 14",
      "0xc5 ea",
      "0xc5 b4",
      "0xc5 e9",
      "0xc6 94",
      "0xc5 a4",
      "0xc6 52",
      "0xc5 a2",
      "0xc7 00",
      "0xc5 cd",
      "0xc6 30",
      "0xc5 b3",
      "0xc5 72",
      "0xc5 87",
      "0xc7 55",
      "0xc5 c6",
      "0xc5 c2",
      "0xc4 14",
      "0xc7 30",
      "0xc4 a2",
      "0xc5 78",
      "0xc6 10",
      "0xc6 b4",
      "0xc6 c6",
      "0xc5 96",
      "0xc7 10",
      "0xc6 e4",
      "0xc7 26",
      "0xc4 ea",
      "0xc7 78",
      "0xc6 ff",
      "0xc4 d9",
      "0xc4 87",
      "0xc4 b3",
      "0xc4 52",
      "0xc4 a4",
      "0xbf 1",
      "0xc6 ea",
      "0xc6 8f",
      "0xc4 78",
      "0xc4 c6",
      "0xc6 c3",
      "0xc4 cd",
      "0xc3 c3",
      "0xc3 ea",
      "0xc7 b4",
      "0xc4 b4",
      "0xc5 42",
      "0xc7 a2",
      "0xc4 fe",
      "0xc5 c3",
      "0xc7 94",
      "0xc7 c2",
      "0xc3 c6",
      "0xc4 c3",
      "0xc3 ff",
      "0xc3 fe",
      "0xc3 c8",
      "0xc3 c2",
      "0xc7 b3",
      "0xc5 29",
      "0xc3 c4",
      "0xc5 14",
      "0xc5 94",
      "0xc7 a4",
      "0xc3 e4",
      "0xc4 c2",
      "0xc4 58",
      "0xc3 cd",
      "0xc4 e9",
      "0xc3 b3",
      "0xc3 b4",
      "0xc3 e9",
      "0xc6 05",
      "0xc7 c3",
      "0xc7 5f",
      "0xc7 d9",
      "0xc4 26",
      "0xc7 c4",
      "0xc7 cd",
      "0xc7 c8",
      "0xc4 42",
      "0xc5 05",
      "0xc4 29",
      "0xc5 30",
      "0xc5 10",
      "0xc7 8f",
      "0xc7 c6",
      "0xc7 e9",
      "0xc4 55",
      "0xc5 8f",
      "0xc4 94",
      "0xc4 72",
      "0xc5 c8",
      "0xc 7ff",
      "0xc4 c4",
      "0xc7 fe",
      "0xc4 c8",
      "0xc4 96",
      "0xc4 00",
      "0xc3 d9",
      "0xc7 ea",
      "0xc4 10",
      "0xc4 e4",
      "0xc5 26",
      "0xc8 29",
      "0xc4 5f",
      "0xc8 14",
      "0xc8 26",
      "0xc4 30",
      "0xc7 52",
      "0xc8 00",
      "0xc4 8f",
      "55558f 47",
      "0xc6 00",
      "0xc7 58",
      "0xc8 58",
      "0xc7 72",
      "0xc8 42",
      "0xc8 10",
      "0xc8 55",
      "0xc8 52",
      "0xc4 05",
      "0xc7 96",
      "0xc7 87",
      "0xc8 78",
      "0xc8 30",
      "0xc5 00",
      "0xc8 87",
      "c c",
      "55558 d",
      "c 94",
      "b 6",
      "e9 3",
      "55558 c94",
      "55558 e93",
      "55558d b6",
      "5555b4 cc",
      "0xc8 72",
      "0xc8 5f",
      "a09 a2",
      "0xc7 e4",
      "0000 00",
      "0xc8 05",
      "7ff 000",
      "0xc2 29",
      "0xc2 87",
      "0xc1 c3",
      "0xc1 ff",
      "0xc1 d9",
      "0xc1 c8",
      "0xc2 26",
      "0xc1 cd",
      "0xc1 c2",
      "0xc1 e9",
      "0xc2 42",
      "0xc1 fe",
      "0xc2 78",
      "0xc2 72",
      "0xc1 e4",
      "0xc 26a",
      "0xc1 c4",
      "0xc2 58",
      "0xc2 14",
      "0xc2 55",
      "0xc1 c6",
      "0xc2 52",
      "0xc1 ea",
      "5555fa5 b",
      "0xbf 00",
      "0xc2 00",
      "0xc2 10",
      "0xc2 5f",
      "0xc2 8f",
      "0xc2 30",
      "0xc2 05",
      "b a",
      "5555f9 ba",
      "c6 78",
      "a09 c0",
      "55557 6",
      "0xbf 10",
      "5555f d",
      "5555f9 a0",
      "8 2",
      "55558 6",
      "55558 0",
      "c678 9",
      "c67 26",
      "5 0",
      "c67 50",
      "b 2",
      "55557 8",
      "555574 b2",
      "5555d 0",
      "5555 c",
      "c6 8",
      "3 8",
      "55559 f9",
      "55559 38",
      "55559f9 1",
      "5555938 4",
      "87 a",
      "c4 1",
      "5555a 87a",
      "5555d 26a",
      "5555d a0",
      "5555bc e1",
      "5555c c41",
      "5555da0 7",
      "d 0",
      "5555 e",
      "7 d",
      "1 2",
      "c6 9",
      "0xc 98",
      "5 6",
      "55558 3",
      "555576 d4",
      "4 3",
      "55557 c0",
      "555586 43",
      "555580 10",
      "555578 47",
      "555583 47",
      "55557c0 7",
      "0 8",
      "555586 08",
      "d 8",
      "c67 d8",
      "9 9",
      "8 c",
      "f a",
      "9 0",
      "c678 3",
      "0xc 99",
      "55558 8",
      "5 b",
      "555588 5b",
      "0xc 0000",
      "b 7",
      "a e9",
      "ae9 8c",
      "c8 3",
      "58 3",
      "5555a 583",
      "c b",
      "5555b 3f",
      "5555c6 12",
      "5555d 7d",
      "5555d0 cb",
      "5555b3f 5",
      "5555d7d e",
      "555580 b7",
      "9 7",
      "7 f",
      "1 97",
      "7 6c",
      "8 0",
      "5555 d9",
      "5555 c83",
      "5555b 76c",
      "5555d 197",
      "5555e1 7f",
      "5555e 82",
      "5555d9 80",
      "5555c83 2",
      "3 6",
      "5555fd 82",
      "5555fd 56",
      "5555fd 36",
      "e c",
      "555576 b4",
      "555576 90",
      "555578 ec",
      "5555fb4 c",
      "55557 d0",
      "55557d0 e",
      "5555fb fa",
      "14 f",
      "5555e82 8",
      "8 8",
      "5555d0 88",
      "14 c",
      "14f 14c",
      "5555f9 30",
      "c67 f",
      "0 c",
      "c68 9b",
      "c68 6c",
      "c 7",
      "c69 c7",
      "c69 d0",
      "c67f c",
      "c6 82",
      "c682 f",
      "c68 c0",
      "c69 30",
      "2 0",
      "14 c2",
      "5555f9 20",
      "55 c",
      "94 0",
      "5555f 55c",
      "5555f 940",
      "c67 d2",
      "c67 7d",
      "9 e",
      "d9 9e",
      "14 ea",
      "d99e f9",
      "14ea 0c",
      "4 6",
      "0xc 5555",
      "55558f 2b",
      "0xbf 5f",
      "5555f 6",
      "5 7",
      "2 8",
      "14c2 28",
      "5555f 56",
      "5555f 57",
      "5555f56 7",
      "5555f57 3",
      "1 3",
      "5555a2 46",
      "e 8",
      "5555d0 90",
      "5555 ff",
      "12 4",
      "5555e82 c",
      "14f 124",
      "5555c6 e8",
      "555580 cd",
      "5555c6 fa",
      "f b",
      "c67 c6",
      "4 1",
      "5555b4 fa",
      "0xbf 14",
      "d f",
      "5555b4 df",
      "7 6",
      "0 76",
      "1 b",
      "5 d0",
      "f 23",
      "5555 94",
      "5555a 0c",
      "5555a f23",
      "5555d 5d0",
      "1d 6",
      "5555c fb",
      "5555c 1d6",
      "5555e 076",
      "555594 1b",
      "5555a0c e",
      "5555cfb 0",
      "0 2",
      "f 5",
      "5555e e",
      "0 e",
      "0 af",
      "c 13",
      "5555 ea",
      "5555f 30",
      "5555f 46",
      "5555f 0af",
      "3e 5",
      "5555d c13",
      "5555e 3e5",
      "5555f6 e9",
      "5555f6 02",
      "5555ee f5",
      "5555ea 0e",
      "5555f30 b",
      "5555f46 9",
      "87 d",
      "55558 87d",
      "3 3",
      "14c2 33",
      "d9 e",
      "5555f d9e",
      "5555f9 55",
      "c6 5",
      "c6 87",
      "c687 b",
      "5555 fe",
      "6 2",
      "c68 62",
      "0 f",
      "7 5",
      "c67 75",
      "94 4",
      "c6 944",
      "d 7",
      "c68 d7",
      "c68 0f",
      "c67f 2",
      "a 8c",
      "55558 a8c",
      "a0 b",
      "5555 87",
      "8 e",
      "555598 8e",
      "55557 d4",
      "55558 4",
      "55557d4 3",
      "5 1",
      "96 6",
      "10 e",
      "55558 966",
      "55558 10e",
      "555587 41",
      "555584 51",
      "c 1",
      "a 82",
      "55556 99",
      "55556 a82",
      "5555ff 58",
      "5555fe c1",
      "5555699 1",
      "9 8f",
      "98f 41",
      "a 7",
      "3 a0",
      "5555b 3a0",
      "5555c4 a7",
      "0xc 96",
      "5555fa 12",
      "c65 13",
      "a0 b7",
      "a0b7 7",
      "8 6",
      "a0b 05",
      "a0b 86",
      "555596 e1",
      "1 7",
      "e e",
      "98 ee",
      "98ee d",
      "c 5",
      "c65 17",
      "9 2",
      "0xbf 8",
      "c65 00",
      "55556 e8",
      "5555ff c5",
      "55556e8 a",
      "0x7ffff5 1",
      "55558 ab",
      "55558ab a",
      "af 0",
      "d0 c8",
      "13 af0",
      "6 9",
      "00 98",
      "55 56",
      "55556 94",
      "55559 0c",
      "5555fe 69",
      "5556 0098",
      "5555694 8",
      "555590c 9",
      "d 6",
      "5555ff d6",
      "f 6",
      "5555ff f6",
      "12 0",
      "c83 92",
      "7 9b",
      "5555b 72",
      "5555d 12",
      "5555d8 cc",
      "5555c 79b",
      "5555b72 5",
      "5555d12 f",
      "14b fb",
      "14bfb 9",
      "1 6",
      "c8 16",
      "5555ff af",
      "c816 7",
      "9 cc",
      "14 9cc",
      "d0c8 f",
      "555586 18",
      "4 b",
      "c68 4b",
      "92 e",
      "120 92e",
      "5 a4",
      "87 5a4",
      "d0c8 2",
      "55556 af",
      "55556af c",
      "8 d",
      "a09 8d",
      "5555f c8",
      "5555fc8 f",
      "5555fc4 3",
      "d e",
      "9b 2",
      "120 9b2",
      "5555a 3",
      "5 e7",
      "55559 5e7",
      "c f",
      "5555f cf",
      "5555fcf 1",
      "4 00000",
      "9 3",
      "29 5",
      "c8 295",
      "0 93",
      "55559 093",
      "5555a3 de",
      "9 de",
      "55556 9de",
      "7 4",
      "55556 d2",
      "55556d2 d",
      "1 1",
      "9 ca",
      "9 17",
      "94 9ca",
      "917 11",
      "9 26",
      "55557 cc",
      "14c4 74",
      "55558 6b",
      "55558 90",
      "55558 926",
      "555576 c4",
      "555580 94",
      "555580 fb",
      "555578 8f",
      "555583 c5",
      "555587 0f",
      "555584 13",
      "55557cc 9",
      "555586b 1",
      "5555890 2",
      "55559 d",
      "e 0",
      "55558 8c",
      "555588c 5",
      "b 6c",
      "55558 ec",
      "55558 e0",
      "55558 b6c",
      "55558d 18",
      "55558ec 9",
      "55558e0 a",
      "4 e4",
      "c6 4e4",
      "3 b",
      "55559d 3b",
      "5555 963",
      "5555963 c",
      "a 9",
      "5555a5 a9",
      "1 5",
      "9 10",
      "b 15",
      "5555b 910",
      "5555c b15",
      "5555 cd",
      "c6 58",
      "5555d b",
      "5555a a",
      "5555db c5",
      "b c",
      "55559 d2",
      "5555fa b3",
      "5555a3 bc",
      "55559d2 4",
      "c3 2",
      "c69 0",
      "120 c32",
      "b b",
      "e 02",
      "5555 cc",
      "5555b f5",
      "5555b e02",
      "5555a 82",
      "5555d 30c",
      "5555d ad",
      "5555d 38",
      "5555cd 7a",
      "c658 4",
      "5555aa ec",
      "5555cc 9e",
      "5555bf5 3",
      "5555a82 a",
      "5555dad e",
      "5555d38 e",
      "0 6",
      "8 97",
      "55556 f",
      "55556 897",
      "96 5",
      "c687 2",
      "120 965",
      "c690 b",
      "c6 50",
      "c67 a2",
      "55556f 76",
      "c650 4",
      "1 a",
      "55558 5",
      "c68 06",
      "7 1",
      "5555fb 71",
      "a c",
      "0x7ffff 7f",
      "a09 ac",
      "12 0c",
      "120c 7a",
      "1 90",
      "5 3",
      "55557 fe",
      "55557 bb",
      "14e9 ee",
      "555578 53",
      "555583 1a",
      "555585 d4",
      "55557fe 6",
      "55557bb b",
      "b f",
      "5555 b4b",
      "96 c",
      "5555f c68",
      "c6 96c",
      "5555b5 bf",
      "c69 74",
      "13 190",
      "5555b4b 1",
      "13190 c",
      "1 120",
      "7 e",
      "a 1120",
      "26 e",
      "5555a 26e",
      "5555fb 9e",
      "c68 33",
      "c658 e",
      "4 d",
      "f 29",
      "5555b f29",
      "5555a4 4d",
      "5555b6 57",
      "c68 9",
      "55559d c1",
      "5555aa d9",
      "2 ea",
      "3 2ea",
      "7 fe",
      "9 56",
      "a 3",
      "a a",
      "c 956",
      "55556 9b",
      "a09 c8",
      "c94 7e",
      "555588 a3",
      "c690 7",
      "c689 f",
      "7fe 32ea",
      "c956 8",
      "555569b 8",
      "1 9e",
      "2 82",
      "2 f6",
      "4 e",
      "9 e1",
      "b e",
      "e be",
      "55556 fe",
      "55556 a2",
      "55557 9e1",
      "55557 ebe",
      "96 1",
      "555574 97",
      "55559 7",
      "55559 3e",
      "55559 2f6",
      "5555a 0",
      "a0 961",
      "55558 282",
      "555587 c3",
      "93 a",
      "1a 5",
      "555585 4e",
      "aa 93a",
      "19e 06",
      "55556fe 1",
      "55556a2 f",
      "555593e 3"
    ]
  }
}