{
  "version": "1.0",
  "truncation": null,
  "padding": null,
  "added_tokens": [
    {
      "id": 0,
      "content": "[UNK]",
      "single_word": false,
      "lstrip": false,
      "rstrip": false,
      "normalized": false,
      "special": true
    },
    {
      "id": 8866,
      "content": "5f",
      "single_word": false,
      "lstrip": false,
      "rstrip": false,
      "normalized": true,
      "special": false
    },
    {
      "id": 8867,
      "content": "4f",
      "single_word": false,
      "lstrip": false,
      "rstrip": false,
      "normalized": true,
      "special": false
    },
    {
      "id": 8868,
      "content": "49",
      "single_word": false,
      "lstrip": false,
      "rstrip": false,
      "normalized": true,
      "special": false
    },
    {
      "id": 8869,
      "content": "6e",
      "single_word": false,
      "lstrip": false,
      "rstrip": false,
      "normalized": true,
      "special": false
    },
    {
      "id": 8870,
      "content": "83",
      "single_word": false,
      "lstrip": false,
      "rstrip": false,
      "normalized": true,
      "special": false
    },
    {
      "id": 8871,
      "content": "ce",
      "single_word": false,
      "lstrip": false,
      "rstrip": false,
      "normalized": true,
      "special": false
    },
    {
      "id": 8872,
      "content": "4b",
      "single_word": false,
      "lstrip": false,
      "rstrip": false,
      "normalized": true,
      "special": false
    },
    {
      "id": 8873,
      "content": "0b",
      "single_word": false,
      "lstrip": false,
      "rstrip": false,
      "normalized": true,
      "special": false
    },
    {
      "id": 8874,
      "content": "ae",
      "single_word": false,
      "lstrip": false,
      "rstrip": false,
      "normalized": true,
      "special": false
    },
    {
      "id": 8875,
      "content": "02",
      "single_word": false,
      "lstrip": false,
      "rstrip": false,
      "normalized": true,
      "special": false
    },
    {
      "id": 8876,
      "content": "b9",
      "single_word": false,
      "lstrip": false,
      "rstrip": false,
      "normalized": true,
      "special": false
    },
    {
      "id": 8877,
      "content": "de",
      "single_word": false,
      "lstrip": false,
      "rstrip": false,
      "normalized": true,
      "special": false
    },
    {
      "id": 8878,
      "content": "c5",
      "single_word": false,
      "lstrip": false,
      "rstrip": false,
      "normalized": true,
      "special": false
    },
    {
      "id": 8879,
      "content": "8d",
      "single_word": false,
      "lstrip": false,
      "rstrip": false,
      "normalized": true,
      "special": false
    },
    {
      "id": 8880,
      "content": "35",
      "single_word": false,
      "lstrip": false,
      "rstrip": false,
      "normalized": true,
      "special": false
    },
    {
      "id": 8881,
      "content": "8b",
      "single_word": false,
      "lstrip": false,
      "rstrip": false,
      "normalized": true,
      "special": false
    },
    {
      "id": 8882,
      "content": "04",
      "single_word": false,
      "lstrip": false,
      "rstrip": false,
      "normalized": true,
      "special": false
    },
    {
      "id": 8883,
      "content": "5e",
      "single_word": false,
      "lstrip": false,
      "rstrip": false,
      "normalized": true,
      "special": false
    },
    {
      "id": 8884,
      "content": "6f",
      "single_word": false,
      "lstrip": false,
      "rstrip": false,
      "normalized": true,
      "special": false
    },
    {
      "id": 8885,
      "content": "1f",
      "single_word": false,
      "lstrip": false,
      "rstrip": false,
      "normalized": true,
      "special": false
    },
    {
      "id": 8886,
      "content": "0d",
      "single_word": false,
      "lstrip": false,
      "rstrip": false,
      "normalized": true,
      "special": false
    },
    {
      "id": 8887,
      "content": "2b",
      "single_word": false,
      "lstrip": false,
      "rstrip": false,
      "normalized": true,
      "special": false
    },
    {
      "id": 8888,
      "content": "7e",
      "single_word": false,
      "lstrip": false,
      "rstrip": false,
      "normalized": true,
      "special": false
    },
    {
      "id": 8889,
      "content": "d9",
      "single_word": false,
      "lstrip": false,
      "rstrip": false,
      "normalized": true,
      "special": false
    },
    {
      "id": 8890,
      "content": "37",
      "single_word": false,
      "lstrip": false,
      "rstrip": false,
      "normalized": true,
      "special": false
    },
    {
      "id": 8891,
      "content": "07",
      "single_word": false,
      "lstrip": false,
      "rstrip": false,
      "normalized": true,
      "special": false
    },
    {
      "id": 8892,
      "content": "a2",
      "single_word": false,
      "lstrip": false,
      "rstrip": false,
      "normalized": true,
      "special": false
    },
    {
      "id": 8893,
      "content": "ab",
      "single_word": false,
      "lstrip": false,
      "rstrip": false,
      "normalized": true,
      "special": false
    },
    {
      "id": 8894,
      "content": "89",
      "single_word": false,
      "lstrip": false,
      "rstrip": false,
      "normalized": true,
      "special": false
    },
    {
      "id": 8895,
      "content": "05",
      "single_word": false,
      "lstrip": false,
      "rstrip": false,
      "normalized": true,
      "special": false
    },
    {
      "id": 8896,
      "content": "34",
      "single_word": false,
      "lstrip": false,
      "rstrip": false,
      "normalized": true,
      "special": false
    },
    {
      "id": 8897,
      "content": "29",
      "single_word": false,
      "lstrip": false,
      "rstrip": false,
      "normalized": true,
      "special": false
    },
    {
      "id": 8898,
      "content": "af",
      "single_word": false,
      "lstrip": false,
      "rstrip": false,
      "normalized": true,
      "special": false
    },
    {
      "id": 8899,
      "content": "8c",
      "single_word": false,
      "lstrip": false,
      "rstrip": false,
      "normalized": true,
      "special": false
    },
    {
      "id": 8900,
      "content": "3d",
      "single_word": false,
      "lstrip": false,
      "rstrip": false,
      "normalized": true,
      "special": false
    },
    {
      "id": 8901,
      "content": "a9",
      "single_word": false,
      "lstrip": false,
      "rstrip": false,
      "normalized": true,
      "special": false
    },
    {
      "id": 8902,
      "content": "87",
      "single_word": false,
      "lstrip": false,
      "rstrip": false,
      "normalized": true,
      "special": false
    },
    {
      "id": 8903,
      "content": "08",
      "single_word": false,
      "lstrip": false,
      "rstrip": false,
      "normalized": true,
      "special": false
    },
    {
      "id": 8904,
      "content": "79",
      "single_word": false,
      "lstrip": false,
      "rstrip": false,
      "normalized": true,
      "special": false
    },
    {
      "id": 8905,
      "content": "cd",
      "single_word": false,
      "lstrip": false,
      "rstrip": false,
      "normalized": true,
      "special": false
    },
    {
      "id": 8906,
      "content": "1d",
      "single_word": false,
      "lstrip": false,
      "rstrip": false,
      "normalized": true,
      "special": false
    },
    {
      "id": 8907,
      "content": "3e",
      "single_word": false,
      "lstrip": false,
      "rstrip": false,
      "normalized": true,
      "special": false
    },
    {
      "id": 8908,
      "content": "3b",
      "single_word": false,
      "lstrip": false,
      "rstrip": false,
      "normalized": true,
      "special": false
    },
    {
      "id": 8909,
      "content": "9f",
      "single_word": false,
      "lstrip": false,
      "rstrip": false,
      "normalized": true,
      "special": false
    },
    {
      "id": 8910,
      "content": "64",
      "single_word": false,
      "lstrip": false,
      "rstrip": false,
      "normalized": true,
      "special": false
    },
    {
      "id": 8911,
      "content": "8f",
      "single_word": false,
      "lstrip": false,
      "rstrip": false,
      "normalized": true,
      "special": false
    },
    {
      "id": 8912,
      "content": "0c",
      "single_word": false,
      "lstrip": false,
      "rstrip": false,
      "normalized": true,
      "special": false
    },
    {
      "id": 8913,
      "content": "39",
      "single_word": false,
      "lstrip": false,
      "rstrip": false,
      "normalized": true,
      "special": false
    },
    {
      "id": 8914,
      "content": "1e",
      "single_word": false,
      "lstrip": false,
      "rstrip": false,
      "normalized": true,
      "special": false
    },
    {
      "id": 8915,
      "content": "2e",
      "single_word": false,
      "lstrip": false,
      "rstrip": false,
      "normalized": true,
      "special": false
    },
    {
      "id": 8916,
      "content": "1b",
      "single_word": false,
      "lstrip": false,
      "rstrip": false,
      "normalized": true,
      "special": false
    },
    {
      "id": 8917,
      "content": "06",
      "single_word": false,
      "lstrip": false,
      "rstrip": false,
      "normalized": true,
      "special": false
    },
    {
      "id": 8918,
      "content": "69",
      "single_word": false,
      "lstrip": false,
      "rstrip": false,
      "normalized": true,
      "special": false
    },
    {
      "id": 8919,
      "content": "ad",
      "single_word": false,
      "lstrip": false,
      "rstrip": false,
      "normalized": true,
      "special": false
    },
    {
      "id": 8920,
      "content": "85",
      "single_word": false,
      "lstrip": false,
      "rstrip": false,
      "normalized": true,
      "special": false
    },
    {
      "id": 8921,
      "content": "19",
      "single_word": false,
      "lstrip": false,
      "rstrip": false,
      "normalized": true,
      "special": false
    },
    {
      "id": 8922,
      "content": "7b",
      "single_word": false,
      "lstrip": false,
      "rstrip": false,
      "normalized": true,
      "special": false
    },
    {
      "id": 8923,
      "content": "4e",
      "single_word": false,
      "lstrip": false,
      "rstrip": false,
      "normalized": true,
      "special": false
    },
    {
      "id": 8924,
      "content": "09",
      "single_word": false,
      "lstrip": false,
      "rstrip": false,
      "normalized": true,
      "special": false
    },
    {
      "id": 8925,
      "content": "15",
      "single_word": false,
      "lstrip": false,
      "rstrip": false,
      "normalized": true,
      "special": false
    },
    {
      "id": 8926,
      "content": "c9",
      "single_word": false,
      "lstrip": false,
      "rstrip": false,
      "normalized": true,
      "special": false
    },
    {
      "id": 8927,
      "content": "2f",
      "single_word": false,
      "lstrip": false,
      "rstrip": false,
      "normalized": true,
      "special": false
    },
    {
      "id": 8928,
      "content": "67",
      "single_word": false,
      "lstrip": false,
      "rstrip": false,
      "normalized": true,
      "special": false
    },
    {
      "id": 8929,
      "content": "2d",
      "single_word": false,
      "lstrip": false,
      "rstrip": false,
      "normalized": true,
      "special": false
    },
    {
      "id": 8930,
      "content": "7f",
      "single_word": false,
      "lstrip": false,
      "rstrip": false,
      "normalized": true,
      "special": false
    },
    {
      "id": 8931,
      "content": "a5",
      "single_word": false,
      "lstrip": false,
      "rstrip": false,
      "normalized": true,
      "special": false
    },
    {
      "id": 8932,
      "content": "8a",
      "single_word": false,
      "lstrip": false,
      "rstrip": false,
      "normalized": true,
      "special": false
    },
    {
      "id": 8933,
      "content": "59",
      "single_word": false,
      "lstrip": false,
      "rstrip": false,
      "normalized": true,
      "special": false
    },
    {
      "id": 8934,
      "content": "62",
      "single_word": false,
      "lstrip": false,
      "rstrip": false,
      "normalized": true,
      "special": false
    },
    {
      "id": 8935,
      "content": "03",
      "single_word": false,
      "lstrip": false,
      "rstrip": false,
      "normalized": true,
      "special": false
    },
    {
      "id": 8936,
      "content": "0a",
      "single_word": false,
      "lstrip": false,
      "rstrip": false,
      "normalized": true,
      "special": false
    },
    {
      "id": 8937,
      "content": "0f",
      "single_word": false,
      "lstrip": false,
      "rstrip": false,
      "normalized": true,
      "special": false
    },
    {
      "id": 8938,
      "content": "84",
      "single_word": false,
      "lstrip": false,
      "rstrip": false,
      "normalized": true,
      "special": false
    },
    {
      "id": 8939,
      "content": "0e",
      "single_word": false,
      "lstrip": false,
      "rstrip": false,
      "normalized": true,
      "special": false
    },
    {
      "id": 8940,
      "content": "be",
      "single_word": false,
      "lstrip": false,
      "rstrip": false,
      "normalized": true,
      "special": false
    },
    {
      "id": 8941,
      "content": "8e",
      "single_word": false,
      "lstrip": false,
      "rstrip": false,
      "normalized": true,
      "special": false
    },
    {
      "id": 8942,
      "content": "cb",
      "single_word": false,
      "lstrip": false,
      "rstrip": false,
      "normalized": true,
      "special": false
    },
    {
      "id": 8943,
      "content": "82",
      "single_word": false,
      "lstrip": false,
      "rstrip": false,
      "normalized": true,
      "special": false
    },
    {
      "id": 8944,
      "content": "3f",
      "single_word": false,
      "lstrip": false,
      "rstrip": false,
      "normalized": true,
      "special": false
    },
    {
      "id": 8945,
      "content": "65",
      "single_word": false,
      "lstrip": false,
      "rstrip": false,
      "normalized": true,
      "special": false
    },
    {
      "id": 8946,
      "content": "6b",
      "single_word": false,
      "lstrip": false,
      "rstrip": false,
      "normalized": true,
      "special": false
    },
    {
      "id": 8947,
      "content": "df",
      "single_word": false,
      "lstrip": false,
      "rstrip": false,
      "normalized": true,
      "special": false
    }
  ],
  "normalizer": null,
  "pre_tokenizer": {
    "type": "Whitespace"
  },
  "post_processor": null,
  "decoder": null,
  "model": {
    "type": "BPE",
    "dropout": null,
    "unk_token": "[UNK]",
    "continuing_subword_prefix": null,
    "end_of_word_suffix": null,
    "fuse_unk": false,
    "byte_fallback": false,
    "vocab": {
      "[UNK]": 0,
      "0": 1,
      "1": 2,
      "2": 3,
      "3": 4,
      "4": 5,
      "5": 6,
      "6": 7,
      "7": 8,
      "8": 9,
      "9": 10,
      "a": 11,
      "b": 12,
      "c": 13,
      "d": 14,
      "e": 15,
      "f": 16,
      "x": 17,
      "ff": 18,
      "0x": 19,
      "ffff": 20,
      "0x7": 21,
      "ffffffff": 22,
      "0x5": 23,
      "fc": 24,
      "fc1": 25,
      "0x7fc1": 26,
      "10": 27,
      "0x0": 28,
      "bb": 29,
      "bb3": 30,
      "5bb3": 31,
      "0x55bb3": 32,
      "0x3": 33,
      "0x7fc16": 34,
      "0x2": 35,
      "ea": 36,
      "0xffffffff": 37,
      "d2": 38,
      "ffd": 39,
      "0x7ffd": 40,
      "d2ea": 41,
      "0x7ffdd2ea": 42,
      "dc": 43,
      "104": 44,
      "0x7fc16104": 45,
      "0x7fc16104dc": 46,
      "20": 47,
      "0x7fc15": 48,
      "e0": 49,
      "0x2b": 50,
      "0x10": 51,
      "0x7ffdd2ea6": 52,
      "00": 53,
      "0x33": 54,
      "0xffffffffffffffff": 55,
      "80": 56,
      "0x1020": 57,
      "30": 58,
      "0x4": 59,
      "0x7fc15d": 60,
      "ed": 61,
      "0x7fc15ded": 62,
      "0x10202": 63,
      "98": 64,
      "0x7fc16104dc80": 65,
      "ffffff": 66,
      "0xffffffffffffff": 67,
      "0x7fc16104dce0": 68,
      "0xffffffffffffff98": 69,
      "0x50": 70,
      "0x51": 71,
      "0x1": 72,
      "0x7ffdd2ea7": 73,
      "50": 74,
      "40": 75,
      "e30": 76,
      "0x7ffdd2ea6e30": 77,
      "d0": 78,
      "0x55bb37": 79,
      "0x7fc15ded8": 80,
      "d50": 81,
      "0x55bb38": 82,
      "0x55bb39": 83,
      "0x40": 84,
      "0x55bb3a": 85,
      "f0": 86,
      "000": 87,
      "0x55bb3b": 88,
      "c8": 89,
      "0x7fc160": 90,
      "bf": 91,
      "0x55bb36": 92,
      "a0": 93,
      "96": 94,
      "18": 95,
      "0x7ffdd2ea6f": 96,
      "86": 97,
      "9640": 98,
      "0x7fc15ded9640": 99,
      "0x48": 100,
      "0x7ffdd2ea6d50": 101,
      "0x7ffdd2ea6fbf": 102,
      "7d0": 103,
      "230": 104,
      "0x7fc15ded8c": 105,
      "0x7fc160e": 106,
      "418": 107,
      "0x7ffdd2ea7230": 108,
      "c87d0": 109,
      "0x7fc160ec87d0": 110,
      "0x286": 111,
      "0x7ffdd2ea7418": 112,
      "fe0": 113,
      "e1": 114,
      "ff0": 115,
      "0x10206": 116,
      "0x7fc15ded8d50": 117,
      "0x7fc15ded8cf0": 118,
      "70": 119,
      "a010": 120,
      "ff1": 121,
      "0x7fc15e": 122,
      "b8": 123,
      "0x7fc15deda010": 124,
      "0x20": 125,
      "90": 126,
      "fd": 127,
      "c0": 128,
      "001": 129,
      "fd0": 130,
      "fc0": 131,
      "fe1": 132,
      "b0": 133,
      "60": 134,
      "fd1": 135,
      "0x55bb35": 136,
      "0x7fc15f": 137,
      "13": 138,
      "0x9": 139,
      "68": 140,
      "17": 141,
      "eb": 142,
      "ea0": 143,
      "46": 144,
      "0x30": 145,
      "3b8": 146,
      "0x7ffdd2ea73b8": 147,
      "0x7ffdd2ea6ea0": 148,
      "21": 149,
      "0x7fc1613": 150,
      "0x31": 151,
      "7fe0": 152,
      "7040": 153,
      "0x55bb3c": 154,
      "0x8": 155,
      "0x21": 156,
      "568": 157,
      "0x55bb3580": 158,
      "b7040": 159,
      "0x7ffdd2ea7568": 160,
      "ebc8": 161,
      "0x7fc1613b7040": 162,
      "0x246": 163,
      "0x55bb3580ebc8": 164,
      "0x55bb357fe0": 165,
      "0x55bb357fe017": 166,
      "0x22": 167,
      "0x1021": 168,
      "0x7fc15ded8cb8": 169,
      "0x10212": 170,
      "e8": 171,
      "0x2c": 172,
      "f8": 173,
      "28": 174,
      "38": 175,
      "d28": 176,
      "78": 177,
      "0x7fc15ded8d28": 178,
      "01": 179,
      "0x7fc15e0": 180,
      "0x90": 181,
      "0x91": 182,
      "a8": 183,
      "48": 184,
      "58": 185,
      "d8": 186,
      "0x7fc15e1": 187,
      "ff8": 188,
      "f1": 189,
      "0x80": 190,
      "0x6": 191,
      "0x55bb367": 192,
      "0x2d": 193,
      "0x55bb368": 194,
      "0x55bb387": 195,
      "0x55bb375": 196,
      "0x7fc15e2": 197,
      "5000": 198,
      "fa": 199,
      "9000": 200,
      "0x55bb380": 201,
      "1000": 202,
      "0x55bb36c": 203,
      "0x55bb370": 204,
      "91": 205,
      "0x55bb385": 206,
      "0x55bb37a": 207,
      "0x55bb377": 208,
      "0x17": 209,
      "0x55bb378": 210,
      "0x55bb37c": 211,
      "4000": 212,
      "0x55bb373": 213,
      "9c": 214,
      "7000": 215,
      "0x55bb376": 216,
      "ec": 217,
      "d1": 218,
      "0xc": 219,
      "0x55bb38a": 220,
      "e6": 221,
      "3000": 222,
      "0x55bb388": 223,
      "9a": 224,
      "0x55bb390": 225,
      "0x55bb386": 226,
      "0x55bb398": 227,
      "0x55bb372": 228,
      "0x1c": 229,
      "e000": 230,
      "0x55bb382": 231,
      "0x55bb393": 232,
      "2000": 233,
      "0xa": 234,
      "0x14": 235,
      "d000": 236,
      "0x18": 237,
      "0x19": 238,
      "0x55bb374": 239,
      "94": 240,
      "0x1d": 241,
      "0x13": 242,
      "0x16": 243,
      "0x55bb36a": 244,
      "b000": 245,
      "0x55bb383": 246,
      "0x55bb38c": 247,
      "0x55bb396": 248,
      "f6": 249,
      "0x1a": 250,
      "0x55bb395": 251,
      "0x55bb381": 252,
      "0x55bb39a": 253,
      "0xd": 254,
      "0x15": 255,
      "0x55bb37b": 256,
      "0x55bb397": 257,
      "0x55bb3a0": 258,
      "f000": 259,
      "0x55bb37d": 260,
      "93": 261,
      "0x55bb39c": 262,
      "f4": 263,
      "0000": 264,
      "e4": 265,
      "0x55bb391": 266,
      "0x55bb3a5": 267,
      "e3": 268,
      "fb": 269,
      "0x55bb36d": 270,
      "95": 271,
      "f7": 272,
      "0x2e": 273,
      "f3": 274,
      "0x55bb371": 275,
      "f5": 276,
      "a000": 277,
      "0x55bb384": 278,
      "0x55bb3a3": 279,
      "0x55bb3a8": 280,
      "dc0": 281,
      "0x55bb392": 282,
      "0x55bb394": 283,
      "0x55bb3a6": 284,
      "0x55bb3a4": 285,
      "e5": 286,
      "0x55bb3bb": 287,
      "0x55bb3b0": 288,
      "c1": 289,
      "c000": 290,
      "0x55bb38b": 291,
      "0x7fc15e3": 292,
      "0x55bb38d": 293,
      "0x55bb3b8": 294,
      "e2": 295,
      "0x1000": 296,
      "0x206": 297,
      "0x55bb3a1": 298,
      "0x55bb3c0": 299,
      "0x55bb3b3": 300,
      "0x12": 301,
      "0x55bb3b6": 302,
      "0x55bb3a2": 303,
      "e7": 304,
      "0x55bb3b7": 305,
      "0x55bb39b": 306,
      "0x55bb3a7": 307,
      "0x55bb3b5": 308,
      "0x2f": 309,
      "0x55bb3ba": 310,
      "92": 311,
      "97": 312,
      "0x11": 313,
      "0x55bb36b": 314,
      "0xe": 315,
      "f2": 316,
      "0x1e": 317,
      "0x55bb3c2": 318,
      "0x55bb39d": 319,
      "0x55bb3aa": 320,
      "9b": 321,
      "6000": 322,
      "0x55bb3bc": 323,
      "0x55bb3b2": 324,
      "9d": 325,
      "0x55bb3ac": 326,
      "0x55bb3b4": 327,
      "0x55bb3c1": 328,
      "f08": 329,
      "0x55bb3ad": 330,
      "0x55bb3b1": 331,
      "fb0": 332,
      "0xb": 333,
      "0x55bb3ab": 334,
      "0xff": 335,
      "0x55bb3c3": 336,
      "e9": 337,
      "0x55bb3bd": 338,
      "0x1ff": 339,
      "0x7ffdd2ea6f08": 340,
      "0x7ffdd2ea6f20": 341,
      "eff0": 342,
      "99": 343,
      "0x1b": 344,
      "11": 345,
      "0x7ffdd2ea6dc0": 346,
      "0x70": 347,
      "53": 348,
      "1010": 349,
      "6c": 350,
      "008": 351,
      "7010": 352,
      "f9": 353,
      "fff0": 354,
      "4010": 355,
      "41": 356,
      "6a": 357,
      "55": 358,
      "fa0": 359,
      "9010": 360,
      "e010": 361,
      "63": 362,
      "5010": 363,
      "8010": 364,
      "9ff0": 365,
      "b2": 366,
      "5a": 367,
      "7ff0": 368,
      "f010": 369,
      "44": 370,
      "2010": 371,
      "5c": 372,
      "b010": 373,
      "ba": 374,
      "5ff0": 375,
      "b6": 376,
      "f001": 377,
      "dff0": 378,
      "efe0": 379,
      "6010": 380,
      "e001": 381,
      "43": 382,
      "3010": 383,
      "bfe0": 384,
      "42": 385,
      "8020": 386,
      "a3": 387,
      "ffe0": 388,
      "56": 389,
      "d010": 390,
      "c010": 391,
      "52": 392,
      "73": 393,
      "da": 394,
      "bc": 395,
      "d6": 396,
      "ee": 397,
      "4020": 398,
      "9020": 399,
      "4c": 400,
      "4a": 401,
      "0x7fc15e8": 402,
      "2020": 403,
      "0x7ffdd2ea6f00": 404,
      "71": 405,
      "4ff0": 406,
      "f020": 407,
      "7a": 408,
      "ce0": 409,
      "0x7fc15ed": 410,
      "7020": 411,
      "b1": 412,
      "f80": 413,
      "ffc0": 414,
      "0xbf": 415,
      "0x1bf": 416,
      "0x7fc15f8": 417,
      "72": 418,
      "ca": 419,
      "fe": 420,
      "33": 421,
      "bff0": 422,
      "5020": 423,
      "9e": 424,
      "76": 425,
      "f040": 426,
      "0x7fc15fc": 427,
      "0x7fc15ea": 428,
      "b3": 429,
      "1020": 430,
      "e020": 431,
      "9040": 432,
      "9fe0": 433,
      "dfe0": 434,
      "c020": 435,
      "5fe0": 436,
      "aa": 437,
      "8030": 438,
      "23": 439,
      "7c": 440,
      "1001": 441,
      "4030": 442,
      "5030": 443,
      "f030": 444,
      "d3": 445,
      "0x55bb366": 446,
      "ffd0": 447,
      "3020": 448,
      "bfd0": 449,
      "0x7fc15ff": 450,
      "0x7fc15e6": 451,
      "6020": 452,
      "54": 453,
      "a020": 454,
      "7030": 455,
      "dfd0": 456,
      "200": 457,
      "d020": 458,
      "cc": 459,
      "d20": 460,
      "1040": 461,
      "2a": 462,
      "0010": 463,
      "8040": 464,
      "b020": 465,
      "a030": 466,
      "b040": 467,
      "0x7fc15f0": 468,
      "f90": 469,
      "6040": 470,
      "efd0": 471,
      "2030": 472,
      "4040": 473,
      "6030": 474,
      "26": 475,
      "e030": 476,
      "c040": 477,
      "74": 478,
      "960": 479,
      "9fd0": 480,
      "5040": 481,
      "3030": 482,
      "2c": 483,
      "100": 484,
      "2040": 485,
      "0x7fc15f1": 486,
      "75": 487,
      "61": 488,
      "1030": 489,
      "ffd1": 490,
      "d040": 491,
      "ed0": 492,
      "c030": 493,
      "dfc0": 494,
      "51": 495,
      "b030": 496,
      "b4": 497,
      "ef": 498,
      "a040": 499,
      "2ff0": 500,
      "0020": 501,
      "9030": 502,
      "ac": 503,
      "d7": 504,
      "0x7fc15fd": 505,
      "a1": 506,
      "e040": 507,
      "3040": 508,
      "0x55bb379": 509,
      "31": 510,
      "d4": 511,
      "9fc0": 512,
      "77": 513,
      "5fd0": 514,
      "e00": 515,
      "0x7fc15df": 516,
      "a6": 517,
      "0040": 518,
      "5b": 519,
      "fc8": 520,
      "0x7fc15ec": 521,
      "d030": 522,
      "bb0": 523,
      "0030": 524,
      "efc0": 525,
      "0x7fc15f3": 526,
      "0x32": 527,
      "0x7ffdd2ea6ce0": 528,
      "0xaff1": 529,
      "5fc0": 530,
      "bfc0": 531,
      "0xfff1": 532,
      "fe8": 533,
      "57": 534,
      "66": 535,
      "2fe0": 536,
      "0x55bb37e": 537,
      "fd8": 538,
      "0x55bb399": 539,
      "3c": 540,
      "47": 541,
      "fb8": 542,
      "0x17ff1": 543,
      "0x55bb389": 544,
      "0x4ff1": 545,
      "0x8ff1": 546,
      "0xcff1": 547,
      "2fc0": 548,
      "0x1cff1": 549,
      "0xdff1": 550,
      "0x7ff1": 551,
      "0x55bb369": 552,
      "0x18ff1": 553,
      "0x19ff1": 554,
      "0x1fff1": 555,
      "24": 556,
      "3a": 557,
      "0x2ff1": 558,
      "0x9ff1": 559,
      "0x16001": 560,
      "0x10001": 561,
      "0xc001": 562,
      "0x1c001": 563,
      "0x13001": 564,
      "0x11ff1": 565,
      "0xf001": 566,
      "0x14001": 567,
      "2fd0": 568,
      "0x7fc15e4": 569,
      "0x6001": 570,
      "0x12ff1": 571,
      "36": 572,
      "0x1aff1": 573,
      "c4": 574,
      "0x10ff1": 575,
      "0x16ff1": 576,
      "0x15ff1": 577,
      "f30": 578,
      "0001": 579,
      "0x17001": 580,
      "0x3fe1": 581,
      "0x1ff1": 582,
      "0x3001": 583,
      "0x1e001": 584,
      "0x6ff1": 585,
      "0xa001": 586,
      "0x55bb36e": 587,
      "860": 588,
      "0x1dff1": 589,
      "0xb001": 590,
      "0x1bff1": 591,
      "0x7fc1611": 592,
      "0x9001": 593,
      "0x14ff1": 594,
      "0x1d001": 595,
      "0xbff1": 596,
      "0x7001": 597,
      "0x7fc1600": 598,
      "0x2001": 599,
      "0x19001": 600,
      "0x20001": 601,
      "0xdfe1": 602,
      "0xff1": 603,
      "0x4001": 604,
      "0x7fc15f2": 605,
      "0x18001": 606,
      "9a0": 607,
      "a4": 608,
      "c3": 609,
      "0xb0": 610,
      "0x1f001": 611,
      "0x1b001": 612,
      "0x1fe1": 613,
      "0x11fe1": 614,
      "b7": 615,
      "dd": 616,
      "0x7fc15f6": 617,
      "0x8001": 618,
      "0x14fe1": 619,
      "0x1eff1": 620,
      "0xeff1": 621,
      "0xe001": 622,
      "0x1001": 623,
      "2001": 624,
      "aff0": 625,
      "0x6fe1": 626,
      "d30": 627,
      "0x5ff1": 628,
      "0x12001": 629,
      "0x15fe1": 630,
      "f20": 631,
      "0x20ff1": 632,
      "0x3ff1": 633,
      "0x7fc15fa": 634,
      "0x55bb38e": 635,
      "0x7fc15f4": 636,
      "0x18fe1": 637,
      "0x5001": 638,
      "0x13ff1": 639,
      "0x15001": 640,
      "0xfe1": 641,
      "0x10fe1": 642,
      "0xcfe1": 643,
      "0x1a001": 644,
      "0xd001": 645,
      "d90": 646,
      "0x1afe1": 647,
      "88": 648,
      "f70": 649,
      "0x13fd1": 650,
      "7fd0": 651,
      "0x1dfe1": 652,
      "0x12fe1": 653,
      "0x1bfe1": 654,
      "25": 655,
      "e80": 656,
      "0x7fe1": 657,
      "0x5fc1": 658,
      "0x11001": 659,
      "0x1efd1": 660,
      "f91": 661,
      "e20": 662,
      "f00": 663,
      "0xfc1": 664,
      "0x2fe1": 665,
      "0x7fc16137": 666,
      "0x19fc1": 667,
      "fb1": 668,
      "ee0": 669,
      "0x7fc15e7": 670,
      "0xcfd1": 671,
      "0x1cfe1": 672,
      "0x16fc1": 673,
      "0x1afc1": 674,
      "0xbfe1": 675,
      "4fe0": 676,
      "e90": 677,
      "0x4fe1": 678,
      "0x4fd1": 679,
      "0x55bb3b9": 680,
      "0x9fe1": 681,
      "0x1ffc1": 682,
      "5d": 683,
      "c6": 684,
      "0xafe1": 685,
      "0x1efe1": 686,
      "f60": 687,
      "0x5fe1": 688,
      "0x8fe1": 689,
      "1a": 690,
      "0x55bb36f": 691,
      "0x20fe1": 692,
      "0x1dfd1": 693,
      "0xefe1": 694,
      "fa1": 695,
      "0x17fd1": 696,
      "0x1cfc1": 697,
      "0xefc1": 698,
      "0xffe1": 699,
      "1c": 700,
      "0x3fd1": 701,
      "0x19fd1": 702,
      "0x13fc1": 703,
      "0x16fe1": 704,
      "0xefd1": 705,
      "9b0": 706,
      "f10": 707,
      "0x10fd1": 708,
      "0x8fd1": 709,
      "e70": 710,
      "0x9fc1": 711,
      "0x13fe1": 712,
      "7fc0": 713,
      "8000": 714,
      "990": 715,
      "d00": 716,
      "0x14fd1": 717,
      "0x1efc1": 718,
      "0xbfd1": 719,
      "e40": 720,
      "0x5fd1": 721,
      "0x10fc1": 722,
      "b10": 723,
      "4fc0": 724,
      "940": 725,
      "0x20fd1": 726,
      "0x1bfd1": 727,
      "0x11fc1": 728,
      "0x1ffe1": 729,
      "5a0": 730,
      "0x21001": 731,
      "0x19fe1": 732,
      "db": 733,
      "e50": 734,
      "f50": 735,
      "0xfd1": 736,
      "0x6fd1": 737,
      "0x2fd1": 738,
      "0x1ffd1": 739,
      "0x7fc1608": 740,
      "0x17fe1": 741,
      "0x14fc1": 742,
      "3ff0": 743,
      "0x3fc1": 744,
      "0x10216": 745,
      "0x18fd1": 746,
      "0x6fc1": 747,
      "0xafc1": 748,
      "0x12fc1": 749,
      "0xffc1": 750,
      "9f0": 751,
      "d5": 752,
      "0x2fc1": 753,
      "0x1fd1": 754,
      "0x20fc1": 755,
      "0x8fc1": 756,
      "0x17fc1": 757,
      "980": 758,
      "930": 759,
      "b5": 760,
      "27": 761,
      "2f0": 762,
      "920": 763,
      "0x7fc15f7": 764,
      "0x9fd1": 765,
      "f81": 766,
      "0x11fd1": 767,
      "0xbfc1": 768,
      "250": 769,
      "f40": 770,
      "0x1dfc1": 771,
      "0x16fd1": 772,
      "cfe0": 773,
      "ef0": 774,
      "0x4fc1": 775,
      "0x55bb363": 776,
      "0x7fc15f5": 777,
      "0xdfd1": 778,
      "e60": 779,
      "0x15fc1": 780,
      "0x12fd1": 781,
      "0x1fc1": 782,
      "0x7ffdd2ea71": 783,
      "0x18fc1": 784,
      "0x1afd1": 785,
      "0x1bfc1": 786,
      "2e0": 787,
      "14": 788,
      "9c0": 789,
      "0x55bb39e": 790,
      "0x7fc15e5": 791,
      "0x15fd1": 792,
      "0x55bb37f": 793,
      "1ff0": 794,
      "970": 795,
      "b90": 796,
      "cff0": 797,
      "0xcfc1": 798,
      "0x1cfd1": 799,
      "0xafd1": 800,
      "16": 801,
      "0x7fd1": 802,
      "0x55bb3a9": 803,
      "0xdfc1": 804,
      "bc0": 805,
      "0x7fc1602": 806,
      "500": 807,
      "de0": 808,
      "df0": 809,
      "e10": 810,
      "0xffd1": 811,
      "0x34": 812,
      "c7": 813,
      "d60": 814,
      "eb0": 815,
      "d70": 816,
      "9e0": 817,
      "0x55bb3ae": 818,
      "0x7fc1603": 819,
      "afd0": 820,
      "b00": 821,
      "d10": 822,
      "dd0": 823,
      "0x7fc15de": 824,
      "270": 825,
      "4fd0": 826,
      "900": 827,
      "0x55bb3be": 828,
      "ba0": 829,
      "410": 830,
      "b70": 831,
      "6ff0": 832,
      "9d0": 833,
      "cc0": 834,
      "0x7fc160a": 835,
      "0x55bb362": 836,
      "bd0": 837,
      "d80": 838,
      "0x7fc1601": 839,
      "7a0": 840,
      "950": 841,
      "0x55bb38f": 842,
      "0x7fc1606": 843,
      "0x7fc15eb": 844,
      "210": 845,
      "330": 846,
      "5b0": 847,
      "180": 848,
      "510": 849,
      "db0": 850,
      "3fe0": 851,
      "730": 852,
      "afc0": 853,
      "b20": 854,
      "4f0": 855,
      "520": 856,
      "b30": 857,
      "b40": 858,
      "610": 859,
      "ad0": 860,
      "afe0": 861,
      "550": 862,
      "910": 863,
      "0x55bb3bf": 864,
      "3fd0": 865,
      "ec0": 866,
      "2b0": 867,
      "320": 868,
      "560": 869,
      "be0": 870,
      "b50": 871,
      "0x7fc1605": 872,
      "0x55bb364": 873,
      "da0": 874,
      "0x7fc15e9": 875,
      "22": 876,
      "6fe0": 877,
      "b80": 878,
      "0x55bb39f": 879,
      "4e0": 880,
      "6fd0": 881,
      "260": 882,
      "1fe0": 883,
      "2a0": 884,
      "6a0": 885,
      "b60": 886,
      "3f0": 887,
      "400": 888,
      "0x7fc15df4": 889,
      "0x55bb37e6": 890,
      "1fd0": 891,
      "490": 892,
      "5c0": 893,
      "6e0": 894,
      "cfc0": 895,
      "5f0": 896,
      "a7": 897,
      "a00": 898,
      "cfd0": 899,
      "0x55bb36ec": 900,
      "d88": 901,
      "0x55bb3915": 902,
      "43000": 903,
      "cd0": 904,
      "0x55bb3778": 905,
      "0x7fc160c": 906,
      "280": 907,
      "290": 908,
      "4b0": 909,
      "750": 910,
      "0x7fc15fb": 911,
      "620": 912,
      "710": 913,
      "bf0": 914,
      "c60": 915,
      "0x55bb3b18": 916,
      "b640": 917,
      "3fc0": 918,
      "420": 919,
      "7f0": 920,
      "c20": 921,
      "0x55bb3860": 922,
      "0x55bb36d2": 923,
      "2c0": 924,
      "720": 925,
      "700": 926,
      "9ff8": 927,
      "d40": 928,
      "0x7fc15e30": 929,
      "0x7fc15dfa": 930,
      "0x55bb3af": 931,
      "0x55bb36dc": 932,
      "0x55bb36e6": 933,
      "0x7fc16136": 934,
      "0x55bb3851": 935,
      "1fc0": 936,
      "540": 937,
      "5d0": 938,
      "a60": 939,
      "c90": 940,
      "0x55bb3a28": 941,
      "0x55bb3888": 942,
      "4a0": 943,
      "590": 944,
      "770": 945,
      "0x7fc15df2": 946,
      "0x55bb379a": 947,
      "0x55bb3886": 948,
      "0x55bb3686": 949,
      "0x55bb36e8": 950,
      "0x7fc15e20": 951,
      "0x7fc15e18": 952,
      "240": 953,
      "310": 954,
      "3a0": 955,
      "430": 956,
      "4d0": 957,
      "0x55bb37fc": 958,
      "0x55bb38bb": 959,
      "28000": 960,
      "0x55bb3684": 961,
      "e6000": 962,
      "0x55bb3a5c": 963,
      "1d0": 964,
      "fc000": 965,
      "98000": 966,
      "0x55bb39e2": 967,
      "2d0": 968,
      "0x7ffdd2ea70": 969,
      "0x55bb37dc": 970,
      "0x55bb3848": 971,
      "0x7fc160d": 972,
      "0x55bb36f5": 973,
      "0x55bb366c": 974,
      "0x7ffdd2ea71f0": 975,
      "530": 976,
      "570": 977,
      "aa0": 978,
      "0x7fc15df3": 979,
      "0x55bb3798": 980,
      "0x55bb3750": 981,
      "0x55bb3713": 982,
      "0x7fc1607": 983,
      "0x7fc16137b640": 984,
      "160": 985,
      "c10": 986,
      "c80": 987,
      "fff8": 988,
      "0x35": 989,
      "0x55bb3720": 990,
      "0x55bb3786": 991,
      "0x55bb3770": 992,
      "0x55bb37b0": 993,
      "0x55bb3748": 994,
      "0x7fc15e38": 995,
      "0x55bb3b71": 996,
      "580": 997,
      "630": 998,
      "ae0": 999,
      "0x7fc15df1": 1000,
      "0x55bb37d2": 1001,
      "0x55bb3730": 1002,
      "0x55bb37f6": 1003,
      "0x55bb3846": 1004,
      "0x55bb39c0": 1005,
      "0x55bb399c": 1006,
      "0x7fc15ee": 1007,
      "f88": 1008,
      "0x55bb3688": 1009,
      "120": 1010,
      "480": 1011,
      "440": 1012,
      "4c0": 1013,
      "6fc0": 1014,
      "af0": 1015,
      "dc000": 1016,
      "0x7fc15df7": 1017,
      "0x55bb3780": 1018,
      "0x55bb3760": 1019,
      "0x55bb37f7": 1020,
      "0x55bb38fa": 1021,
      "0x55bb38e3": 1022,
      "0x55bb3993": 1023,
      "0x55bb3a98": 1024,
      "0x55bb3670": 1025,
      "0x55bb3678": 1026,
      "0x55bb36fa": 1027,
      "0x7fc15fe": 1028,
      "0x55bb36cc": 1029,
      "9c000": 1030,
      "12": 1031,
      "680": 1032,
      "740": 1033,
      "bff8": 1034,
      "c70": 1035,
      "0x7fc15df5": 1036,
      "ed000": 1037,
      "0x55bb37e5": 1038,
      "0x55bb38e1": 1039,
      "0x55bb3897": 1040,
      "0x55bb3950": 1041,
      "0x55bb3994": 1042,
      "0x55bb3995": 1043,
      "0x55bb3680": 1044,
      "0x55bb3690": 1045,
      "0x55bb36e4": 1046,
      "0x7fc15e10": 1047,
      "0x7fc15e28": 1048,
      "3c0": 1049,
      "760": 1050,
      "a70": 1051,
      "ac0": 1052,
      "ff000": 1053,
      "0x102": 1054,
      "0x7fc15df6": 1055,
      "0x55bb3740": 1056,
      "0x55bb3746": 1057,
      "0x55bb3728": 1058,
      "0x55bb3791": 1059,
      "0x55bb37ec": 1060,
      "0x55bb3794": 1061,
      "0x55bb3880": 1062,
      "0x55bb3818": 1063,
      "0x55bb3828": 1064,
      "0x55bb38f6": 1065,
      "0x55bb38f7": 1066,
      "0x55bb38f3": 1067,
      "0x55bb3900": 1068,
      "0x55bb3980": 1069,
      "0x55bb36f6": 1070,
      "0x55bb366a": 1071,
      "0x7fc15f9": 1072,
      "0x55bb3c17": 1073,
      "0x55bb39c3": 1074,
      "6b0": 1075,
      "eff8": 1076,
      "0x55bb37ea": 1077,
      "0x55bb3700": 1078,
      "0x55bb37e1": 1079,
      "0x55bb3768": 1080,
      "0x55bb3793": 1081,
      "0x55bb37f4": 1082,
      "0x55bb37e4": 1083,
      "0x55bb389c": 1084,
      "0x55bb3893": 1085,
      "0x55bb3895": 1086,
      "0x55bb36ed": 1087,
      "0x55bb36f7": 1088,
      "17000": 1089,
      "eb000": 1090,
      "0x55bb3c28": 1091,
      "0x55bb3808": 1092,
      "0x55bb3951": 1093,
      "220": 1094,
      "450": 1095,
      "470": 1096,
      "91000": 1097,
      "0x7fc15dfc": 1098,
      "988": 1099,
      "0x55bb37a8": 1100,
      "0x55bb3758": 1101,
      "0x55bb379b": 1102,
      "0x55bb38d2": 1103,
      "0x55bb3800": 1104,
      "0x55bb3891": 1105,
      "0x55bb38e4": 1106,
      "0x55bb38e2": 1107,
      "0x55bb39bb": 1108,
      "0x55bb3913": 1109,
      "bf000": 1110,
      "0x55bb36eb": 1111,
      "968": 1112,
      "ec000": 1113,
      "0x55bb382c": 1114,
      "0x55bb381a": 1115,
      "150": 1116,
      "300": 1117,
      "460": 1118,
      "6f0": 1119,
      "9b000": 1120,
      "b5000": 1121,
      "c2": 1122,
      "c40": 1123,
      "e0000": 1124,
      "0x55bb3710": 1125,
      "0x55bb379c": 1126,
      "0x55bb37e7": 1127,
      "0x55bb38d0": 1128,
      "0x55bb38a0": 1129,
      "0x55bb3813": 1130,
      "0x55bb39b8": 1131,
      "0x55bb39eb": 1132,
      "0x55bb3a17": 1133,
      "0x55bb3b95": 1134,
      "a88": 1135,
      "48000": 1136,
      "0x55bb3674": 1137,
      "0x55bb3706": 1138,
      "0x55bb37b6": 1139,
      "0x55bb3943": 1140,
      "140": 1141,
      "32": 1142,
      "340": 1143,
      "650": 1144,
      "690": 1145,
      "7d000": 1146,
      "a20": 1147,
      "0x7fc15dfd": 1148,
      "0x55bb37c8": 1149,
      "0x55bb3718": 1150,
      "0x55bb37c0": 1151,
      "0x55bb3820": 1152,
      "0x55bb38ed": 1153,
      "0x55bb3840": 1154,
      "0x55bb3870": 1155,
      "0x55bb3894": 1156,
      "0x55bb38f4": 1157,
      "0x55bb3918": 1158,
      "0x55bb3990": 1159,
      "0x55bb3968": 1160,
      "0x55bb39f8": 1161,
      "0x55bb36f8": 1162,
      "0x55bb36e3": 1163,
      "0x55bb36f2": 1164,
      "e88": 1165,
      "0x7fc15e08": 1166,
      "0x55bb3672": 1167,
      "0x55bb3803": 1168,
      "0x55bb3788": 1169,
      "0x55bb393c": 1170,
      "0x55bb37ba": 1171,
      "0x55bb3a08": 1172,
      "34000": 1173,
      "5d000": 1174,
      "640": 1175,
      "ee000": 1176,
      "f3000": 1177,
      "0x7fc15df8": 1178,
      "0x55bb37bb": 1179,
      "0x55bb37f0": 1180,
      "0x55bb37bf": 1181,
      "0x55bb3738": 1182,
      "0x55bb37f5": 1183,
      "0x55bb38b8": 1184,
      "0x55bb3817": 1185,
      "0x55bb39d2": 1186,
      "0x55bb3948": 1187,
      "0x55bb3b28": 1188,
      "0x55bb36ea": 1189,
      "0x55bb36e1": 1190,
      "0x55bb36c0": 1191,
      "0x55bb36f1": 1192,
      "0x7fc15e21": 1193,
      "0x7fc15e00": 1194,
      "0x55bb373c": 1195,
      "0x55bb38ac": 1196,
      "9a000": 1197,
      "0x55bb386c": 1198,
      "0x55bb3726": 1199,
      "3e0": 1200,
      "5e8": 1201,
      "8ff0": 1202,
      "bc000": 1203,
      "dd000": 1204,
      "bb000": 1205,
      "0x7fc15df0": 1206,
      "0x55bb37e0": 1207,
      "0x55bb37d0": 1208,
      "0x55bb37b8": 1209,
      "0x55bb3790": 1210,
      "0x55bb38ea": 1211,
      "0x55bb38dc": 1212,
      "0x55bb3890": 1213,
      "0x55bb38b0": 1214,
      "0x55bb39d0": 1215,
      "0x55bb39e3": 1216,
      "0x55bb3ad0": 1217,
      "0x55bb3ac0": 1218,
      "0x55bb3a48": 1219,
      "0x55bb36fc": 1220,
      "0x55bb3698": 1221,
      "0x55bb36c8": 1222,
      "0x55bb36f4": 1223,
      "0x7fc15e06": 1224,
      "0x55bb3872": 1225,
      "fa000": 1226,
      "0x55bb377c": 1227,
      "0x55bb3988": 1228,
      "6d": 1229,
      "600": 1230,
      "c50": 1231,
      "10000": 1232,
      "0x7fc15dff": 1233,
      "0x55bb37a0": 1234,
      "0x55bb3717": 1235,
      "0x55bb38ff": 1236,
      "0x55bb39ff": 1237,
      "0x55bb3998": 1238,
      "0x55bb39ec": 1239,
      "0x55bb39f6": 1240,
      "0x55bb3a86": 1241,
      "0x7fc1604": 1242,
      "0x55bb36b0": 1243,
      "0x55bb3693": 1244,
      "0x55bb36e5": 1245,
      "96000": 1246,
      "13000": 1247,
      "0x7fc1613b8": 1248,
      "a8000": 1249,
      "0x55bb387a": 1250,
      "0x55bb373a": 1251,
      "0x55bb3863": 1252,
      "0x55bb3986": 1253,
      "0x55bb38ca": 1254,
      "f6000": 1255,
      "0x55bb3a63": 1256,
      "1f0": 1257,
      "5e0": 1258,
      "7e0": 1259,
      "7c0": 1260,
      "7b0": 1261,
      "7e000": 1262,
      "a80": 1263,
      "a90": 1264,
      "bd": 1265,
      "b0000": 1266,
      "ea000": 1267,
      "0x55bb37ed": 1268,
      "0x55bb3721": 1269,
      "0x55bb37e2": 1270,
      "0x55bb3868": 1271,
      "0x55bb38a8": 1272,
      "0x55bb38fb": 1273,
      "0x55bb389b": 1274,
      "0x55bb3930": 1275,
      "0x55bb3917": 1276,
      "0x55bb39e5": 1277,
      "0x55bb3a58": 1278,
      "0x55bb3a9a": 1279,
      "0x55bb3ae3": 1280,
      "0x55bb36f0": 1281,
      "0x55bb36fb": 1282,
      "0x55bb3695": 1283,
      "46000": 1284,
      "78000": 1285,
      "0x55bb3753": 1286,
      "0x55bb3763": 1287,
      "0x55bb3881": 1288,
      "0x55bb3931": 1289,
      "0x55bb36da": 1290,
      "0x55bb3a1d": 1291,
      "110": 1292,
      "2d000": 1293,
      "5f000": 1294,
      "5c000": 1295,
      "d5000": 1296,
      "e1000": 1297,
      "0x55bb3796": 1298,
      "0x55bb3792": 1299,
      "0x55bb38d8": 1300,
      "0x55bb38f5": 1301,
      "0x55bb38e7": 1302,
      "0x55bb3892": 1303,
      "0x55bb3938": 1304,
      "0x55bb399a": 1305,
      "0x55bb3a10": 1306,
      "0x55bb3a18": 1307,
      "0x55bb3bd0": 1308,
      "0x55bb36bb": 1309,
      "0x55bb36d0": 1310,
      "0x55bb36b8": 1311,
      "0x55bb36a8": 1312,
      "0x55bb36f3": 1313,
      "86000": 1314,
      "38000": 1315,
      "0x55bb370c": 1316,
      "0x55bb378c": 1317,
      "0x55bb3976": 1318,
      "0x55bb384c": 1319,
      "190": 1320,
      "33000": 1321,
      "7b000": 1322,
      "90000": 1323,
      "a50": 1324,
      "b4000": 1325,
      "c00": 1326,
      "00000": 1327,
      "0x55bb37fd": 1328,
      "0x55bb37e8": 1329,
      "0x55bb37f8": 1330,
      "0x55bb37d8": 1331,
      "0x55bb37e3": 1332,
      "0x55bb38c8": 1333,
      "0x55bb38ec": 1334,
      "0x55bb3960": 1335,
      "0x55bb3978": 1336,
      "0x55bb39fa": 1337,
      "0x55bb39e6": 1338,
      "0x55bb3ad8": 1339,
      "0x55bb3a9c": 1340,
      "0x55bb3af3": 1341,
      "0x55bb3691": 1342,
      "0x55bb36e2": 1343,
      "18000": 1344,
      "0x7fc15e1c": 1345,
      "0x7fc15e2c": 1346,
      "0x55bb37cc": 1347,
      "0x55bb3825": 1348,
      "0x55bb3922": 1349,
      "0x55bb3b72": 1350,
      "0x55bb3c1c": 1351,
      "4b000": 1352,
      "7d": 1353,
      "b1000": 1354,
      "c30": 1355,
      "e5000": 1356,
      "f5000": 1357,
      "f9000": 1358,
      "d2000": 1359,
      "0x55bb37fa": 1360,
      "0x55bb3797": 1361,
      "0x55bb3830": 1362,
      "0x55bb38e6": 1363,
      "0x55bb39e0": 1364,
      "0x55bb3996": 1365,
      "0x55bb39b0": 1366,
      "0x55bb3946": 1367,
      "0x55bb3901": 1368,
      "0x55bb3997": 1369,
      "0x55bb399b": 1370,
      "0x55bb3a50": 1371,
      "0x55bb3a13": 1372,
      "788": 1373,
      "0x7fc15e0c": 1374,
      "0x55bb367c": 1375,
      "0x55bb3681": 1376,
      "0x55bb3682": 1377,
      "0x55bb375d": 1378,
      "0x55bb380c": 1379,
      "0x55bb378a": 1380,
      "0x55bb37c2": 1381,
      "0x55bb3731": 1382,
      "0x55bb3908": 1383,
      "0x55bb390a": 1384,
      "0x55bb36aa": 1385,
      "0x55bb381c": 1386,
      "0x55bb39ac": 1387,
      "0x55bb3a0a": 1388,
      "0x55bb38b1": 1389,
      "0x55bb3a16": 1390,
      "3b0": 1391,
      "360": 1392,
      "40000": 1393,
      "55000": 1394,
      "59000": 1395,
      "5b000": 1396,
      "76000": 1397,
      "94000": 1398,
      "93000": 1399,
      "d0000": 1400,
      "e7000": 1401,
      "0x55bb37ff": 1402,
      "0x55bb37f2": 1403,
      "0x55bb39ed": 1404,
      "0x55bb3991": 1405,
      "0x55bb3be0": 1406,
      "0x55bb3bf0": 1407,
      "bf8": 1408,
      "0x55bb36fd": 1409,
      "0x55bb36d8": 1410,
      "0x55bb369c": 1411,
      "0x55bb36d1": 1412,
      "0x55bb369a": 1413,
      "b8000": 1414,
      "0x55bb3c20": 1415,
      "0x7fc15e0a": 1416,
      "0x55bb367a": 1417,
      "0x55bb368c": 1418,
      "0x55bb3876": 1419,
      "0x55bb3708": 1420,
      "0x55bb3773": 1421,
      "0x55bb3783": 1422,
      "0x55bb3906": 1423,
      "0x55bb382a": 1424,
      "0x55bb374c": 1425,
      "0x55bb3836": 1426,
      "0x55bb3961": 1427,
      "0x55bb3956": 1428,
      "0x55bb3a83": 1429,
      "0x55bb392a": 1430,
      "0x55bb3942": 1431,
      "0x55bb3a43": 1432,
      "0x55bb3b32": 1433,
      "0x55bb39bc": 1434,
      "170": 1435,
      "380": 1436,
      "77000": 1437,
      "9b8": 1438,
      "ab0": 1439,
      "d1000": 1440,
      "db000": 1441,
      "da000": 1442,
      "f7000": 1443,
      "0x7fc15dfb": 1444,
      "0x55bb37eb": 1445,
      "0x55bb3810": 1446,
      "0x55bb3838": 1447,
      "0x55bb39ea": 1448,
      "0x55bb39dc": 1449,
      "0x55bb39e8": 1450,
      "0x55bb39f3": 1451,
      "0x55bb39f5": 1452,
      "0x55bb3a46": 1453,
      "0x55bb3bc8": 1454,
      "0x55bb3b9a": 1455,
      "0x55bb3be5": 1456,
      "0x55bb3696": 1457,
      "e8000": 1458,
      "f8000": 1459,
      "58000": 1460,
      "0x55bb3683": 1461,
      "0x55bb368a": 1462,
      "0x55bb387b": 1463,
      "0x55bb375c": 1464,
      "0x55bb37a6": 1465,
      "0x55bb37ac": 1466,
      "ec80": 1467,
      "0x55bb390c": 1468,
      "0x55bb3741": 1469,
      "0x55bb3831": 1470,
      "0x55bb3816": 1471,
      "0x55bb3973": 1472,
      "0x55bb3a06": 1473,
      "0x55bb39ca": 1474,
      "0x55bb36d3": 1475,
      "0x55bb3b06": 1476,
      "47000": 1477,
      "4a000": 1478,
      "5ff8": 1479,
      "51000": 1480,
      "a40": 1481,
      "d7000": 1482,
      "e9000": 1483,
      "f4000": 1484,
      "f0000": 1485,
      "0x55bb3bb3": 1486,
      "ed8": 1487,
      "0x55bb379d": 1488,
      "0x55bb3896": 1489,
      "0x55bb38c0": 1490,
      "0x55bb38eb": 1491,
      "0x55bb38e8": 1492,
      "0x55bb3878": 1493,
      "0x55bb38e5": 1494,
      "0x55bb389d": 1495,
      "0x55bb39c8": 1496,
      "0x55bb3aff": 1497,
      "0x55bb3a70": 1498,
      "0x55bb3a68": 1499,
      "0x55bb3ae6": 1500,
      "0x55bb3a94": 1501,
      "0x55bb3bc0": 1502,
      "0x55bb3be3": 1503,
      "0x55bb36a0": 1504,
      "0x55bb3694": 1505,
      "0x55bb36e7": 1506,
      "0x7fc15ef": 1507,
      "0x7fc15e16": 1508,
      "0x55bb3873": 1509,
      "0x55bb3756": 1510,
      "0x55bb3806": 1511,
      "0x55bb37aa": 1512,
      "0x55bb3776": 1513,
      "0x55bb37c6": 1514,
      "0x55bb3732": 1515,
      "0x55bb3823": 1516,
      "0x55bb3826": 1517,
      "0x55bb38c3": 1518,
      "0x55bb3711": 1519,
      "0x55bb371a": 1520,
      "0x55bb38d6": 1521,
      "0x55bb39d7": 1522,
      "1b0": 1523,
      "4d": 1524,
      "4e000": 1525,
      "4c000": 1526,
      "54000": 1527,
      "780": 1528,
      "97000": 1529,
      "92000": 1530,
      "b7000": 1531,
      "ca0": 1532,
      "cb0": 1533,
      "d4000": 1534,
      "d3000": 1535,
      "f1000": 1536,
      "0x55bb3795": 1537,
      "0x55bb37f3": 1538,
      "0x55bb38e0": 1539,
      "0x55bb3898": 1540,
      "0x55bb3850": 1541,
      "0x55bb38bf": 1542,
      "0x55bb3821": 1543,
      "0x55bb38f1": 1544,
      "0x55bb3958": 1545,
      "0x55bb39f1": 1546,
      "0x55bb3abb": 1547,
      "0x55bb3adc": 1548,
      "0x55bb3ae0": 1549,
      "0x55bb3a30": 1550,
      "0x55bb3a38": 1551,
      "0x55bb3a95": 1552,
      "0x55bb3bd2": 1553,
      "0x55bb3bdc": 1554,
      "0x55bb3b01": 1555,
      "0x55bb3bf6": 1556,
      "0x55bb3b93": 1557,
      "0x55bb3be4": 1558,
      "0x55bb3bf5": 1559,
      "0x55bb3be7": 1560,
      "0x55bb36e0": 1561,
      "0x55bb36bf": 1562,
      "68000": 1563,
      "0x7fc15e03": 1564,
      "d8000": 1565,
      "0x7fc15e1a": 1566,
      "0x55bb3852": 1567,
      "0x55bb3856": 1568,
      "0x55bb385c": 1569,
      "0x55bb37a1": 1570,
      "0x55bb37a7": 1571,
      "0x55bb376a": 1572,
      "0x55bb3867": 1573,
      "0x55bb393a": 1574,
      "0x55bb397a": 1575,
      "0x55bb37d6": 1576,
      "0x55bb37da": 1577,
      "0x55bb391c": 1578,
      "0x55bb3a11": 1579,
      "49000": 1580,
      "41000": 1581,
      "4d000": 1582,
      "57000": 1583,
      "53000": 1584,
      "5e000": 1585,
      "52000": 1586,
      "6c0": 1587,
      "790": 1588,
      "7a000": 1589,
      "9d000": 1590,
      "b9000": 1591,
      "b6000": 1592,
      "0x55bb3701": 1593,
      "0x55bb3858": 1594,
      "0x55bb3910": 1595,
      "0x55bb3940": 1596,
      "0x55bb3992": 1597,
      "0x55bb3a90": 1598,
      "0x55bb3ae4": 1599,
      "0x55bb3af5": 1600,
      "0x55bb3b96": 1601,
      "0x55bb3b60": 1602,
      "0x55bb3b78": 1603,
      "0x55bb3ba8": 1604,
      "0x55bb3b58": 1605,
      "0x55bb3bc1": 1606,
      "c8000": 1607,
      "0x55bb3c38": 1608,
      "0x7fc15e13": 1609,
      "0x55bb3677": 1610,
      "0x55bb3802": 1611,
      "0x55bb36c1": 1612,
      "0x55bb3702": 1613,
      "0x55bb37a3": 1614,
      "0x55bb38a2": 1615,
      "0x55bb3882": 1616,
      "0x55bb388a": 1617,
      "0x55bb3862": 1618,
      "0x55bb398a": 1619,
      "0x55bb3722": 1620,
      "0x55bb383a": 1621,
      "0x55bb38c2": 1622,
      "0x55bb38c6": 1623,
      "0x55bb38cc": 1624,
      "0x55bb3811": 1625,
      "0x55bb37bc": 1626,
      "0x55bb3a0c": 1627,
      "0x55bb37d3": 1628,
      "0x55bb36d6": 1629,
      "0x55bb3842": 1630,
      "0x55bb3a36": 1631,
      "0x55bb392c": 1632,
      "0x55bb3a66": 1633,
      "0x55bb3b88": 1634,
      "0x55bb3b8a": 1635,
      "0x55bb36b6": 1636,
      "0x55bb3b43": 1637,
      "4f000": 1638,
      "8fe0": 1639,
      "95000": 1640,
      "99000": 1641,
      "b2000": 1642,
      "20000": 1643,
      "0x55bb38fc": 1644,
      "0x55bb39a0": 1645,
      "0x55bb39e7": 1646,
      "0x55bb3afc": 1647,
      "0x55bb3aea": 1648,
      "0x55bb3ad2": 1649,
      "0x55bb3ae5": 1650,
      "0x55bb3b20": 1651,
      "0x55bb3b17": 1652,
      "0x55bb3bf1": 1653,
      "0x55bb3bec": 1654,
      "0x55bb3b9d": 1655,
      "0x7fc160b": 1656,
      "0x55bb3671": 1657,
      "0x55bb3673": 1658,
      "0x55bb380a": 1659,
      "0x55bb36ca": 1660,
      "0x55bb3853": 1661,
      "0x55bb3772": 1662,
      "0x55bb3781": 1663,
      "0x55bb376c": 1664,
      "0x55bb3861": 1665,
      "0x55bb3866": 1666,
      "0x55bb3983": 1667,
      "0x55bb372a": 1668,
      "0x55bb372c": 1669,
      "0x55bb3827": 1670,
      "0x55bb3743": 1671,
      "0x55bb374a": 1672,
      "0x55bb36a1": 1673,
      "0x55bb3833": 1674,
      "0x55bb3914": 1675,
      "0x55bb3a33": 1676,
      "0x55bb3a67": 1677,
      "0x55bb38b2": 1678,
      "0x7fc15e33": 1679,
      "0x55bb38deb": 1680,
      "e9ff0": 1681,
      "56000": 1682,
      "9e000": 1683,
      "9f000": 1684,
      "b28": 1685,
      "ba000": 1686,
      "0x36": 1687,
      "0x55bb37d1": 1688,
      "0x55bb38f0": 1689,
      "0x55bb39fc": 1690,
      "0x55bb399d": 1691,
      "0x55bb3a96": 1692,
      "0x55bb3a21": 1693,
      "0x55bb3ae8": 1694,
      "0x55bb3a01": 1695,
      "0x55bb3afa": 1696,
      "0x55bb3aec": 1697,
      "0x55bb3b50": 1698,
      "0x55bb3ba0": 1699,
      "0x55bb3b21": 1700,
      "8630": 1701,
      "0x55bb3c18": 1702,
      "0x7fc15e01": 1703,
      "0x55bb3871": 1704,
      "0x55bb387c": 1705,
      "0x55bb36c3": 1706,
      "0x55bb3782": 1707,
      "0x55bb38a6": 1708,
      "0x55bb3883": 1709,
      "0x55bb3887": 1710,
      "0x55bb3902": 1711,
      "0x55bb39a6": 1712,
      "0x55bb37b1": 1713,
      "0x55bb37b3": 1714,
      "0x55bb397c": 1715,
      "0x55bb37d7": 1716,
      "0x55bb3a88": 1717,
      "0x55bb394a": 1718,
      "0x55bb3a62": 1719,
      "0x55bb3a4c": 1720,
      "0x55bb38b6": 1721,
      "0x55bb3c02": 1722,
      "0x55bb3a23": 1723,
      "0x55bb3a2c": 1724,
      "0x55bb3c2a": 1725,
      "0x55bb39d6": 1726,
      "0x55bb3aca": 1727,
      "0x55bb3b12": 1728,
      "df000": 1729,
      "e38": 1730,
      "e3000": 1731,
      "0x60": 1732,
      "0x55bb389a": 1733,
      "0x55bb39f0": 1734,
      "0x55bb39f4": 1735,
      "0x55bb39e4": 1736,
      "0x55bb3a20": 1737,
      "0x55bb3a60": 1738,
      "0x55bb3bff": 1739,
      "0x55bb3b30": 1740,
      "0x55bb3b98": 1741,
      "0x55bb3bd8": 1742,
      "0x55bb3bfa": 1743,
      "0x55bb3b94": 1744,
      "0x55bb3bfb": 1745,
      "0x55bb3bf7": 1746,
      "0x55bb3697": 1747,
      "1850": 1748,
      "fd000": 1749,
      "c050": 1750,
      "0x7fc15e11": 1751,
      "0x55bb3676": 1752,
      "0x55bb3877": 1753,
      "0x55bb3751": 1754,
      "0x55bb3707": 1755,
      "0x55bb3857": 1756,
      "0x55bb385a": 1757,
      "0x55bb377a": 1758,
      "0x55bb3733": 1759,
      "0x55bb3761": 1760,
      "0x55bb3766": 1761,
      "9a70": 1762,
      "0x55bb3903": 1763,
      "0x55bb3982": 1764,
      "0x55bb398c": 1765,
      "0x55bb36ac": 1766,
      "0x55bb39c6": 1767,
      "0x55bb39c7": 1768,
      "0x55bb3a56": 1769,
      "e310": 1770,
      "0x55bb3716": 1771,
      "0x55bb3841": 1772,
      "0x55bb3a31": 1773,
      "0x55bb3b0c": 1774,
      "0x7fc15e31": 1775,
      "0x55bb3c26": 1776,
      "0x55bb39da": 1777,
      "0x55bb3ad6": 1778,
      "50000": 1779,
      "5a000": 1780,
      "6d0": 1781,
      "a10": 1782,
      "bd000": 1783,
      "d9000": 1784,
      "e4000": 1785,
      "fb000": 1786,
      "0x178": 1787,
      "0x55bb37f1": 1788,
      "0x55bb37fb": 1789,
      "0x55bb38f2": 1790,
      "0x55bb39e1": 1791,
      "0x55bb39f2": 1792,
      "0x55bb3a00": 1793,
      "0x55bb3a80": 1794,
      "0x55bb3aed": 1795,
      "0x55bb3a40": 1796,
      "0x55bb3af0": 1797,
      "0x55bb3ae1": 1798,
      "0x55bb3afd": 1799,
      "0x55bb3ab0": 1800,
      "0x55bb3aeb": 1801,
      "0x55bb3ad1": 1802,
      "0x55bb3af6": 1803,
      "0x55bb3a93": 1804,
      "0x55bb3a97": 1805,
      "0x55bb3bea": 1806,
      "0x55bb3be1": 1807,
      "0x55bb3bf8": 1808,
      "0x55bb3b9c": 1809,
      "0x55bb3be6": 1810,
      "0x55bb3bf3": 1811,
      "0x55bb3b97": 1812,
      "0x55bb36ff": 1813,
      "0x55bb369d": 1814,
      "0x7fc15ee4": 1815,
      "0x55bb367d": 1816,
      "0x55bb3752": 1817,
      "0x7fc15e22": 1818,
      "0x7fc15e26": 1819,
      "0x55bb36c2": 1820,
      "0x55bb36c6": 1821,
      "0x55bb370a": 1822,
      "0x55bb3736": 1823,
      "0x55bb38a1": 1824,
      "0x55bb3987": 1825,
      "0x55bb3742": 1826,
      "0x55bb3747": 1827,
      "0x55bb383c": 1828,
      "0x55bb396a": 1829,
      "0x55bb396c": 1830,
      "0x55bb3954": 1831,
      "0x55bb391a": 1832,
      "0x55bb3a52": 1833,
      "0x55bb371c": 1834,
      "0x55bb394c": 1835,
      "0x7fc15e36": 1836,
      "0x55bb3c01": 1837,
      "0x55bb3b73": 1838,
      "0x55bb39b6": 1839,
      "0x55bb3a73": 1840,
      "0x55bb3a76": 1841,
      "0x55bb36b1": 1842,
      "44000": 1843,
      "660": 1844,
      "b3000": 1845,
      "e68": 1846,
      "e2000": 1847,
      "f78": 1848,
      "0x77": 1849,
      "0x7ffdd2ea75a0": 1850,
      "e3010": 1851,
      "0x55bb38fd": 1852,
      "0x55bb3970": 1853,
      "0x55bb3921": 1854,
      "0x55bb39a8": 1855,
      "0x55bb3ac8": 1856,
      "0x55bb3aa0": 1857,
      "0x55bb3afb": 1858,
      "0x55bb3ae7": 1859,
      "0x55bb3a92": 1860,
      "0x55bb3b48": 1861,
      "0x55bb3be2": 1862,
      "0x55bb3692": 1863,
      "868": 1864,
      "fe000": 1865,
      "b08": 1866,
      "0x7fc15f92": 1867,
      "0x55bb3c30": 1868,
      "d8ff0": 1869,
      "0x55bb3675": 1870,
      "0x7fc15e23": 1871,
      "0x55bb3703": 1872,
      "0x55bb38a3": 1873,
      "0x55bb38aa": 1874,
      "0x55bb3904": 1875,
      "0x55bb3865": 1876,
      "0x55bb3981": 1877,
      "0x55bb3723": 1878,
      "0x55bb382d": 1879,
      "0x55bb3933": 1880,
      "0x55bb3744": 1881,
      "0x55bb3953": 1882,
      "0x55bb3812": 1883,
      "0x55bb3843": 1884,
      "0x55bb3941": 1885,
      "0x55bb3a41": 1886,
      "0x55bb3bb2": 1887,
      "0x55bb3bb8": 1888,
      "0x55bb3b08": 1889,
      "0x55bb38ba": 1890,
      "0x55bb38d3": 1891,
      "0x55bb3a1c": 1892,
      "0x55bb3b36": 1893,
      "0x55bb39d3": 1894,
      "0x55bb3bcc": 1895,
      "0x55bb3b2a": 1896,
      "0x55bb3ad3": 1897,
      "0x55bb3b11": 1898,
      "0x55bb3c36": 1899,
      "1e0": 1900,
      "350": 1901,
      "de000": 1902,
      "d6000": 1903,
      "ef000": 1904,
      "f2000": 1905,
      "feff0": 1906,
      "0x7fc1610": 1907,
      "0x55bb3920": 1908,
      "0x55bb3928": 1909,
      "0x55bb39d8": 1910,
      "0x55bb39f7": 1911,
      "0x55bb3ab8": 1912,
      "0x55bb3bed": 1913,
      "0x55bb3b86": 1914,
      "0x55bb3b13": 1915,
      "0x55bb3b68": 1916,
      "0x55bb3beb": 1917,
      "0x55bb3b91": 1918,
      "96ff0": 1919,
      "0x20f91": 1920,
      "178": 1921,
      "0x6ffff": 1922,
      "0x55bb3771": 1923,
      "0x55bb37ca": 1924,
      "0x55bb38ab": 1925,
      "0x55bb3837": 1926,
      "0x55bb39a2": 1927,
      "0x55bb37b2": 1928,
      "0x55bb37b4": 1929,
      "0x55bb3972": 1930,
      "0x55bb39c2": 1931,
      "0x55bb3714": 1932,
      "0x55bb3925": 1933,
      "0x55bb3a6c": 1934,
      "0x55bb3a4a": 1935,
      "0x55bb3bb0": 1936,
      "0x55bb38da": 1937,
      "0x55bb3a7c": 1938,
      "0x55bb3b56": 1939,
      "0x55bb36b3": 1940,
      "0x55bb36bc": 1941,
      "0x55bb3aac": 1942,
      "0x55bb3bc2": 1943,
      "0x55bb3b1a": 1944,
      "0x55bb3bd6": 1945,
      "0x55bb39159a70": 1946,
      "0x7fc1613b82e0": 1947,
      "0x55bb38deb6a0": 1948,
      "3d0": 1949,
      "390": 1950,
      "548": 1951,
      "998": 1952,
      "d5ff0": 1953,
      "eb8": 1954,
      "fa8": 1955,
      "ea8": 1956,
      "0x7fc15fc1": 1957,
      "0x55bb39bf": 1958,
      "0x55bb39d1": 1959,
      "0x55bb3af8": 1960,
      "0x55bb3af2": 1961,
      "0x55bb3a9b": 1962,
      "0x55bb3bfc": 1963,
      "0x55bb3b80": 1964,
      "0x55bb3b40": 1965,
      "0x55bb3b46": 1966,
      "0x55bb3b38": 1967,
      "0x7fc15e9c": 1968,
      "138": 1969,
      "0x55bb3c10": 1970,
      "0x55bb3c13": 1971,
      "0x55bb3c21": 1972,
      "0x55bb375a": 1973,
      "0x55bb370d": 1974,
      "0x55bb3854": 1975,
      "0x55bb37a2": 1976,
      "0x55bb37c1": 1977,
      "0x55bb37c3": 1978,
      "0x55bb37c7": 1979,
      "0x55bb3762": 1980,
      "0x55bb38a4": 1981,
      "0x55bb3907": 1982,
      "0x55bb38c1": 1983,
      "0x55bb39aa": 1984,
      "0x55bb3977": 1985,
      "0x55bb3a03": 1986,
      "0x55bb3924": 1987,
      "0x55bb3b87": 1988,
      "0x55bb3c06": 1989,
      "0x55bb3b66": 1990,
      "0x55bb3a2a": 1991,
      "0x55bb39b5": 1992,
      "0x55bb3a71": 1993,
      "0x55bb3a7a": 1994,
      "0x55bb3ba6": 1995,
      "0x55bb3ab6": 1996,
      "0x55bb3c32": 1997,
      "0x55bb3c33": 1998,
      "5cfd0": 1999,
      "e28": 2000,
      "eeff0": 2001,
      "f18": 2002,
      "0x55bb39fd": 2003,
      "0x55bb39fb": 2004,
      "0x55bb3a78": 2005,
      "0x55bb3aa8": 2006,
      "0x55bb3af4": 2007,
      "0x55bb3b00": 2008,
      "0x55bb3b90": 2009,
      "0x55bb3be8": 2010,
      "0x55bb3b92": 2011,
      "bfa0": 2012,
      "0x7fc15eba": 2013,
      "b8b0": 2014,
      "0x7fc15fe4": 2015,
      "0x7fc15e02": 2016,
      "0x7fc15e12": 2017,
      "0x7fc15e2a": 2018,
      "0x55bb3805": 2019,
      "0x55bb380d": 2020,
      "0x55bb37a4": 2021,
      "0x55bb3734": 2022,
      "0x55bb3737": 2023,
      "0x55bb3884": 2024,
      "0x55bb3727": 2025,
      "0x55bb3937": 2026,
      "0x55bb3966": 2027,
      "0x55bb395a": 2028,
      "0x55bb3814": 2029,
      "0x55bb3971": 2030,
      "0x55bb3a02": 2031,
      "0x55bb39c1": 2032,
      "0x55bb3916": 2033,
      "f740": 2034,
      "0x55bb3a3a": 2035,
      "0x55bb3a8b": 2036,
      "0x55bb3947": 2037,
      "0x55bb3bba": 2038,
      "0x55bb38d7": 2039,
      "0x55bb3b83": 2040,
      "0x55bb3b84": 2041,
      "0x55bb3b8d": 2042,
      "0x55bb3a22": 2043,
      "0x55bb39ba": 2044,
      "0x55bb3ba4": 2045,
      "0x55bb3aa3": 2046,
      "9dfe0": 2047,
      "0x55bb3ac6": 2048,
      "0x55bb3b16": 2049,
      "d2010": 2050,
      "946": 2051,
      "9a8": 2052,
      "b98": 2053,
      "be000": 2054,
      "e18": 2055,
      "ee8": 2056,
      "f28": 2057,
      "f38": 2058,
      "dc8": 2059,
      "20ff0": 2060,
      "ede0": 2061,
      "0x55bb38d1": 2062,
      "0x55bb399e": 2063,
      "0x55bb3af1": 2064,
      "0x55bb3af7": 2065,
      "0x55bb3ac1": 2066,
      "0x55bb3b10": 2067,
      "0x55bb3b70": 2068,
      "0x55bb3bf4": 2069,
      "0x55bb3b9b": 2070,
      "0x7fc1609": 2071,
      "0x7fc160e0": 2072,
      "0x7fc15ef6": 2073,
      "ebff0": 2074,
      "46ff0": 2075,
      "0x7fc16136c": 2076,
      "0x55bb3687": 2077,
      "0x55bb3754": 2078,
      "9cff0": 2079,
      "0x55bb388c": 2080,
      "0x55bb398b": 2081,
      "0x55bb3935": 2082,
      "0x55bb3936": 2083,
      "0x55bb36a3": 2084,
      "0x55bb36a6": 2085,
      "0x55bb383d": 2086,
      "0x55bb38c7": 2087,
      "0x55bb3952": 2088,
      "0x55bb395c": 2089,
      "0x55bb37b7": 2090,
      "0x55bb3a07": 2091,
      "0x55bb37dd": 2092,
      "93fd0": 2093,
      "0x55bb39cc": 2094,
      "0x55bb3911": 2095,
      "0x55bb3a53": 2096,
      "0x55bb36d5": 2097,
      "0x55bb36dd": 2098,
      "0x55bb384a": 2099,
      "0x55bb3a3c": 2100,
      "0x55bb3a8a": 2101,
      "0x55bb3926": 2102,
      "0x55bb3944": 2103,
      "0x55bb3a6a": 2104,
      "0x55bb3bbc": 2105,
      "0x55bb38b3": 2106,
      "0x55bb3b82": 2107,
      "0x55bb3a15": 2108,
      "0x55bb3c08": 2109,
      "0x55bb3b33": 2110,
      "0x55bb3b63": 2111,
      "0x55bb3b6a": 2112,
      "0x55bb3a26": 2113,
      "0x55bb3bc3": 2114,
      "0x55bb3ac3": 2115,
      "0x55bb3c1a": 2116,
      "41ff0": 2117,
      "0x55bb366d": 2118,
      "0x7ffdd2ea7120": 2119,
      "0x10246": 2120,
      "130": 2121,
      "670": 2122,
      "8fd0": 2123,
      "9f8": 2124,
      "ee010": 2125,
      "f008": 2126,
      "10ff0": 2127,
      "0x55bb38f8": 2128,
      "0x55bb3ae2": 2129,
      "0x55bb3a9d": 2130,
      "0x55bb3bfd": 2131,
      "0x55bb365": 2132,
      "0x55bb369b": 2133,
      "0x55bb36e9": 2134,
      "188": 2135,
      "0x7fc15ef5": 2136,
      "c08": 2137,
      "0x7fc15f11": 2138,
      "0x55bb380b": 2139,
      "0x55bb3704": 2140,
      "0x55bb376b": 2141,
      "0x55bb38a7": 2142,
      "e6ff0": 2143,
      "0x55bb390d": 2144,
      "0x55bb3725": 2145,
      "0x55bb372b": 2146,
      "0x55bb3822": 2147,
      "0x55bb393b": 2148,
      "0x55bb374b": 2149,
      "0x55bb36a4": 2150,
      "0x55bb3962": 2151,
      "0x55bb3963": 2152,
      "0x55bb39a5": 2153,
      "0x55bb39cb": 2154,
      "0x55bb3912": 2155,
      "0x55bb3847": 2156,
      "0x55bb3a34": 2157,
      "0x55bb3a47": 2158,
      "0x55bb3a4d": 2159,
      "0x55bb3bb6": 2160,
      "0x55bb38bc": 2161,
      "0x55bb3b3c": 2162,
      "0x55bb39b2": 2163,
      "0x55bb3b52": 2164,
      "0x55bb3ba1": 2165,
      "0x55bb36ba": 2166,
      "0x55bb3aa2": 2167,
      "0x55bb3aa7": 2168,
      "0x55bb3aaa": 2169,
      "9bff0": 2170,
      "0x55bb3ab2": 2171,
      "0x55bb3bd3": 2172,
      "10010": 2173,
      "258": 2174,
      "97fe0": 2175,
      "928": 2176,
      "958": 2177,
      "b48": 2178,
      "d78": 2179,
      "ddfe0": 2180,
      "e58": 2181,
      "ffb0": 2182,
      "ffff0": 2183,
      "108": 2184,
      "d08": 2185,
      "0x55bb3799": 2186,
      "0x55bb38e9": 2187,
      "0x55bb3a91": 2188,
      "0x55bb3ae9": 2189,
      "23010": 2190,
      "0x7fc15e92": 2191,
      "0x7fc15f20": 2192,
      "0x55bb3c00": 2193,
      "0x7fc15e17": 2194,
      "0x55bb3755": 2195,
      "0x55bb3801": 2196,
      "0x55bb3807": 2197,
      "0x55bb37a5": 2198,
      "0x55bb3775": 2199,
      "0x55bb388b": 2200,
      "0x55bb386a": 2201,
      "f6ff0": 2202,
      "0x55bb3957": 2203,
      "0x55bb39a1": 2204,
      "0x55bb39a3": 2205,
      "0x55bb39a7": 2206,
      "0x55bb3975": 2207,
      "0x55bb39c5": 2208,
      "e400": 2209,
      "0x55bb3a5a": 2210,
      "95ff0": 2211,
      "0x55bb3a82": 2212,
      "0x55bb3a61": 2213,
      "0x55bb3a1a": 2214,
      "0x55bb3c03": 2215,
      "0x55bb3b76": 2216,
      "0x55bb39b3": 2217,
      "0x55bb3ba3": 2218,
      "0x55bb3bac": 2219,
      "0x55bb39d4": 2220,
      "0x55bb3b23": 2221,
      "0x55bb3b26": 2222,
      "0x55bb3acc": 2223,
      "0x55bb3b4a": 2224,
      "0x55bb3b4c": 2225,
      "0x55bb3c16": 2226,
      "0x55bb3ada": 2227,
      "0x55bb3b1c": 2228,
      "0x55bb3ab1": 2229,
      "99ff0": 2230,
      "53fe0": 2231,
      "43ff0": 2232,
      "acfe0": 2233,
      "4c8": 2234,
      "5b8": 2235,
      "9c8": 2236,
      "94010": 2237,
      "b008": 2238,
      "fa010": 2239,
      "fcff0": 2240,
      "bbfc0": 2241,
      "0x7fc15df9": 2242,
      "d0a0": 2243,
      "d0ff0": 2244,
      "0x55bb37f9": 2245,
      "d5010": 2246,
      "0x55bb3abf": 2247,
      "0x55bb3bd1": 2248,
      "0x55bb3bf2": 2249,
      "70ff0": 2250,
      "0x7fc15edc": 2251,
      "0x7fc15e63": 2252,
      "0x20fa1": 2253,
      "0x7fc15e0b": 2254,
      "0x55bb3874": 2255,
      "0x55bb387d": 2256,
      "0x55bb3804": 2257,
      "0x55bb3787": 2258,
      "0x55bb37cd": 2259,
      "0x55bb373b": 2260,
      "0x55bb3767": 2261,
      "ecff0": 2262,
      "0x55bb38ad": 2263,
      "0x55bb38ae": 2264,
      "0x55bb3869": 2265,
      "0x55bb3932": 2266,
      "0x55bb383b": 2267,
      "0x55bb381d": 2268,
      "0x55bb37b5": 2269,
      "0x55bb3a54": 2270,
      "0x55bb3a5b": 2271,
      "e3ff0": 2272,
      "0x55bb3a37": 2273,
      "0x55bb3a8c": 2274,
      "0x55bb3a42": 2275,
      "0x55bb3bb7": 2276,
      "0x55bb3b0a": 2277,
      "0x55bb38b4": 2278,
      "0x7fc15e32": 2279,
      "0x7fc15e34": 2280,
      "0x55bb38d4": 2281,
      "0x55bb3b81": 2282,
      "0x55bb3b8c": 2283,
      "0x55bb3b67": 2284,
      "e7ff0": 2285,
      "0x55bb3b7a": 2286,
      "0x55bb3b7c": 2287,
      "0x55bb39b1": 2288,
      "0x55bb39b7": 2289,
      "0x55bb36b7": 2290,
      "0x55bb3c2c": 2291,
      "0x55bb3aa1": 2292,
      "0x55bb3aa6": 2293,
      "0x55bb3bca": 2294,
      "0x55bb3b22": 2295,
      "0x55bb3ac2": 2296,
      "0x55bb3ac4": 2297,
      "0x55bb3ab3": 2298,
      "0x55bb3aba": 2299,
      "e920": 2300,
      "e9fe0": 2301,
      "5370": 2302,
      "63b0": 2303,
      "d6d0": 2304,
      "2008": 2305,
      "96010": 2306,
      "c4fd0": 2307,
      "0x7fc161143000": 2308,
      "0x7fc16137c050": 2309,
      "1a0": 2310,
      "370": 2311,
      "df8": 2312,
      "10fe0": 2313,
      "dcfe0": 2314,
      "0x7fc15fd1": 2315,
      "edfc0": 2316,
      "0x55bb379e": 2317,
      "0x55bb38f9": 2318,
      "0x7fc15ed2": 2319,
      "0x7fc15e91": 2320,
      "0x7fc15f61": 2321,
      "288": 2322,
      "0x7fc15e07": 2323,
      "48ff0": 2324,
      "f1ff0": 2325,
      "0x55bb36cd": 2326,
      "0x55bb370b": 2327,
      "0x55bb37ad": 2328,
      "0x1770": 2329,
      "0x55bb3784": 2330,
      "0x55bb3785": 2331,
      "0x55bb3864": 2332,
      "0x55bb3824": 2333,
      "0x55bb393d": 2334,
      "0x55bb374d": 2335,
      "94ff0": 2336,
      "0x55bb38c5": 2337,
      "0x55bb3967": 2338,
      "0x55bb3a51": 2339,
      "0x55bb3a57": 2340,
      "f7ff0": 2341,
      "0x55bb3712": 2342,
      "0x55bb3a32": 2343,
      "0x55bb3923": 2344,
      "0x55bb3929": 2345,
      "0x55bb3bb1": 2346,
      "0x55bb3b02": 2347,
      "0x55bb3b03": 2348,
      "0x7fc15e37": 2349,
      "0x55bb3b8b": 2350,
      "0x55bb3b3a": 2351,
      "0x55bb3b3b": 2352,
      "0x55bb3b6c": 2353,
      "e7fc0": 2354,
      "0x55bb3b5a": 2355,
      "0x55bb3ba2": 2356,
      "0x55bb3bab": 2357,
      "92ff0": 2358,
      "0x55bb3bc6": 2359,
      "0x55bb3bc7": 2360,
      "0x55bb3b2c": 2361,
      "0x55bb3c11": 2362,
      "0x55bb3c12": 2363,
      "0x55bb3abc": 2364,
      "0x55bb3c3a": 2365,
      "0x55bb3c3c": 2366,
      "56ff0": 2367,
      "bc00": 2368,
      "eefd0": 2369,
      "0x7fc15ed6": 2370,
      "aaff0": 2371,
      "23ff0": 2372,
      "e008": 2373,
      "2ff8": 2374,
      "9e8": 2375,
      "9eff0": 2376,
      "99010": 2377,
      "ba8": 2378,
      "dff8": 2379,
      "e2010": 2380,
      "f68": 2381,
      "f6010": 2382,
      "0x7fc16000": 2383,
      "eafc0": 2384,
      "98ff0": 2385,
      "40fe0": 2386,
      "0x55bb389e": 2387,
      "0x55bb3999": 2388,
      "c8ff0": 2389,
      "0x55bb3625": 2390,
      "18ff0": 2391,
      "7d010": 2392,
      "0x7fc15e55": 2393,
      "0x20fb1": 2394,
      "0x7fc15fb0": 2395,
      "0x7fc15f9c": 2396,
      "0x7fc15fbc": 2397,
      "0x7fc15f76": 2398,
      "21fe0": 2399,
      "a8fe0": 2400,
      "0x7fc15e14": 2401,
      "0x55bb3757": 2402,
      "91ff0": 2403,
      "0x55bb3855": 2404,
      "0x55bb37ab": 2405,
      "0x55bb3777": 2406,
      "0x55bb377d": 2407,
      "0x55bb37c5": 2408,
      "9c20": 2409,
      "9afe0": 2410,
      "0x55bb398d": 2411,
      "0x55bb3729": 2412,
      "0x55bb3934": 2413,
      "0x55bb36a2": 2414,
      "0x55bb3832": 2415,
      "0x55bb396d": 2416,
      "0x55bb3a05": 2417,
      "0x55bb3a0d": 2418,
      "f4ff0": 2419,
      "e4ff0": 2420,
      "0x55bb391b": 2421,
      "0x55bb3a81": 2422,
      "0x55bb3927": 2423,
      "0x55bb3bb4": 2424,
      "0x55bb3b07": 2425,
      "0x55bb3b0b": 2426,
      "0x55bb38dd": 2427,
      "e2fd0": 2428,
      "0x55bb3c07": 2429,
      "0x55bb3b34": 2430,
      "0x55bb3b61": 2431,
      "0x55bb3a2d": 2432,
      "0x55bb3b77": 2433,
      "0x55bb3b51": 2434,
      "0x55bb3b53": 2435,
      "0x55bb39db": 2436,
      "9dff0": 2437,
      "0x55bb3b41": 2438,
      "0x55bb3c1b": 2439,
      "fb020": 2440,
      "0x55bb3c35": 2441,
      "72ff0": 2442,
      "d3ff0": 2443,
      "1008": 2444,
      "0x7ffdd2ea7020": 2445,
      "45": 2446,
      "7fb0": 2447,
      "918": 2448,
      "a30": 2449,
      "e98": 2450,
      "e48": 2451,
      "ef010": 2452,
      "bb8": 2453,
      "80fd0": 2454,
      "0x55bb37e9": 2455,
      "0x55bb3be9": 2456,
      "0x55bb36f9": 2457,
      "0x7fc160e1": 2458,
      "0x7fc15e56": 2459,
      "908": 2460,
      "fdff0": 2461,
      "0x7fc15f38": 2462,
      "ebd0": 2463,
      "0x7fc15e04": 2464,
      "0x7fc15e0d": 2465,
      "58fd0": 2466,
      "0x55bb3875": 2467,
      "0x55bb3809": 2468,
      "0x55bb36c7": 2469,
      "0x55bb36cb": 2470,
      "0x55bb3984": 2471,
      "0x55bb3724": 2472,
      "0x55bb3829": 2473,
      "0x55bb3745": 2474,
      "0x55bb36a7": 2475,
      "0x55bb3964": 2476,
      "0x55bb395a6": 2477,
      "0x55bb39a4": 2478,
      "0x55bb39c4": 2479,
      "e4fe0": 2480,
      "0x55bb3715": 2481,
      "0x55bb371d": 2482,
      "dc010": 2483,
      "0x55bb3a64": 2484,
      "0x55bb3bbb": 2485,
      "0x55bb3b04": 2486,
      "0x55bb38bd": 2487,
      "0x55bb3a12": 2488,
      "0x55bb3c0c": 2489,
      "0x55bb3b62": 2490,
      "0x55bb3b64": 2491,
      "0x55bb3a77": 2492,
      "0x55bb3b5c": 2493,
      "0x55bb3baa": 2494,
      "f270": 2495,
      "0x55bb3c22": 2496,
      "0x55bb3c23": 2497,
      "0x55bb39dd": 2498,
      "0x55bb3aa4": 2499,
      "0x55bb3b27": 2500,
      "0x55bb3ab5": 2501,
      "0x55bb3bd7": 2502,
      "f9ff0": 2503,
      "0x7fc15eda": 2504,
      "ca30": 2505,
      "b3ff0": 2506,
      "7cff0": 2507,
      "20010": 2508,
      "d7e0": 2509,
      "0x55bb385163b0": 2510,
      "2d00": 2511,
      "3ff8": 2512,
      "8fc0": 2513,
      "938": 2514,
      "948": 2515,
      "b68": 2516,
      "da8": 2517,
      "e78": 2518,
      "f98": 2519,
      "f4010": 2520,
      "bb00": 2521,
      "0x23": 2522,
      "0x1028": 2523,
      "508": 2524,
      "40ff0": 2525,
      "0x55bb37ee": 2526,
      "d5020": 2527,
      "0x55bb39f9": 2528,
      "0x55bb3a99": 2529,
      "f0fe0": 2530,
      "0x55bb3bf9": 2531,
      "a0ff0": 2532,
      "18fe0": 2533,
      "7d040": 2534,
      "0x7fc15ec0": 2535,
      "0x7fc15efa": 2536,
      "0x7fc15e93": 2537,
      "0x7fc15e9b": 2538,
      "0x7fc15e53": 2539,
      "0x7fc15e74": 2540,
      "fdfe0": 2541,
      "0x7fc15fdc": 2542,
      "0x7fc15f41": 2543,
      "0x7fc15f56": 2544,
      "0x7fc15f52": 2545,
      "1380": 2546,
      "46fc0": 2547,
      "e8fe0": 2548,
      "f8fe0": 2549,
      "78ff0": 2550,
      "78fc0": 2551,
      "a830": 2552,
      "488": 2553,
      "f1fe0": 2554,
      "0x55bb367e": 2555,
      "0x55bb3755cfd0": 2556,
      "fafe0": 2557,
      "faff0": 2558,
      "0x55bb36c5": 2559,
      "0x55bb378d": 2560,
      "9cfd0": 2561,
      "e6fd0": 2562,
      "0x55bb386d": 2563,
      "0x55bb38638": 2564,
      "0x55bb382b": 2565,
      "0x55bb374e": 2566,
      "0x55bb381b": 2567,
      "0x55bb39af2": 2568,
      "0x55bb3a04": 2569,
      "9300": 2570,
      "f4fe0": 2571,
      "0x55bb391d": 2572,
      "0x55bb3a5d": 2573,
      "0x55bb3845": 2574,
      "0x55bb384d": 2575,
      "0x55bb3a84": 2576,
      "0x55bb3a87": 2577,
      "0x55bb394d": 2578,
      "0x55bb3bbd": 2579,
      "0x55bb38b7": 2580,
      "0x55bb3b37": 2581,
      "0x55bb3a27": 2582,
      "0x55bb39b4": 2583,
      "0x55bb3a72": 2584,
      "0x55bb3b54": 2585,
      "0x55bb3b55": 2586,
      "0x55bb3ba7": 2587,
      "0x55bb3c25": 2588,
      "0x55bb39d5": 2589,
      "0x55bb3aa5": 2590,
      "0x55bb3bc4": 2591,
      "0x55bb3b24": 2592,
      "0x55bb3b25": 2593,
      "9dd0": 2594,
      "0x55bb3b42": 2595,
      "0x55bb3ab7": 2596,
      "0xff4": 2597,
      "0x55bb3c37": 2598,
      "99fe0": 2599,
      "6cff0": 2600,
      "41e0": 2601,
      "b2ff0": 2602,
      "42fc0": 2603,
      "daff0": 2604,
      "bcff0": 2605,
      "71fe0": 2606,
      "0x55bb366b": 2607,
      "74e0": 2608,
      "bb010": 2609,
      "0x55bb3b18d0a0": 2610,
      "81": 2611,
      "9e020": 2612,
      "cf0": 2613,
      "ef80": 2614,
      "f9020": 2615,
      "f3040": 2616,
      "fffd0": 2617,
      "fc10": 2618,
      "0x37": 2619,
      "d2ff0": 2620,
      "0x7fc15fe0": 2621,
      "e0fc0": 2622,
      "808": 2623,
      "80ff0": 2624,
      "0x55bb3899": 2625,
      "0x55bb3af9": 2626,
      "bf90": 2627,
      "0x7fc15eea": 2628,
      "0x7fc15eb8": 2629,
      "0x7fc15e90": 2630,
      "0x7fc15e7a": 2631,
      "90ff0": 2632,
      "fd030": 2633,
      "fc040": 2634,
      "13fc0": 2635,
      "17fd0": 2636,
      "ea030": 2637,
      "38a0": 2638,
      "38fd0": 2639,
      "58ff0": 2640,
      "0x55bb387bb": 2641,
      "0x7fc15e27": 2642,
      "0x55bb3774": 2643,
      "9cc0": 2644,
      "0x55bb3764": 2645,
      "d120": 2646,
      "d1ff0": 2647,
      "0x55bb3885": 2648,
      "0x55bb386b": 2649,
      "94fe0": 2650,
      "0x55bb36ab": 2651,
      "0x55bb36ad": 2652,
      "0x55bb3834": 2653,
      "0x55bb3815": 2654,
      "0x55bb3974": 2655,
      "0x55bb397f7": 2656,
      "0x55bb36d7": 2657,
      "f760": 2658,
      "f5ff0": 2659,
      "0x55bb3a85": 2660,
      "0x55bb3a8a3": 2661,
      "0x55bb3a44": 2662,
      "0x55bb3a14": 2663,
      "0x55bb3c0a": 2664,
      "0x55bb3b31": 2665,
      "0x55bb3a24": 2666,
      "0x55bb3b75": 2667,
      "0x55bb3ba5": 2668,
      "f2f0": 2669,
      "0x55bb3bcd": 2670,
      "0x55bb3b45": 2671,
      "0x55bb3c15": 2672,
      "0x55bb3b15": 2673,
      "0x55bb3b1d": 2674,
      "0x55bb3c31": 2675,
      "e9c0": 2676,
      "0x55bb3bda": 2677,
      "5cff0": 2678,
      "43fe0": 2679,
      "73fe0": 2680,
      "4cfd0": 2681,
      "33fe0": 2682,
      "0x7fc15fc8": 2683,
      "b3fe0": 2684,
      "20020": 2685,
      "ed040": 2686,
      "a1ff0": 2687,
      "e0010": 2688,
      "0x55bb397f7f20": 2689,
      "1ff8": 2690,
      "298": 2691,
      "5008": 2692,
      "9fb0": 2693,
      "91010": 2694,
      "9e010": 2695,
      "92010": 2696,
      "9c010": 2697,
      "d18": 2698,
      "de8": 2699,
      "d008": 2700,
      "e4010": 2701,
      "e1020": 2702,
      "f7010": 2703,
      "f8010": 2704,
      "f2020": 2705,
      "ffa0": 2706,
      "0xffffff": 2707,
      "fc00": 2708,
      "fcfe0": 2709,
      "0x39": 2710,
      "dcff0": 2711,
      "0x7fc15fc0": 2712,
      "0x7fc15dee": 2713,
      "0x7fc15dfe": 2714,
      "edfe0": 2715,
      "98fe0": 2716,
      "e3040": 2717,
      "0x55bb38ef": 2718,
      "0x55bb3b99": 2719,
      "0x55bb369e": 2720,
      "0x55bb36ef": 2721,
      "e1ff0": 2722,
      "e1fd0": 2723,
      "ff030": 2724,
      "70fe0": 2725,
      "0x7fc15eb0": 2726,
      "0x7fc15e48": 2727,
      "0x7fc15e42": 2728,
      "0x7fc15ebc": 2729,
      "c0ff0": 2730,
      "b0fd0": 2731,
      "0x7fc15fea": 2732,
      "0x7fc15f50": 2733,
      "0x7fc15f68": 2734,
      "0x7fc15fa8": 2735,
      "0x7fc15f9a": 2736,
      "1390": 2737,
      "68ff0": 2738,
      "ea020": 2739,
      "21ff0": 2740,
      "e8ff0": 2741,
      "28ff0": 2742,
      "78fd0": 2743,
      "a8ff0": 2744,
      "58fc0": 2745,
      "0x55bb367b": 2746,
      "0x55bb36c9": 2747,
      "91fd0": 2748,
      "0x55bb385b": 2749,
      "0x55bb373d": 2750,
      "0x55bb3765": 2751,
      "d1fe0": 2752,
      "0x55bb38a5": 2753,
      "e6fe0": 2754,
      "9460": 2755,
      "0x55bb3835": 2756,
      "0x55bb39ad": 2757,
      "0x55bb37d4": 2758,
      "0x55bb37d5": 2759,
      "93fe0": 2760,
      "93ff0": 2761,
      "f4fc0": 2762,
      "e3fd0": 2763,
      "f7fc0": 2764,
      "0x55bb3a39": 2765,
      "dc040": 2766,
      "0x55bb3945": 2767,
      "0x55bb394b": 2768,
      "0x55bb3a65": 2769,
      "0x55bb3a6d": 2770,
      "0x55bb3a4b": 2771,
      "e5fd0": 2772,
      "0x55bb38d5": 2773,
      "0x55bb3a25": 2774,
      "0x55bb3b74": 2775,
      "0x55bb3a75": 2776,
      "0x55bb36b2": 2777,
      "0x55bb3ac7": 2778,
      "0x55bb3acd": 2779,
      "0x55bb3b4b": 2780,
      "0x55bb3ad7": 2781,
      "0x55bb3b14": 2782,
      "0x55bb3b1b": 2783,
      "0x55bb3ab4": 2784,
      "0x55bb3bdd": 2785,
      "53fc0": 2786,
      "6c00": 2787,
      "55fe0": 2788,
      "44d0": 2789,
      "52330": 2790,
      "73ff0": 2791,
      "4cff0": 2792,
      "4afd0": 2793,
      "0x7fc15e88": 2794,
      "20030": 2795,
      "2aff0": 2796,
      "51fd0": 2797,
      "57fc0": 2798,
      "0x55bb38638e30": 2799,
      "0x55bb39af24e0": 2800,
      "0x55bb3a8a32e0": 2801,
      "4e8": 2802,
      "e7010": 2803,
      "e6010": 2804,
      "f58": 2805,
      "f2010": 2806,
      "f1020": 2807,
      "ff80": 2808,
      "0x7fc16001": 2809,
      "d2fe0": 2810,
      "e0ff0": 2811,
      "d0d0": 2812,
      "0x55bb38ee": 2813,
      "0x55bb39e9": 2814,
      "0x55bb39ee": 2815,
      "0x55bb3afe": 2816,
      "f0ff0": 2817,
      "0x55bb3b9e": 2818,
      "0x7fc160d8": 2819,
      "bfb0": 2820,
      "0x55bb36ee": 2821,
      "96fe0": 2822,
      "86fd0": 2823,
      "0x7fc15e40": 2824,
      "0x7fc15e9a": 2825,
      "0x7fc15e52": 2826,
      "0x7fc15fed": 2827,
      "0x7fc15f73": 2828,
      "0x7fc15fa1": 2829,
      "13fe0": 2830,
      "682f0": 2831,
      "17ff0": 2832,
      "ebfc0": 2833,
      "ea040": 2834,
      "46fe0": 2835,
      "f8ff0": 2836,
      "38fe0": 2837,
      "78fe0": 2838,
      "0x7fc15e05": 2839,
      "48fc0": 2840,
      "0x55bb3685": 2841,
      "0x55bb375b": 2842,
      "0x1780": 2843,
      "0x55bb378b": 2844,
      "0x55bb37cb": 2845,
      "e6fc0": 2846,
      "9afc0": 2847,
      "9ab0": 2848,
      "0x55bb3905": 2849,
      "0x55bb390b": 2850,
      "0x55bb372d": 2851,
      "94fc0": 2852,
      "0x55bb38cb": 2853,
      "0x55bb37bd": 2854,
      "0x55bb37db": 2855,
      "0x55bb36d4": 2856,
      "95fd0": 2857,
      "f3ff0": 2858,
      "f3fd0": 2859,
      "0x55bb3844": 2860,
      "0x55bb3a35": 2861,
      "0x55bb3a3b": 2862,
      "0x55bb38b5": 2863,
      "0x55bb38db": 2864,
      "0x55bb3b35": 2865,
      "0x55bb3b65": 2866,
      "0x55bb3b6b": 2867,
      "0x55bb3a2b": 2868,
      "e760": 2869,
      "0x55bb3a74": 2870,
      "0x55bb3b5b": 2871,
      "0x55bb36b4": 2872,
      "f2ff0": 2873,
      "0x55bb3bc57": 2874,
      "0x55bb3b44": 2875,
      "0x55bb3ad5": 2876,
      "fb010": 2877,
      "0x55bb3abd": 2878,
      "0x55bb3c34": 2879,
      "f940": 2880,
      "55fc0": 2881,
      "5aff0": 2882,
      "5afc0": 2883,
      "44ff0": 2884,
      "a3ff0": 2885,
      "d6ff0": 2886,
      "4afe0": 2887,
      "b1fe0": 2888,
      "b330": 2889,
      "ccfe0": 2890,
      "ccff0": 2891,
      "26d0": 2892,
      "26fe0": 2893,
      "96030": 2894,
      "b440": 2895,
      "acff0": 2896,
      "d780": 2897,
      "d4fc0": 2898,
      "77fc0": 2899,
      "e0020": 2900,
      "a6fd0": 2901,
      "5bd0": 2902,
      "47fc0": 2903,
      "c3fd0": 2904,
      "0x55bb3b7141e0": 2905,
      "0x55bb395a6dc0": 2906,
      "0x55bb3bc57d90": 2907,
      "4ff8": 2908,
      "768": 2909,
      "778": 2910,
      "95010": 2911,
      "98010": 2912,
      "9d010": 2913,
      "93030": 2914,
      "bd8": 2915,
      "db8": 2916,
      "d68": 2917,
      "efb0": 2918,
      "e1010": 2919,
      "e8020": 2920,
      "effe0": 2921,
      "f1010": 2922,
      "f6040": 2923,
      "10fc0": 2924,
      "d2fd0": 2925,
      "0x7fc15ff1": 2926,
      "0x7fc158000": 2927,
      "e0fe0": 2928,
      "e060": 2929,
      "30fe0": 2930,
      "50ff0": 2931,
      "0x55bb39fe": 2932,
      "0x55bb3bfe": 2933,
      "0x55bb3699": 2934,
      "96fc0": 2935,
      "86ff0": 2936,
      "7d020": 2937,
      "0x7fc160e5": 2938,
      "fe030": 2939,
      "0x7fc15e50": 2940,
      "0x7fc15e86": 2941,
      "0x7fc15e58": 2942,
      "0x7fc15e6c": 2943,
      "0x7fc15e5a": 2944,
      "0x7fc15eb1": 2945,
      "0x7fc15eb3": 2946,
      "0x7fc15e7c": 2947,
      "fd80": 2948,
      "fdfd0": 2949,
      "fc010": 2950,
      "60fd0": 2951,
      "0x7fc15fd2": 2952,
      "0x7fc15f46": 2953,
      "0x7fc15fe2": 2954,
      "68fd0": 2955,
      "0x7fc16135e8": 2956,
      "28fd0": 2957,
      "388": 2958,
      "a8fc0": 2959,
      "0x7fc15e15": 2960,
      "0x7fc15e25": 2961,
      "0x7fc15e2d": 2962,
      "0x55bb3705": 2963,
      "0x55bb385d": 2964,
      "0x55bb377b": 2965,
      "0x176": 2966,
      "0x55bb37c4": 2967,
      "0x55bb3735": 2968,
      "ecfc0": 2969,
      "d1fd0": 2970,
      "9aff0": 2971,
      "0x55bb3985": 2972,
      "94fd0": 2973,
      "0x55bb38c4": 2974,
      "0x55bb3955": 2975,
      "0x55bb3959": 2976,
      "0x55bb39ab": 2977,
      "0x55bb397d": 2978,
      "93fc0": 2979,
      "9360": 2980,
      "0x55bb39cd": 2981,
      "0x55bb3a55": 2982,
      "e3fc0": 2983,
      "0x55bb36db": 2984,
      "95fc0": 2985,
      "f3fc0": 2986,
      "0x55bb371b": 2987,
      "0x55bb3bb5": 2988,
      "0x55bb3c04": 2989,
      "e780": 2990,
      "0x55bb3b57": 2991,
      "97fc0": 2992,
      "0x55bb36b5": 2993,
      "0x55bb3c24": 2994,
      "0x55bb3c2b": 2995,
      "0x55bb3ac5": 2996,
      "0x55bb3ad4": 2997,
      "0x55bb3bd4": 2998,
      "f9fc0": 2999,
      "6aff0": 3000,
      "6afd0": 3001,
      "55ff0": 3002,
      "5cfc0": 3003,
      "bafe0": 3004,
      "42ff0": 3005,
      "52fd0": 3006,
      "d6fe0": 3007,
      "ee40": 3008,
      "4a60": 3009,
      "0x7fc15ed8": 3010,
      "caff0": 3011,
      "febb0": 3012,
      "9efd0": 3013,
      "76ff0": 3014,
      "d2020": 3015,
      "d2030": 3016,
      "ed030": 3017,
      "a1fc0": 3018,
      "31ff0": 3019,
      "bb040": 3020,
      "a4fd0": 3021,
      "0x55bb37e62d00": 3022,
      "0x55bb366a6": 3023,
      "118": 3024,
      "1c0": 3025,
      "9008": 3026,
      "9fa0": 3027,
      "9ffd0": 3028,
      "d98": 3029,
      "d58": 3030,
      "ef8": 3031,
      "eb010": 3032,
      "e9020": 3033,
      "e5020": 3034,
      "ef030": 3035,
      "eb040": 3036,
      "eed0": 3037,
      "fdc0": 3038,
      "f9010": 3039,
      "f3010": 3040,
      "f0010": 3041,
      "ff40": 3042,
      "bb50": 3043,
      "bbfe0": 3044,
      "eafe0": 3045,
      "e08": 3046,
      "0x7ffdd2ea6c60": 3047,
      "00fd0": 3048,
      "30fd0": 3049,
      "98fd0": 3050,
      "50fd0": 3051,
      "50fc0": 3052,
      "e3020": 3053,
      "d5030": 3054,
      "0x55bb3a9e": 3055,
      "c88": 3056,
      "c8fe0": 3057,
      "c8fd0": 3058,
      "0x7fc16040": 3059,
      "0x7fc160bf": 3060,
      "0x7fc16021": 3061,
      "0x7fc160d1": 3062,
      "0x7fc16043": 3063,
      "0x55bb36fe": 3064,
      "e1fc0": 3065,
      "0x7fc15ef4": 3066,
      "0x7fc15e43": 3067,
      "0x7fc15e4c": 3068,
      "0x7fc15eca": 3069,
      "b8fe0": 3070,
      "b8fc0": 3071,
      "fda0": 3072,
      "fdfc0": 3073,
      "fd020": 3074,
      "b0fe0": 3075,
      "b0fc0": 3076,
      "608": 3077,
      "0x7fc15fa0": 3078,
      "0x7fc15f95": 3079,
      "0x7fc15f97": 3080,
      "0x7fc15faa": 3081,
      "17fe0": 3082,
      "eb70": 3083,
      "0x55bb3580f040": 3084,
      "28fe0": 3085,
      "28fc0": 3086,
      "38ff0": 3087,
      "a8fd0": 3088,
      "4820": 3089,
      "d8fe0": 3090,
      "f1fd0": 3091,
      "0x55bb368b": 3092,
      "0x55bb368d": 3093,
      "0x55bb387320": 3094,
      "91a": 3095,
      "9190": 3096,
      "0x55bb3769": 3097,
      "ecfe0": 3098,
      "94d0": 3099,
      "0x55bb36a5": 3100,
      "0x55bb3965": 3101,
      "f6fd0": 3102,
      "f6fc0": 3103,
      "f410": 3104,
      "e4fc0": 3105,
      "e3fe0": 3106,
      "f710": 3107,
      "f5fd0": 3108,
      "0x55bb3a8c1": 3109,
      "dc020": 3110,
      "0x55bb392d": 3111,
      "0x55bb3a6b": 3112,
      "0x55bb3a45": 3113,
      "e5fe0": 3114,
      "0x55bb3bbfc": 3115,
      "0x55bb3b05": 3116,
      "e250": 3117,
      "0x55bb3a1b": 3118,
      "0x55bb3b3febb0": 3119,
      "0x55bb3b7d": 3120,
      "92fe0": 3121,
      "92fc0": 3122,
      "0x55bb36bd": 3123,
      "0x55bb3c27": 3124,
      "0x55bb3aab": 3125,
      "0x55bb3aad": 3126,
      "0x55bb3b2d": 3127,
      "0x55bb3c14": 3128,
      "0x55bb3c1d": 3129,
      "0x55bb3c3b": 3130,
      "e930": 3131,
      "41fe0": 3132,
      "6a30": 3133,
      "44fe0": 3134,
      "56fe0": 3135,
      "7310": 3136,
      "bcfd0": 3137,
      "4c50": 3138,
      "7aff0": 3139,
      "b1ff0": 3140,
      "f8030": 3141,
      "72fe0": 3142,
      "0x7fc15ffa": 3143,
      "74fd0": 3144,
      "96020": 3145,
      "2cfe0": 3146,
      "2cff0": 3147,
      "61ff0": 3148,
      "ed010": 3149,
      "bb020": 3150,
      "3cfe0": 3151,
      "36fc0": 3152,
      "86020": 3153,
      "0x1781": 3154,
      "0x55bb387bbfa0": 3155,
      "0x55bb387320c0": 3156,
      "278": 3157,
      "3e80": 3158,
      "558": 3159,
      "748": 3160,
      "7008": 3161,
      "9e30": 3162,
      "9ea0": 3163,
      "978": 3164,
      "9f010": 3165,
      "93010": 3166,
      "9f90": 3167,
      "aff8": 3168,
      "d38": 3169,
      "dd8": 3170,
      "e7fe0": 3171,
      "ef5": 3172,
      "e9010": 3173,
      "ec010": 3174,
      "e9040": 3175,
      "effd0": 3176,
      "f5020": 3177,
      "fffe0": 3178,
      "0xf": 3179,
      "fc60": 3180,
      "10c40": 3181,
      "0x38": 3182,
      "dc40": 3183,
      "dcfc0": 3184,
      "0x7fc15ea0": 3185,
      "308": 3186,
      "30ff0": 3187,
      "edff0": 3188,
      "0x55bb37ef": 3189,
      "0x55bb38fe": 3190,
      "f0fd0": 3191,
      "0x55bb3bee": 3192,
      "0x7fc160d0": 3193,
      "0x7fc16096": 3194,
      "1870": 3195,
      "86fe0": 3196,
      "23020": 3197,
      "e1d0": 3198,
      "70fd0": 3199,
      "0x7fc15e80": 3200,
      "0x7fc15e94": 3201,
      "0x7fc15ec1": 3202,
      "0x7fc15e97": 3203,
      "0x7fc15e76": 3204,
      "b8ff0": 3205,
      "90fc0": 3206,
      "fd3a0": 3207,
      "c0fd0": 3208,
      "60ff0": 3209,
      "0x7fc15f10": 3210,
      "0x7fc15f98": 3211,
      "0x7fc15f18": 3212,
      "0x7fc15feb": 3213,
      "0x7fc15fec": 3214,
      "68fe0": 3215,
      "6870": 3216,
      "21fc0": 3217,
      "28a0": 3218,
      "38fc0": 3219,
      "0x7fc15e09": 3220,
      "48fe0": 3221,
      "48fd0": 3222,
      "0x7fc15e1d": 3223,
      "0x7fc15e2b": 3224,
      "fafd0": 3225,
      "0x55bb36c4": 3226,
      "9cf0": 3227,
      "9c90": 3228,
      "9cfc0": 3229,
      "9afd0": 3230,
      "0x55bb3989": 3231,
      "0x55bb38cd": 3232,
      "0x55bb395b": 3233,
      "0x55bb37be": 3234,
      "0x55bb37d682f0": 3235,
      "0x55bb39c10c40": 3236,
      "e4fd0": 3237,
      "0x55bb3a5e2": 3238,
      "95fe0": 3239,
      "f320": 3240,
      "f390": 3241,
      "0x55bb384b": 3242,
      "0x55bb392b": 3243,
      "e5ff0": 3244,
      "0x55bb3bbfd3a0": 3245,
      "c1fc0": 3246,
      "0x7fc15e35": 3247,
      "e2fe0": 3248,
      "e2c0": 3249,
      "e2fc0": 3250,
      "0x55bb3c0d": 3251,
      "0x55bb3b3d": 3252,
      "0x55bb3b7b": 3253,
      "0x55bb39bd": 3254,
      "0x55bb3a7d": 3255,
      "92fd0": 3256,
      "97ff0": 3257,
      "97c0": 3258,
      "9dfd0": 3259,
      "0x55bb3b47": 3260,
      "0x55bb3adb": 3261,
      "0x55bb3add": 3262,
      "e9d0": 3263,
      "e9fc0": 3264,
      "0x55bb3bd5": 3265,
      "0x55bb3bdb": 3266,
      "99fd0": 3267,
      "99fc0": 3268,
      "41fc0": 3269,
      "41a20": 3270,
      "6ac0": 3271,
      "5550": 3272,
      "63fe0": 3273,
      "baff0": 3274,
      "b6fc0": 3275,
      "4240": 3276,
      "a3fd0": 3277,
      "dafe0": 3278,
      "d650": 3279,
      "7180": 3280,
      "ce030": 3281,
      "0x7fc15f8c": 3282,
      "cafd0": 3283,
      "fefc0": 3284,
      "33ff0": 3285,
      "76fd0": 3286,
      "54fe0": 3287,
      "54fc0": 3288,
      "d2040": 3289,
      "26ff0": 3290,
      "10040": 3291,
      "a1fe0": 3292,
      "31fe0": 3293,
      "d4fe0": 3294,
      "a6d0": 3295,
      "66fc0": 3296,
      "c3ff0": 3297,
      "c6ff0": 3298,
      "c6fd0": 3299,
      "1cff0": 3300,
      "0x7fc160e0f740": 3301,
      "59a0": 3302,
      "6ff8": 3303,
      "97d0": 3304,
      "9fff0": 3305,
      "90020": 3306,
      "ad8": 3307,
      "a280": 3308,
      "be8": 3309,
      "c28": 3310,
      "c9a0": 3311,
      "ebfe0": 3312,
      "e6040": 3313,
      "f48": 3314,
      "f0040": 3315,
      "0xffff": 3316,
      "bbe0": 3317,
      "bbff0": 3318,
      "eaff0": 3319,
      "eafd0": 3320,
      "0x7fc15fe1": 3321,
      "80fe0": 3322,
      "ed60": 3323,
      "0x55bb37fe": 3324,
      "0x55bb3aee": 3325,
      "0x55bb3bef": 3326,
      "c8fc0": 3327,
      "0x7fc16030": 3328,
      "a0fc0": 3329,
      "e1fe0": 3330,
      "ff040": 3331,
      "708": 3332,
      "0x7fc15ee8": 3333,
      "0x7fc15e78": 3334,
      "0x7fc15eec": 3335,
      "0x7fc15ee7": 3336,
      "0x7fc15e6a": 3337,
      "0x7fc15eb2": 3338,
      "0x7fc15e73": 3339,
      "b88": 3340,
      "b840": 3341,
      "fd60": 3342,
      "0x7fc15fe8": 3343,
      "0x7fc15f78": 3344,
      "0x7fc15f6a": 3345,
      "13fd0": 3346,
      "e8fc0": 3347,
      "f8fc0": 3348,
      "28180": 3349,
      "91fc0": 3350,
      "0x55bb37ae": 3351,
      "0x55bb376d": 3352,
      "ec00": 3353,
      "ecfd0": 3354,
      "d1fc0": 3355,
      "0x55bb38ae6": 3356,
      "0x55bb3969": 3357,
      "0x55bb397b": 3358,
      "0x55bb3a0b": 3359,
      "f41": 3360,
      "0x55bb39121": 3361,
      "fb40": 3362,
      "f5fe0": 3363,
      "0x55bb3a328180": 3364,
      "e560": 3365,
      "c1ff0": 3366,
      "e2ff0": 3367,
      "0x55bb3c05": 3368,
      "0x55bb3c0b": 3369,
      "0x55bb3b6d": 3370,
      "0x55bb3a7b": 3371,
      "0x55bb3b586": 3372,
      "f2fc0": 3373,
      "9b770": 3374,
      "0x55bb3bc5": 3375,
      "fb030": 3376,
      "11fc0": 3377,
      "53f0": 3378,
      "53a0": 3379,
      "53610": 3380,
      "f9fd0": 3381,
      "6ab0": 3382,
      "63ff0": 3383,
      "5afd0": 3384,
      "44fd0": 3385,
      "5c10": 3386,
      "43fd0": 3387,
      "a3fe0": 3388,
      "5610": 3389,
      "bcfc0": 3390,
      "4aff0": 3391,
      "7afd0": 3392,
      "ce020": 3393,
      "72fd0": 3394,
      "cafe0": 3395,
      "aafd0": 3396,
      "aafc0": 3397,
      "d3fe0": 3398,
      "d3fc0": 3399,
      "5480": 3400,
      "54a0": 3401,
      "2afe0": 3402,
      "0x7fc15f0d": 3403,
      "2ca0": 3404,
      "10020": 3405,
      "51fe0": 3406,
      "51ff0": 3407,
      "a6ff0": 3408,
      "0x7fc15f3a": 3409,
      "5760": 3410,
      "3aff0": 3411,
      "36ff0": 3412,
      "c4c0": 3413,
      "86010": 3414,
      "86040": 3415,
      "b760": 3416,
      "2580": 3417,
      "0x55bb3a28e9c0": 3418,
      "0x55bb3a282ca0": 3419,
      "0x55bb38888630": 3420,
      "0x55bb37d226d0": 3421,
      "0x55bb393cbc00": 3422,
      "0x55bb3b721850": 3423,
      "0x55bb3a0aec80": 3424,
      "0x55bb366a6930": 3425,
      "2e8": 3426,
      "2fb0": 3427,
      "3d8": 3428,
      "4b8": 3429,
      "428": 3430,
      "7ff8": 3431,
      "90010": 3432,
      "9b020": 3433,
      "b38": 3434,
      "c68": 3435,
      "cff8": 3436,
      "cbc0": 3437,
      "dfb0": 3438,
      "de80": 3439,
      "efa0": 3440,
      "e7020": 3441,
      "e8030": 3442,
      "e5030": 3443,
      "f7d0": 3444,
      "f5010": 3445,
      "fbfe0": 3446,
      "f5030": 3447,
      "fbfd0": 3448,
      "f7030": 3449,
      "f2030": 3450,
      "f3030": 3451,
      "fcd0": 3452,
      "0x26": 3453,
      "dc140": 3454,
      "00fc0": 3455,
      "30e70": 3456,
      "edfd0": 3457,
      "50fe0": 3458,
      "0x55bb39ef": 3459,
      "0x55bb3aef": 3460,
      "0x7fc16080": 3461,
      "0x7fc16018": 3462,
      "0x7fc1609c": 3463,
      "0x7fc16092": 3464,
      "0x7fc16072": 3465,
      "0x7fc160d7": 3466,
      "bf30": 3467,
      "0x55bb3652": 3468,
      "96fd0": 3469,
      "96b0": 3470,
      "18fd0": 3471,
      "18fc0": 3472,
      "7d030": 3473,
      "23040": 3474,
      "0x7fc160e34000": 3475,
      "0x7fc15e5c": 3476,
      "0x7fc15e4a": 3477,
      "0x7fc15e77": 3478,
      "90fd0": 3479,
      "fd010": 3480,
      "b0cc0": 3481,
      "60500": 3482,
      "0x7fc15f60": 3483,
      "0x7fc15f17": 3484,
      "0x7fc15f94": 3485,
      "0x7fc15f93": 3486,
      "0x7fc15f4a": 3487,
      "0x7fc15fb1": 3488,
      "0x7fc15f24": 3489,
      "13ff0": 3490,
      "17fc0": 3491,
      "f8fd0": 3492,
      "489c0": 3493,
      "d8fc0": 3494,
      "0x7fc15e24": 3495,
      "fab0": 3496,
      "e670": 3497,
      "9a80": 3498,
      "9a50": 3499,
      "9a90": 3500,
      "94f0": 3501,
      "0x55bb396b": 3502,
      "0x55bb395d": 3503,
      "0x55bb38155": 3504,
      "0x55bb381200": 3505,
      "e430": 3506,
      "0x55bb3a5da": 3507,
      "fbfc0": 3508,
      "fb3f0": 3509,
      "95c0": 3510,
      "f7fd0": 3511,
      "f310": 3512,
      "f3fe0": 3513,
      "f500": 3514,
      "0x55bb3a8d": 3515,
      "dc030": 3516,
      "0x55bb3a460500": 3517,
      "e5fc0": 3518,
      "0x55bb3b0fb3f0": 3519,
      "0x55bb38b52330": 3520,
      "0x7fc15e3a": 3521,
      "0x55bb38d9": 3522,
      "0x55bb3b6b0cc0": 3523,
      "0x55bb3b5a0": 3524,
      "0x55bb3bad": 3525,
      "f2fe0": 3526,
      "9b40": 3527,
      "9df0": 3528,
      "9dfc0": 3529,
      "0x55bb3ac91": 3530,
      "0x55bb3b4d": 3531,
      "0x55bb3ad30e70": 3532,
      "9900": 3533,
      "f9fe0": 3534,
      "4150": 3535,
      "6afe0": 3536,
      "fa020": 3537,
      "b2fe0": 3538,
      "b2fc0": 3539,
      "b260": 3540,
      "42b0": 3541,
      "56b0": 3542,
      "52fe0": 3543,
      "d660": 3544,
      "0x7fc15e83": 3545,
      "0x7fc15e85": 3546,
      "b1c0": 3547,
      "b1fc0": 3548,
      "33fd0": 3549,
      "33fc0": 3550,
      "7690": 3551,
      "0x7fc15fc6": 3552,
      "0x7fc15e66": 3553,
      "0x7fc15f0c": 3554,
      "10030": 3555,
      "75fc0": 3556,
      "ef00": 3557,
      "acfc0": 3558,
      "d7b0": 3559,
      "5bf0": 3560,
      "0x7fc15ecd": 3561,
      "3cfd0": 3562,
      "24fe0": 3563,
      "24fc0": 3564,
      "3afe0": 3565,
      "0x7fc16114c0": 3566,
      "0x7fc1611c2": 3567,
      "0x7fc1611dc140": 3568,
      "c3fe0": 3569,
      "b7fc0": 3570,
      "1a00": 3571,
      "1afd0": 3572,
      "0x55bb3bbfce20": 3573,
      "0x55bb39121ea0": 3574,
      "0x55bb3b586250": 3575,
      "0x7fc16114c0a0": 3576,
      "1980": 3577,
      "4f80": 3578,
      "4d00": 3579,
      "5d8": 3580,
      "5e50": 3581,
      "698": 3582,
      "7d8": 3583,
      "917": 3584,
      "99020": 3585,
      "95030": 3586,
      "9f030": 3587,
      "97030": 3588,
      "98040": 3589,
      "9c040": 3590,
      "a98": 3591,
      "af8": 3592,
      "b78": 3593,
      "c38": 3594,
      "cb10": 3595,
      "df80": 3596,
      "e5010": 3597,
      "e8010": 3598,
      "e4020": 3599,
      "effc0": 3600,
      "ee020": 3601,
      "ec020": 3602,
      "ebfd0": 3603,
      "e8040": 3604,
      "f5040": 3605,
      "f0020": 3606,
      "fffc0": 3607,
      "fcfd0": 3608,
      "ea10": 3609,
      "d230": 3610,
      "dc30": 3611,
      "dc90": 3612,
      "20fe0": 3613,
      "0x7fc15ffd": 3614,
      "e0fd0": 3615,
      "0x10b": 3616,
      "00ff0": 3617,
      "009c0": 3618,
      "eda0": 3619,
      "9840": 3620,
      "fffffff": 3621,
      "0x1d0": 3622,
      "408": 3623,
      "40fd0": 3624,
      "40fc0": 3625,
      "0x55bb39d88": 3626,
      "0x7fc16068": 3627,
      "0x7fc16058": 3628,
      "0x7fc16097": 3629,
      "0x7fc160d6": 3630,
      "0x7fc1604a": 3631,
      "0x7fc160ca": 3632,
      "0x7fc16061": 3633,
      "0x7fc160c7": 3634,
      "bf80": 3635,
      "0x55bb3642": 3636,
      "a050": 3637,
      "a0fe0": 3638,
      "a0340": 3639,
      "96ed0": 3640,
      "86fc0": 3641,
      "70fc0": 3642,
      "0x7fc15efc": 3643,
      "0x7fc15ee1": 3644,
      "0x7fc15e70": 3645,
      "0x7fc15e68": 3646,
      "0x7fc15ee6": 3647,
      "0x7fc15efb": 3648,
      "0x7fc15ef3": 3649,
      "0x7fc15eb6": 3650,
      "0x7fc15e72": 3651,
      "0x7fc15ecc": 3652,
      "0x7fc15eb4": 3653,
      "b8fd0": 3654,
      "fdb0": 3655,
      "c0fc0": 3656,
      "60fe0": 3657,
      "0x55bb357": 3658,
      "0x7fc15f96": 3659,
      "0x7fc15f90": 3660,
      "0x7fc15f58": 3661,
      "0x7fc15fe3": 3662,
      "0x7fc15f53": 3663,
      "0x7fc15f63": 3664,
      "0x7fc15f44": 3665,
      "0x7fc15fba": 3666,
      "0x7fc15fb6": 3667,
      "0x7fc15f43": 3668,
      "ea010": 3669,
      "4640": 3670,
      "46fd0": 3671,
      "e8fd0": 3672,
      "f8b0": 3673,
      "781d0": 3674,
      "4800": 3675,
      "5800": 3676,
      "58fe0": 3677,
      "d870": 3678,
      "0x7fc15e1b": 3679,
      "9180": 3680,
      "9170": 3681,
      "9c70": 3682,
      "ec60": 3683,
      "d1d0": 3684,
      "0xad": 3685,
      "f6e0": 3686,
      "f6fe0": 3687,
      "0x55bb39530": 3688,
      "9330": 3689,
      "e330": 3690,
      "fbff0": 3691,
      "fb2f0": 3692,
      "9520": 3693,
      "f5e30": 3694,
      "0x55bb3a3d": 3695,
      "dc0e0": 3696,
      "0x55bb3a4dc0e0": 3697,
      "e5c0": 3698,
      "0x55bb3b0781d0": 3699,
      "c1f0": 3700,
      "0x55bb3b85": 3701,
      "0x55bb3c0fb2f0": 3702,
      "0x55bb3b341a20": 3703,
      "0x122": 3704,
      "0x55bb3a2e": 3705,
      "0x55bb3b5d": 3706,
      "92c0": 3707,
      "0x55bb3c2d": 3708,
      "0x55bb3bcb": 3709,
      "0x55bb3b2b": 3710,
      "0x55bb3acb": 3711,
      "0x55bb3ad53": 3712,
      "0x55bb3ad009c0": 3713,
      "e950": 3714,
      "99e0": 3715,
      "99b0": 3716,
      "11fd0": 3717,
      "5a10": 3718,
      "5cb0": 3719,
      "ba30": 3720,
      "b6fe0": 3721,
      "b6fd0": 3722,
      "42fe0": 3723,
      "daf0": 3724,
      "dafc0": 3725,
      "d6fc0": 3726,
      "71a0": 3727,
      "7a80": 3728,
      "9efc0": 3729,
      "76fe0": 3730,
      "0x7fc15ff7": 3731,
      "54fd0": 3732,
      "20040": 3733,
      "2afd0": 3734,
      "0x7fc15f07": 3735,
      "26fd0": 3736,
      "74c0": 3737,
      "2cfc0": 3738,
      "0x7fc15f12": 3739,
      "0x7fc15f16": 3740,
      "0x7fc15f1c": 3741,
      "75d0": 3742,
      "75a0": 3743,
      "61fc0": 3744,
      "efe8": 3745,
      "d7fd0": 3746,
      "0x7fc15fd7": 3747,
      "3120": 3748,
      "3150": 3749,
      "77b0": 3750,
      "a6fe0": 3751,
      "a6fc0": 3752,
      "0x7fc15ec3": 3753,
      "57fd0": 3754,
      "0x55bb399a0340": 3755,
      "47fd0": 3756,
      "0x7fc16003": 3757,
      "27a0": 3758,
      "16ff0": 3759,
      "16fd0": 3760,
      "0x55bb3a5ce310": 3761,
      "0x55bb3993a280": 3762,
      "0x55bb39951a00": 3763,
      "0x10297": 3764,
      "0x55bb38f71390": 3765,
      "0x55bb3c28ec00": 3766,
      "0x55bb39432580": 3767,
      "0x55bb3a48ede0": 3768,
      "0x55bb38cae920": 3769,
      "0x55bb3bd03e80": 3770,
      "0x55bb3b329c20": 3771,
      "0x55bb3c02d7e0": 3772,
      "0x55bb3b8428a0": 3773,
      "0x55bb3b8dbb00": 3774,
      "0x55bb3a8c1610": 3775,
      "0x55bb38ae6e30": 3776,
      "0x55bb38120050": 3777,
      "0x55bb3a5dad20": 3778,
      "0x55bb3b5a06e0": 3779,
      "0x55bb3ac91c80": 3780,
      "0x7fc1611c2d30": 3781,
      "0x55bb3ad53410": 3782,
      "198": 3783,
      "498": 3784,
      "438": 3785,
      "4d8": 3786,
      "441": 3787,
      "810": 3788,
      "8c0": 3789,
      "9bb": 3790,
      "9d50": 3791,
      "9e6": 3792,
      "9b010": 3793,
      "9bfe0": 3794,
      "92020": 3795,
      "9bfd0": 3796,
      "91040": 3797,
      "9d040": 3798,
      "9c030": 3799,
      "9d030": 3800,
      "9f00": 3801,
      "b58": 3802,
      "d48": 3803,
      "df00": 3804,
      "efff0": 3805,
      "ef90": 3806,
      "e4040": 3807,
      "e860": 3808,
      "f1030": 3809,
      "ff10": 3810,
      "ffffef5": 3811,
      "fcf0": 3812,
      "bbfd0": 3813,
      "0x7fc161": 3814,
      "eae0": 3815,
      "eaa0": 3816,
      "d2fc0": 3817,
      "20fc0": 3818,
      "0x7fc158": 3819,
      "0x7fc15ff0": 3820,
      "e080": 3821,
      "ed10": 3822,
      "edd0": 3823,
      "ed90": 3824,
      "98a0": 3825,
      "98fc0": 3826,
      "0x7ffdd2ea73f0": 3827,
      "e3030": 3828,
      "d0fe0": 3829,
      "d0fd0": 3830,
      "f0fc0": 3831,
      "0x7fc16086": 3832,
      "0x7fc160a8": 3833,
      "0x7fc16094": 3834,
      "0x7fc1609b": 3835,
      "0x7fc160a3": 3836,
      "0x7fc160b3": 3837,
      "0x7fc1605b": 3838,
      "0x7fc160dd": 3839,
      "bfd8": 3840,
      "a0fd0": 3841,
      "9620": 3842,
      "9600": 3843,
      "e1c0": 3844,
      "ff010": 3845,
      "0x7fc15ef0": 3846,
      "0x7fc15e96": 3847,
      "0x7fc15e60": 3848,
      "0x7fc15e95": 3849,
      "0x7fc15e41": 3850,
      "0x7fc15e47": 3851,
      "0x7fc15e5d": 3852,
      "90fe0": 3853,
      "b0ff0": 3854,
      "60fc0": 3855,
      "0x7fc15f00": 3856,
      "0x7fc15f86": 3857,
      "0x7fc15f48": 3858,
      "0x7fc15f6c": 3859,
      "0x7fc15f5a": 3860,
      "0x7fc15f42": 3861,
      "0x7fc15f2a": 3862,
      "0x7fc15f26": 3863,
      "0x7fc15f31": 3864,
      "0x7fc15f57": 3865,
      "68fc0": 3866,
      "17270": 3867,
      "eb50": 3868,
      "46e0": 3869,
      "0x881": 3870,
      "3800": 3871,
      "f1fc0": 3872,
      "fae20": 3873,
      "91fe0": 3874,
      "9160": 3875,
      "0x55bb37cb2": 3876,
      "d150": 3877,
      "0x55bb388d": 3878,
      "0x55bb39373": 3879,
      "9430": 3880,
      "f670": 3881,
      "f4fd0": 3882,
      "9500": 3883,
      "f720": 3884,
      "e5a0": 3885,
      "0x55bb3b063": 3886,
      "0x55bb3b896ed0": 3887,
      "0x55bb3b6fae20": 3888,
      "e7fd0": 3889,
      "0x55bb39b946": 3890,
      "0xeffffef5": 3891,
      "9bf0": 3892,
      "9bc0": 3893,
      "0xb2": 3894,
      "9940": 3895,
      "5350": 3896,
      "6c70": 3897,
      "6cfc0": 3898,
      "41fd0": 3899,
      "6a10": 3900,
      "fa040": 3901,
      "63e0": 3902,
      "5ae0": 3903,
      "5a50": 3904,
      "5cd0": 3905,
      "5ca0": 3906,
      "ba00": 3907,
      "b6ff0": 3908,
      "42fd0": 3909,
      "a3c0": 3910,
      "5600": 3911,
      "56fd0": 3912,
      "52ff0": 3913,
      "73fd0": 3914,
      "d6fd0": 3915,
      "4a00": 3916,
      "0x7fc15e8c": 3917,
      "71ff0": 3918,
      "71fd0": 3919,
      "7ac0": 3920,
      "0x7fc15ed4": 3921,
      "b190": 3922,
      "0x7fc15f81": 3923,
      "33c0": 3924,
      "9e70": 3925,
      "0x7fc15ea3": 3926,
      "aac0": 3927,
      "23a0": 3928,
      "23fe0": 3929,
      "7cfd0": 3930,
      "0x7fc15e62": 3931,
      "2afc0": 3932,
      "26fc0": 3933,
      "7480": 3934,
      "2cfd0": 3935,
      "75fd0": 3936,
      "61fe0": 3937,
      "ed020": 3938,
      "5160": 3939,
      "ef70": 3940,
      "a1fd0": 3941,
      "0x55bb37917270": 3942,
      "d4fd0": 3943,
      "77e0": 3944,
      "7770": 3945,
      "bb030": 3946,
      "3ca0": 3947,
      "3afd0": 3948,
      "36fa0": 3949,
      "9a0946": 3950,
      "dd70": 3951,
      "0x7fc16137bb50": 3952,
      "5df0": 3953,
      "c6fe0": 3954,
      "1afe0": 3955,
      "0x7fc1606dc": 3956,
      "0x55bb3a5c75a0": 3957,
      "0x55bb3848cb10": 3958,
      "0x55bb3b716870": 3959,
      "0x55bb3c17c4c0": 3960,
      "0x55bb39c3f270": 3961,
      "0x55bb3b954d00": 3962,
      "0x55bb3ac0ff40": 3963,
      "0x55bb3a6374e0": 3964,
      "0x55bb38a8d0d0": 3965,
      "0x55bb3b06f740": 3966,
      "0x55bb3aff9ea0": 3967,
      "0x55bb39d74240": 3968,
      "0xff491a": 3969,
      "0x55bb3a5e24d0": 3970,
      "0x55bb38155550": 3971,
      "0x55bb39d88b90": 3972,
      "0x55bb39530f90": 3973,
      "0x55bb39373ad0": 3974,
      "0x55bb3b063d20": 3975,
      "0x55bb39b94600": 3976,
      "0xff491a9a0946": 3977,
      "1b8": 3978,
      "2b8": 3979,
      "228": 3980,
      "2a8": 3981,
      "348": 3982,
      "3f50": 3983,
      "4fb0": 3984,
      "518": 3985,
      "538": 3986,
      "8b0": 3987,
      "9a010": 3988,
      "9d8": 3989,
      "95020": 3990,
      "9a030": 3991,
      "92030": 3992,
      "ae8": 3993,
      "bc8": 3994,
      "b9a0": 3995,
      "c98": 3996,
      "c58": 3997,
      "c9d0": 3998,
      "d960": 3999,
      "ec8": 4000,
      "e2020": 4001,
      "e4030": 4002,
      "e5040": 4003,
      "e100": 4004,
      "e2040": 4005,
      "ec030": 4006,
      "eb030": 4007,
      "f7fe0": 4008,
      "f92": 4009,
      "f4020": 4010,
      "f7020": 4011,
      "f3020": 4012,
      "f6020": 4013,
      "fd20": 4014,
      "f4040": 4015,
      "f6030": 4016,
      "f0030": 4017,
      "fc30": 4018,
      "fcfc0": 4019,
      "10fd0": 4020,
      "bbd0": 4021,
      "bbc0": 4022,
      "d200": 4023,
      "d290": 4024,
      "20fd0": 4025,
      "0x7fc15ff8": 4026,
      "0x7fc15f08": 4027,
      "e0bb0": 4028,
      "0x2b3": 4029,
      "00fe0": 4030,
      "00d90": 4031,
      "0x7fc15def": 4032,
      "d0fc0": 4033,
      "c880": 4034,
      "0x7fc160b0": 4035,
      "0x7fc1609a": 4036,
      "0x7fc1609d": 4037,
      "0x7fc1605c": 4038,
      "0x7fc1604c": 4039,
      "bf40": 4040,
      "0x55bb3650": 4041,
      "0x55bb3640": 4042,
      "0x55bb3633": 4043,
      "a08": 4044,
      "23030": 4045,
      "fe020": 4046,
      "70d0": 4047,
      "0x7fc15eff": 4048,
      "0x7fc15ee0": 4049,
      "0x7fc15ec8": 4050,
      "0x7fc15ebf": 4051,
      "0x7fc15eeb": 4052,
      "0x7fc15e71": 4053,
      "b8e0": 4054,
      "90d90": 4055,
      "fd420": 4056,
      "c080": 4057,
      "fd040": 4058,
      "6060": 4059,
      "0x7fc15f28": 4060,
      "0x7fc15fe7": 4061,
      "0x7fc15fb2": 4062,
      "0x7fc15fa3": 4063,
      "0x7fc15fb3": 4064,
      "0x7fc15f7c": 4065,
      "0x7fc15f5d": 4066,
      "1300": 4067,
      "68d0": 4068,
      "17a0": 4069,
      "17c0": 4070,
      "eb210": 4071,
      "21fd0": 4072,
      "0x7fc1613a": 4073,
      "0x7fc16137c": 4074,
      "f82c0": 4075,
      "38c0": 4076,
      "588": 4077,
      "58a0": 4078,
      "d850": 4079,
      "d8fd0": 4080,
      "fafc0": 4081,
      "0x55bb36cf": 4082,
      "91e0": 4083,
      "ec90": 4084,
      "d1b0": 4085,
      "e610": 4086,
      "9a20": 4087,
      "0x1cb": 4088,
      "0x55bb393c1": 4089,
      "0x55bb396e0bb0": 4090,
      "f690": 4091,
      "0x1a5": 4092,
      "0x55bb38153610": 4093,
      "0x55bb39afd420": 4094,
      "0x55bb3a0988": 4095,
      "000000": 4096,
      "e470": 4097,
      "0x55bb3a59": 4098,
      "0x55bb3a563": 4099,
      "fb90": 4100,
      "0x55bb3a890d90": 4101,
      "e500": 4102,
      "0x55bb3b036fa0": 4103,
      "c120": 4104,
      "c1fd0": 4105,
      "e220": 4106,
      "e2e0": 4107,
      "e7f0": 4108,
      "0x55bb3b5f28": 4109,
      "0x55bb3b5f5e30": 4110,
      "0x55bb3b5f82c0": 4111,
      "92490": 4112,
      "97fd0": 4113,
      "f2fd0": 4114,
      "9b80": 4115,
      "9bfc0": 4116,
      "9b60": 4117,
      "0x55bb3bcc7": 4118,
      "0x55bb3b292490": 4119,
      "0x55bb3b4b00": 4120,
      "0x55bb3c19b770": 4121,
      "fb040": 4122,
      "0xbc": 4123,
      "0x55bb3c3d": 4124,
      "e910": 4125,
      "e970": 4126,
      "11f0": 4127,
      "11ff0": 4128,
      "5320": 4129,
      "53ff0": 4130,
      "6cfe0": 4131,
      "4160": 4132,
      "6a80": 4133,
      "6320": 4134,
      "63a0": 4135,
      "b2fd0": 4136,
      "5c80": 4137,
      "ba90": 4138,
      "4320": 4139,
      "a350": 4140,
      "a3b0": 4141,
      "a360": 4142,
      "5670": 4143,
      "5240": 4144,
      "52fc0": 4145,
      "da90": 4146,
      "bcfe0": 4147,
      "d680": 4148,
      "4cd0": 4149,
      "4ad0": 4150,
      "4afc0": 4151,
      "71fc0": 4152,
      "7ae0": 4153,
      "b1fd0": 4154,
      "caf0": 4155,
      "fe40": 4156,
      "7620": 4157,
      "2310": 4158,
      "23fd0": 4159,
      "d370": 4160,
      "d3b0": 4161,
      "ccfd0": 4162,
      "f9030": 4163,
      "7420": 4164,
      "b4fd0": 4165,
      "b4b0": 4166,
      "ef20": 4167,
      "d7fc0": 4168,
      "31fd0": 4169,
      "31fc0": 4170,
      "4710": 4171,
      "24fd0": 4172,
      "3afc0": 4173,
      "36d0": 4174,
      "36fe0": 4175,
      "0x7fc1611d5": 4176,
      "a4fe0": 4177,
      "0x7fc15e768": 4178,
      "5dff8": 4179,
      "c6fc0": 4180,
      "1a80": 4181,
      "1cfe0": 4182,
      "db70": 4183,
      "d540": 4184,
      "0x7fc16012": 4185,
      "0x7fc1601d": 4186,
      "0x55bb3bf489c0": 4187,
      "0x55bb368459a0": 4188,
      "0x55bb39e2f410": 4189,
      "0x55bb38f653a0": 4190,
      "0x55bb3b28d120": 4191,
      "0x55bb38ac7310": 4192,
      "0x55bb3872aac0": 4193,
      "0x55bb3931ec80": 4194,
      "0x55bb3976ebd0": 4195,
      "0x55bb39bce5c0": 4196,
      "0x55bb3973d6d0": 4197,
      "0x55bb3a671850": 4198,
      "0x55bb3a76fd80": 4199,
      "0x55bb398b6ac0": 4200,
      "0x10283": 4201,
      "0x10287": 4202,
      "0x7fc158000b70": 4203,
      "0x55bb37cb2d60": 4204,
      "0x55bb393c1df0": 4205,
      "0x55bb3a0988f0": 4206,
      "0x55bb3b5f2870": 4207,
      "0x55bb3bcc79b0": 4208,
      "0x55bb3b4b00f0": 4209,
      "0x7fc1611d5f78": 4210,
      "128": 4211,
      "1fa0": 4212,
      "1b10": 4213,
      "3fb0": 4214,
      "4a8": 4215,
      "448": 4216,
      "4930": 4217,
      "578": 4218,
      "5a8": 4219,
      "5fb0": 4220,
      "5fe8": 4221,
      "628": 4222,
      "658": 4223,
      "6f30": 4224,
      "798": 4225,
      "7c8": 4226,
      "7d30": 4227,
      "7f10": 4228,
      "9efe0": 4229,
      "98020": 4230,
      "9ffe0": 4231,
      "9a020": 4232,
      "92040": 4233,
      "91030": 4234,
      "9a040": 4235,
      "93040": 4236,
      "90040": 4237,
      "9fc8": 4238,
      "abc0": 4239,
      "b230": 4240,
      "bea0": 4241,
      "b860": 4242,
      "bd30": 4243,
      "bef0": 4244,
      "cc8": 4245,
      "dff": 4246,
      "e7040": 4247,
      "e6020": 4248,
      "e1040": 4249,
      "eb020": 4250,
      "e1030": 4251,
      "ee040": 4252,
      "efd8": 4253,
      "f8020": 4254,
      "f4030": 4255,
      "f1040": 4256,
      "0xe5": 4257,
      "fc20": 4258,
      "fc50": 4259,
      "fca0": 4260,
      "fc70": 4261,
      "fc78": 4262,
      "0x7fc1612": 4263,
      "ea00": 4264,
      "ea50": 4265,
      "eac0": 4266,
      "d240": 4267,
      "d260": 4268,
      "ffd8": 4269,
      "dcfd0": 4270,
      "80fc0": 4271,
      "ed00": 4272,
      "9820": 4273,
      "5090": 4274,
      "50b10": 4275,
      "0x7fc16050": 4276,
      "0x7fc160c8": 4277,
      "0x7fc1606a": 4278,
      "0x7fc16033": 4279,
      "0x7fc160ac": 4280,
      "0x7fc16066": 4281,
      "bfb8": 4282,
      "bf60": 4283,
      "0x55bb3630": 4284,
      "0x55bb3623": 4285,
      "96d0": 4286,
      "96e80": 4287,
      "0x7fc160e33": 4288,
      "fe010": 4289,
      "7050": 4290,
      "0x7fc15e98": 4291,
      "0x7fc15ee2": 4292,
      "0x7fc15ef2": 4293,
      "0x7fc15ee9": 4294,
      "0x7fc15e51": 4295,
      "b810": 4296,
      "fdd0": 4297,
      "c0fe0": 4298,
      "c060": 4299,
      "0x7fc15fbb": 4300,
      "0x7fc15f40": 4301,
      "0x7fc15f13": 4302,
      "0x7fc15fe6": 4303,
      "0x7fc15f9d": 4304,
      "0x7fc15f55": 4305,
      "0x7fc15f7a": 4306,
      "0x7fc15f66": 4307,
      "0x7fc15f47": 4308,
      "1340": 4309,
      "13d0": 4310,
      "13f0": 4311,
      "1720": 4312,
      "1700": 4313,
      "1730": 4314,
      "eb20": 4315,
      "4600": 4316,
      "2180": 4317,
      "21b0": 4318,
      "e8a0": 4319,
      "5810": 4320,
      "d8f0": 4321,
      "d8b90": 4322,
      "0x7fc15e1e": 4323,
      "fa10": 4324,
      "fa40": 4325,
      "9120": 4326,
      "9cfe0": 4327,
      "9cb0": 4328,
      "ec10": 4329,
      "ecf0": 4330,
      "0x55bb38858": 4331,
      "9a60": 4332,
      "9450": 4333,
      "0x1d5": 4334,
      "0x55bb38c32": 4335,
      "f630": 4336,
      "f6f0": 4337,
      "0x55bb39a72": 4338,
      "9380": 4339,
      "f460": 4340,
      "e460": 4341,
      "fb50": 4342,
      "f3b0": 4343,
      "e580": 4344,
      "c1fe0": 4345,
      "e2a0": 4346,
      "e790": 4347,
      "0x55bb3baac": 4348,
      "9210": 4349,
      "9710": 4350,
      "9da0": 4351,
      "9d70": 4352,
      "0x55bb3abd8b90": 4353,
      "e9f0": 4354,
      "1140": 4355,
      "11fe0": 4356,
      "5310": 4357,
      "5330": 4358,
      "5360": 4359,
      "6cfd0": 4360,
      "6330": 4361,
      "63fc0": 4362,
      "b2c0": 4363,
      "5af0": 4364,
      "5a70": 4365,
      "5a60": 4366,
      "44fc0": 4367,
      "5c00": 4368,
      "5c70": 4369,
      "ba40": 4370,
      "b670": 4371,
      "42d0": 4372,
      "a3fc0": 4373,
      "5660": 4374,
      "73fc0": 4375,
      "da00": 4376,
      "dafd0": 4377,
      "d610": 4378,
      "eefc0": 4379,
      "eeb0": 4380,
      "4c60": 4381,
      "4aa0": 4382,
      "0x7fc15e82": 4383,
      "0x7fc15e87": 4384,
      "7ad0": 4385,
      "7afe0": 4386,
      "b1940": 4387,
      "9ee0": 4388,
      "7650": 4389,
      "76d0": 4390,
      "0x7fc15fca": 4391,
      "23f0": 4392,
      "7c80": 4393,
      "d320": 4394,
      "0x7fc15ff3": 4395,
      "0x7fc15ff6": 4396,
      "0x7fc15ffc": 4397,
      "0x7fc15fff4": 4398,
      "0x7fc15e6b": 4399,
      "54e0": 4400,
      "5400": 4401,
      "0x7fc15f04": 4402,
      "74fe0": 4403,
      "96040": 4404,
      "0x7fc15f1a": 4405,
      "75b0": 4406,
      "6190": 4407,
      "61fd0": 4408,
      "5180": 4409,
      "51fc0": 4410,
      "b4fe0": 4411,
      "ac10": 4412,
      "0x7fc15fd4": 4413,
      "0x7fc15fd8": 4414,
      "a1b0": 4415,
      "d480": 4416,
      "e0030": 4417,
      "e0040": 4418,
      "0x7fc15f36": 4419,
      "57c0": 4420,
      "66ff0": 4421,
      "66c0": 4422,
      "0x55bb39996e80": 4423,
      "3cfc0": 4424,
      "4720": 4425,
      "2480": 4426,
      "0x7fc15e45": 4427,
      "0x7fc15e4b": 4428,
      "b7fd0": 4429,
      "dd00": 4430,
      "dd60": 4431,
      "0x7fc15f65": 4432,
      "0x7fc15f69": 4433,
      "5dfb0": 4434,
      "1cfd0": 4435,
      "dbd0": 4436,
      "d530": 4437,
      "14fd0": 4438,
      "16fe0": 4439,
      "16fc0": 4440,
      "a7e0": 4441,
      "0x55bb3778b330": 4442,
      "0x55bb38bbca30": 4443,
      "0x7ffdd2ea70a8": 4444,
      "0x55bb39c023f0": 4445,
      "0x55bb399c77b0": 4446,
      "0x55bb389ce060": 4447,
      "0x55bb395170d0": 4448,
      "0x55bb39eb1980": 4449,
      "0x55bb3990df80": 4450,
      "0x55bb39f83120": 4451,
      "0x55bb3ad0e400": 4452,
      "0x55bb39ffe400": 4453,
      "0x55bb3b019300": 4454,
      "0x55bb3a2ce760": 4455,
      "0x7fc16105c000": 4456,
      "0x55bb390d5480": 4457,
      "0x55bb38aee790": 4458,
      "0x55bb3b8bdaf0": 4459,
      "0x237": 4460,
      "0xff456": 4461,
      "0x55bb3a563330": 4462,
      "0x55bb38c32950": 4463,
      "0x55bb39a727d0": 4464,
      "0x55bb3baacf60": 4465,
      "148": 4466,
      "1270": 4467,
      "2d10": 4468,
      "398": 4469,
      "37d0": 4470,
      "378": 4471,
      "478": 4472,
      "49a0": 4473,
      "598": 4474,
      "528": 4475,
      "5fa0": 4476,
      "5960": 4477,
      "5fd8": 4478,
      "5fb8": 4479,
      "5930": 4480,
      "638": 4481,
      "7a8": 4482,
      "758": 4483,
      "7e50": 4484,
      "7dd0": 4485,
      "8ba0": 4486,
      "97040": 4487,
      "9f5": 4488,
      "97020": 4489,
      "9c020": 4490,
      "90030": 4491,
      "9f20": 4492,
      "9f70": 4493,
      "9f40": 4494,
      "ac8": 4495,
      "a28": 4496,
      "a008": 4497,
      "be20": 4498,
      "b920": 4499,
      "b970": 4500,
      "b9e0": 4501,
      "cfb0": 4502,
      "c930": 4503,
      "dd20": 4504,
      "df90": 4505,
      "dfb8": 4506,
      "de90": 4507,
      "de70": 4508,
      "e568": 4509,
      "ef020": 4510,
      "e2030": 4511,
      "e6030": 4512,
      "efc8": 4513,
      "f7040": 4514,
      "ffb8": 4515,
      "0x700000": 4516,
      "bbf0": 4517,
      "bb90": 4518,
      "0x29": 4519,
      "ea20": 4520,
      "d2d0": 4521,
      "d2c0": 4522,
      "dcc0": 4523,
      "8080": 4524,
      "30fc0": 4525,
      "0x7fc15dffd": 4526,
      "9870": 4527,
      "98c0": 4528,
      "0xfffffffffffffff8": 4529,
      "0x7ffdd2ea7100": 4530,
      "0x7ffdd2ea74e8": 4531,
      "f0e0": 4532,
      "0x7fc16010": 4533,
      "0x7fc16013": 4534,
      "0x7fc16017": 4535,
      "0x7fc16053": 4536,
      "0x7fc16041": 4537,
      "0x7fc16063": 4538,
      "0x7fc160bc": 4539,
      "0x7fc160b1": 4540,
      "0x7fc160d3": 4541,
      "bf10": 4542,
      "bf50": 4543,
      "0x55bb3646": 4544,
      "0x55bb3641": 4545,
      "0x55bb3655": 4546,
      "0x55bb3643": 4547,
      "0x55bb362c": 4548,
      "1820": 4549,
      "8650": 4550,
      "e1e0": 4551,
      "e140": 4552,
      "e190": 4553,
      "e1cc0": 4554,
      "e15d0": 4555,
      "ff020": 4556,
      "70a0": 4557,
      "7070": 4558,
      "0x7fc15eea0": 4559,
      "0x7fc15ef8": 4560,
      "0x7fc15ee3": 4561,
      "0x7fc15e9d": 4562,
      "0x7fc15e75": 4563,
      "0x7fc15f70": 4564,
      "0x7fc15fe5": 4565,
      "0x7fc15f4c": 4566,
      "0x7fc15f72": 4567,
      "0x7fc15fb4": 4568,
      "1750": 4569,
      "eb40": 4570,
      "4620": 4571,
      "2140": 4572,
      "e870": 4573,
      "f840": 4574,
      "2810": 4575,
      "38e0": 4576,
      "3850": 4577,
      "7840": 4578,
      "7890": 4579,
      "d800": 4580,
      "0x7fc15e140": 4581,
      "0x7fc15e11c": 4582,
      "f1f0": 4583,
      "0x6fffffff": 4584,
      "fa30": 4585,
      "fa90": 4586,
      "0x55bb37a9": 4587,
      "0xa3": 4588,
      "0x185": 4589,
      "0x192": 4590,
      "9440": 4591,
      "94a0": 4592,
      "0x55bb38ce": 4593,
      "0x55bb396e6": 4594,
      "0x55bb39ab1940": 4595,
      "f4e0": 4596,
      "f490": 4597,
      "f4a90": 4598,
      "e35": 4599,
      "fb00": 4600,
      "9570": 4601,
      "f750": 4602,
      "f3f0": 4603,
      "0x55bb3a4cc0": 4604,
      "e5f0": 4605,
      "0x55bb3b0d": 4606,
      "c110": 4607,
      "0x7fc15e3d": 4608,
      "e740": 4609,
      "0x55bb39b00d90": 4610,
      "9720": 4611,
      "9730": 4612,
      "9750": 4613,
      "9b10": 4614,
      "9b20": 4615,
      "9b30": 4616,
      "9de0": 4617,
      "9db0": 4618,
      "e9fd0": 4619,
      "99d0": 4620,
      "99a0": 4621,
      "9978": 4622,
      "1150": 4623,
      "53fd0": 4624,
      "5338": 4625,
      "f970": 4626,
      "6afc0": 4627,
      "55c0": 4628,
      "55fd0": 4629,
      "5afe0": 4630,
      "5ab0": 4631,
      "ba70": 4632,
      "bafd0": 4633,
      "bafc0": 4634,
      "baf30": 4635,
      "b610": 4636,
      "4370": 4637,
      "4220": 4638,
      "5620": 4639,
      "5280": 4640,
      "da30": 4641,
      "da40": 4642,
      "bcb0": 4643,
      "d630": 4644,
      "d6420": 4645,
      "4cc0": 4646,
      "4a50": 4647,
      "7120": 4648,
      "0x7fc15ed0": 4649,
      "0x7fc15ed3": 4650,
      "0x7fc15f87": 4651,
      "0x7fc15f8d": 4652,
      "72fc0": 4653,
      "ca80": 4654,
      "cafc0": 4655,
      "fefd0": 4656,
      "76fc0": 4657,
      "0x7fc15fc5": 4658,
      "0x7fc15eabf": 4659,
      "b3d0": 4660,
      "b390": 4661,
      "aafe0": 4662,
      "7c30": 4663,
      "7cfc0": 4664,
      "54c0": 4665,
      "2aa0": 4666,
      "0x7fc15f03": 4667,
      "0x7fc15f0a": 4668,
      "2630": 4669,
      "74a0": 4670,
      "2c30": 4671,
      "0x7fc15f1e7": 4672,
      "61d0": 4673,
      "5170": 4674,
      "b470": 4675,
      "b4fc0": 4676,
      "acfd0": 4677,
      "0x7fc15fd3": 4678,
      "0x7fc15fd6": 4679,
      "0x7fc15fdb": 4680,
      "31c0": 4681,
      "d400": 4682,
      "d470": 4683,
      "7710": 4684,
      "0x7fc15df17": 4685,
      "0x7fc15f32": 4686,
      "66fe0": 4687,
      "66fd0": 4688,
      "66b0": 4689,
      "3c70": 4690,
      "c4fe0": 4691,
      "c4fc0": 4692,
      "0x7fc16116": 4693,
      "a4fc0": 4694,
      "c3fc0": 4695,
      "dda0": 4696,
      "0x7fc15fa7": 4697,
      "25f0": 4698,
      "5db0": 4699,
      "b5d0": 4700,
      "2790": 4701,
      "9c070": 4702,
      "0x7fc15e544": 4703,
      "0x10293": 4704,
      "0x55bb38e22020": 4705,
      "0x55bb37ba5370": 4706,
      "0x55bb3881d650": 4707,
      "0x55bb3a1ddc40": 4708,
      "0x55bb3960b2c0": 4709,
      "0x55bb3c1c3150": 4710,
      "0x55bb3a838630": 4711,
      "0x55bb39429b40": 4712,
      "0x55bb387b5bd0": 4713,
      "0x55bb3802b8b0": 4714,
      "0x7fc16106": 4715,
      "0x6ffffdff": 4716,
      "0x6ffffe35": 4717,
      "0x55bb38ab44d0": 4718,
      "0x55bb39b56a30": 4719,
      "0x55bb3babe970": 4720,
      "0x55bb3a0dd7e0": 4721,
      "0x55bb38858a20": 4722,
      "0xff456d1": 4723,
      "0x70000022": 4724,
      "0x55bb3a4cc070": 4725,
      "1e8": 4726,
      "1a8": 4727,
      "238": 4728,
      "2e3": 4729,
      "2ef0": 4730,
      "2d80": 4731,
      "3ee0": 4732,
      "3b00": 4733,
      "468": 4734,
      "4200": 4735,
      "4d90": 4736,
      "4d40": 4737,
      "4e88": 4738,
      "5f90": 4739,
      "5ed0": 4740,
      "5d88": 4741,
      "6008": 4742,
      "7e8": 4743,
      "728": 4744,
      "7fa0": 4745,
      "7b10": 4746,
      "79c0": 4747,
      "7b80": 4748,
      "94020": 4749,
      "9f020": 4750,
      "91020": 4751,
      "99040": 4752,
      "9b040": 4753,
      "94040": 4754,
      "be10": 4755,
      "cb8": 4756,
      "cd90": 4757,
      "dee0": 4758,
      "d980": 4759,
      "ef040": 4760,
      "e7030": 4761,
      "ee030": 4762,
      "ff50": 4763,
      "ffc8": 4764,
      "ff60": 4765,
      "ffe8": 4766,
      "0x79": 4767,
      "0x7e": 4768,
      "fc40": 4769,
      "bb30": 4770,
      "0x3a": 4771,
      "0x7fc16008": 4772,
      "0x20000": 4773,
      "ea80": 4774,
      "ea30": 4775,
      "eac8": 4776,
      "eaff8": 4777,
      "eada0": 4778,
      "0xffffffffffff": 4779,
      "d2e0": 4780,
      "d2a0": 4781,
      "dc10": 4782,
      "dc80": 4783,
      "dcf0": 4784,
      "0x7fc16104e780": 4785,
      "0x10f": 4786,
      "0x7ffdd2ea6ca0": 4787,
      "0x7ffdd2ea6c68": 4788,
      "8070": 4789,
      "edb50": 4790,
      "0x130": 4791,
      "d090": 4792,
      "d5090": 4793,
      "f050": 4794,
      "f048": 4795,
      "c810": 4796,
      "c850": 4797,
      "0x7fc160dc": 4798,
      "0x7fc160c0": 4799,
      "0x7fc16048": 4800,
      "0x7fc1606c": 4801,
      "0x7fc160ba": 4802,
      "0x7fc16076": 4803,
      "0x7fc160aa": 4804,
      "0x7fc160b4": 4805,
      "0x7fc16024": 4806,
      "0x7fc1601a": 4807,
      "0x7fc16014": 4808,
      "0x7fc16016": 4809,
      "0x7fc160bd": 4810,
      "bf00": 4811,
      "bfe8": 4812,
      "bf320": 4813,
      "0x55bb3653": 4814,
      "0x55bb362a": 4815,
      "0x55bb3631": 4816,
      "0x55bb365b": 4817,
      "0x55bb363a": 4818,
      "9650": 4819,
      "9660": 4820,
      "1830": 4821,
      "8620": 4822,
      "0x7fc15ded8ce0": 4823,
      "0x7fc160e3": 4824,
      "e120": 4825,
      "e1b0": 4826,
      "e160": 4827,
      "0x7fc15ebb": 4828,
      "0x7fc15efd": 4829,
      "0x7fc15ef1": 4830,
      "0x7fc15e44": 4831,
      "0x7fc15e54": 4832,
      "0x20b": 4833,
      "fd30": 4834,
      "fdf0": 4835,
      "fc020": 4836,
      "b070": 4837,
      "b060": 4838,
      "0x7fc15f21": 4839,
      "0x7fc15f91": 4840,
      "0x7fc15f71": 4841,
      "0x7fc15f23": 4842,
      "0x7fc15f54": 4843,
      "0x7fc15f2c": 4844,
      "0x7fc15fac": 4845,
      "0x7fc15fa6": 4846,
      "1370": 4847,
      "13ff8": 4848,
      "688": 4849,
      "1740": 4850,
      "17b0": 4851,
      "eb10": 4852,
      "2170": 4853,
      "2190": 4854,
      "e820": 4855,
      "e8e0": 4856,
      "e800": 4857,
      "e880": 4858,
      "f870": 4859,
      "2840": 4860,
      "2890": 4861,
      "3830": 4862,
      "38d0": 4863,
      "38ad0": 4864,
      "78b0": 4865,
      "78ff8": 4866,
      "0x7fc15e0e7": 4867,
      "a850": 4868,
      "4810": 4869,
      "4830": 4870,
      "4890": 4871,
      "58c0": 4872,
      "d810": 4873,
      "d820": 4874,
      "d880": 4875,
      "ff81": 4876,
      "f140": 4877,
      "f1a0": 4878,
      "0x7fc15e228": 4879,
      "fa80": 4880,
      "0x55bb36ce": 4881,
      "91a0": 4882,
      "91ff8": 4883,
      "eca0": 4884,
      "ecd10": 4885,
      "d180": 4886,
      "d1a0": 4887,
      "d1ab0": 4888,
      "0xca": 4889,
      "0xcfb1": 4890,
      "e6e0": 4891,
      "e6a0": 4892,
      "e6c0": 4893,
      "0x55bb3883a": 4894,
      "9a10": 4895,
      "9abd0": 4896,
      "0x55bb390b5": 4897,
      "0x55bb398f5": 4898,
      "0x55bb37294": 4899,
      "0x55bb372ecd10": 4900,
      "0x1c5": 4901,
      "0x55bb38218": 4902,
      "0x55bb393bf0": 4903,
      "9480": 4904,
      "94e8": 4905,
      "0x1d7": 4906,
      "0x55bb39611": 4907,
      "f650": 4908,
      "0x55bb381ee010": 4909,
      "0x55bb39a33": 4910,
      "0x15fb1": 4911,
      "0x55bb37bd1ab0": 4912,
      "0x55bb3979": 4913,
      "0x55bb3a077fc0": 4914,
      "0x55bb37de": 4915,
      "0x55bb37df": 4916,
      "9320": 4917,
      "9350": 4918,
      "9318": 4919,
      "0x55bb39c9abd0": 4920,
      "f4d0": 4921,
      "e4a0": 4922,
      "e380": 4923,
      "e360": 4924,
      "9590": 4925,
      "f7ff8": 4926,
      "f550": 4927,
      "f5fc0": 4928,
      "c180": 4929,
      "c170": 4930,
      "0x7fc15e393": 4931,
      "0x55bb3a1d5090": 4932,
      "0x12e": 4933,
      "0x12f": 4934,
      "0x55bb3a238": 4935,
      "0x55bb3a2eb210": 4936,
      "e7a0": 4937,
      "92e0": 4938,
      "9250": 4939,
      "97a0": 4940,
      "97b8": 4941,
      "97ff8": 4942,
      "97c90": 4943,
      "f2c0": 4944,
      "9be0": 4945,
      "9b70": 4946,
      "9b90": 4947,
      "9d00": 4948,
      "9910": 4949,
      "9920": 4950,
      "99c0": 4951,
      "1110": 4952,
      "1170": 4953,
      "6c60": 4954,
      "f980": 4955,
      "f9c0": 4956,
      "f9b0": 4957,
      "4130": 4958,
      "6a70": 4959,
      "5530": 4960,
      "fa030": 4961,
      "63fd0": 4962,
      "b210": 4963,
      "b240": 4964,
      "b2a0": 4965,
      "5ad0": 4966,
      "5a90": 4967,
      "5ce0": 4968,
      "5cfe0": 4969,
      "b690": 4970,
      "4350": 4971,
      "43fc0": 4972,
      "56d0": 4973,
      "56fc0": 4974,
      "52f0": 4975,
      "5290": 4976,
      "7390": 4977,
      "da120": 4978,
      "bc20": 4979,
      "d6e0": 4980,
      "ee70": 4981,
      "4cfc0": 4982,
      "4ab0": 4983,
      "0x7fc15e81": 4984,
      "0x7fc15e817": 4985,
      "7140": 4986,
      "7a30": 4987,
      "7af0": 4988,
      "7afc0": 4989,
      "ce040": 4990,
      "b180": 4991,
      "b198": 4992,
      "b140": 4993,
      "f8040": 4994,
      "0x7fc15f82": 4995,
      "0x7fc15f84": 4996,
      "0x7fc15f85": 4997,
      "0x7fc15f8b": 4998,
      "ca40": 4999,
      "fe10": 5000,
      "fef0": 5001,
      "3380": 5002,
      "9eb0": 5003,
      "76a0": 5004,
      "0x7fc15fcc": 5005,
      "0x7fc15fcd2": 5006,
      "0x7fc15ea6": 5007,
      "0x7fc15eaa": 5008,
      "0x7fc15eaf7": 5009,
      "b380": 5010,
      "b3fc0": 5011,
      "2390": 5012,
      "7cfe0": 5013,
      "7cfb0": 5014,
      "d350": 5015,
      "0x7fc15e61": 5016,
      "0x7fc15e65": 5017,
      "0x7fc15e6d": 5018,
      "0x7fc15e6c8": 5019,
      "cc00": 5020,
      "ccb0": 5021,
      "2af0": 5022,
      "0x7fc15f05": 5023,
      "7520": 5024,
      "51e0": 5025,
      "ef10": 5026,
      "d720": 5027,
      "d740": 5028,
      "d770": 5029,
      "3130": 5030,
      "31ff8": 5031,
      "d4e0": 5032,
      "7720": 5033,
      "7740": 5034,
      "77fd0": 5035,
      "0x7fc15ecb2": 5036,
      "47ff8": 5037,
      "0x55bb389f": 5038,
      "3a20": 5039,
      "36fd0": 5040,
      "86030": 5041,
      "0x7fc16004": 5042,
      "0x7fc1600c": 5043,
      "a400": 5044,
      "b710": 5045,
      "88000": 5046,
      "5d40": 5047,
      "1afc0": 5048,
      "db00": 5049,
      "9f050": 5050,
      "d500": 5051,
      "b5ff8": 5052,
      "2780": 5053,
      "1440": 5054,
      "1470": 5055,
      "bc090": 5056,
      "0x55bb36253": 5057,
      "0x7fc15ebd": 5058,
      "22a8": 5059,
      "0x55bb39fedb50": 5060,
      "0x7fc16136be20": 5061,
      "0x7ffdd2ea7018": 5062,
      "0x55bb38e1d090": 5063,
      "0x55bb3994d850": 5064,
      "0x55bb37ec61d0": 5065,
      "0x55bb3c17e2e0": 5066,
      "0x55bb3a08c": 5067,
      "0x55bb3961e100": 5068,
      "0x55bb3a11db00": 5069,
      "0x55bb39c7f630": 5070,
      "0x55bb39da99b0": 5071,
      "0x55bb3987ca40": 5072,
      "0x55bb3954e330": 5073,
      "0x6fffff41": 5074,
      "0x55bb399effe0": 5075,
      "0x55bb388b7fe0": 5076,
      "0x55bb3869f760": 5077,
      "0x55bb36254820": 5078,
      "0x7fc16135e8f8": 5079,
      "97d08": 5080,
      "0x55bb3883a250": 5081,
      "0x55bb390b59f0": 5082,
      "0x55bb37294390": 5083,
      "0x55bb393bf0c0": 5084,
      "0x55bb39a33400": 5085,
      "1d50": 5086,
      "158": 5087,
      "2c8": 5088,
      "248": 5089,
      "2100": 5090,
      "2fe8": 5091,
      "2980": 5092,
      "2b20": 5093,
      "3a8": 5094,
      "358": 5095,
      "3008": 5096,
      "3f90": 5097,
      "3290": 5098,
      "3740": 5099,
      "4d50": 5100,
      "4f8": 5101,
      "4008": 5102,
      "4fe8": 5103,
      "4ee0": 5104,
      "4e70": 5105,
      "4e40": 5106,
      "4b10": 5107,
      "4940": 5108,
      "5568": 5109,
      "5f80": 5110,
      "5f70": 5111,
      "5980": 5112,
      "6c8": 5113,
      "678": 5114,
      "648": 5115,
      "6520": 5116,
      "6400": 5117,
      "65c0": 5118,
      "7f8": 5119,
      "7bb0": 5120,
      "8f80": 5121,
      "99c": 5122,
      "9f040": 5123,
      "94030": 5124,
      "9e030": 5125,
      "95040": 5126,
      "9fe8": 5127,
      "9fd8": 5128,
      "9f60": 5129,
      "a38": 5130,
      "aa8": 5131,
      "ae50": 5132,
      "af40": 5133,
      "a7a0": 5134,
      "a240": 5135,
      "a958": 5136,
      "b18": 5137,
      "bd10": 5138,
      "b900": 5139,
      "c18": 5140,
      "c78": 5141,
      "ce70": 5142,
      "c250": 5143,
      "cd70": 5144,
      "cd10": 5145,
      "dfa0": 5146,
      "d860": 5147,
      "eff": 5148,
      "eea0": 5149,
      "ebb0": 5150,
      "fefe0": 5151,
      "f9040": 5152,
      "fed0": 5153,
      "ff90": 5154,
      "0xeb": 5155,
      "fc90": 5156,
      "bb40": 5157,
      "0x7fc160040": 5158,
      "ea70": 5159,
      "ea90": 5160,
      "d220": 5161,
      "d2b0": 5162,
      "dc70": 5163,
      "202b0": 5164,
      "0x7fc15fd0": 5165,
      "0x10a": 5166,
      "00d0": 5167,
      "80610": 5168,
      "3080": 5169,
      "30c0": 5170,
      "0x7fc15dff1": 5171,
      "ed40": 5172,
      "98d0": 5173,
      "98f0": 5174,
      "0x118": 5175,
      "0x160": 5176,
      "0x1eb": 5177,
      "4070": 5178,
      "4060": 5179,
      "d050": 5180,
      "d060": 5181,
      "d5040": 5182,
      "c860": 5183,
      "c888": 5184,
      "c8b30": 5185,
      "0x7fc160a0": 5186,
      "0x55bb3668": 5187,
      "0x55bb3628": 5188,
      "0x55bb36f08": 5189,
      "0x55bb364c": 5190,
      "0x55bb364a": 5191,
      "0x55bb363c": 5192,
      "0x55bb3636": 5193,
      "a0e0": 5194,
      "a080": 5195,
      "9630": 5196,
      "1840": 5197,
      "0x7ffdd2ea6f30": 5198,
      "86b0": 5199,
      "fe040": 5200,
      "e170": 5201,
      "70a8": 5202,
      "0x7fc15e418": 5203,
      "0x7fc15e46": 5204,
      "0x7fc15efb0": 5205,
      "0x7fc15e57": 5206,
      "b8a0": 5207,
      "90e90": 5208,
      "fdb90": 5209,
      "fc030": 5210,
      "b0b90": 5211,
      "6058": 5212,
      "0x7fc15fb8": 5213,
      "0x7fc15f9b": 5214,
      "0x7fc15fee": 5215,
      "0x7fc15f74": 5216,
      "0x7fc15f75": 5217,
      "0x7fc15f5b": 5218,
      "13e0": 5219,
      "1330": 5220,
      "1710": 5221,
      "eb80": 5222,
      "eba0": 5223,
      "4660": 5224,
      "0x87": 5225,
      "0x55bb3580f048": 5226,
      "e8b0": 5227,
      "f8470": 5228,
      "2880": 5229,
      "2870": 5230,
      "38f0": 5231,
      "78e0": 5232,
      "7850": 5233,
      "58e0": 5234,
      "d8a0": 5235,
      "0x7fc15e1f": 5236,
      "0x7fc15e178": 5237,
      "0x7fc15e136": 5238,
      "f120": 5239,
      "f180": 5240,
      "f150": 5241,
      "f1d0": 5242,
      "fa20": 5243,
      "fae0": 5244,
      "faf0": 5245,
      "fac0": 5246,
      "fa7a0": 5247,
      "0x55bb38075": 5248,
      "9110": 5249,
      "91b0": 5250,
      "0x55bb385f4": 5251,
      "0x17f91": 5252,
      "0x55bb37ce3": 5253,
      "9ca0": 5254,
      "9cbe0": 5255,
      "ece30": 5256,
      "ecc0": 5257,
      "d130": 5258,
      "d170": 5259,
      "0x55bb38af5": 5260,
      "e680": 5261,
      "e6e90": 5262,
      "9ac0": 5263,
      "9a58": 5264,
      "9a630": 5265,
      "0x55bb39093": 5266,
      "0x55bb393f7": 5267,
      "0x55bb39312": 5268,
      "0x18f81": 5269,
      "94c0": 5270,
      "94f8": 5271,
      "94d8": 5272,
      "0x136": 5273,
      "f6a0": 5274,
      "f660": 5275,
      "0xdfa1": 5276,
      "0x15f91": 5277,
      "0x55bb3a013": 5278,
      "0x55bb3a097fe0": 5279,
      "9340": 5280,
      "9338": 5281,
      "93150": 5282,
      "f420": 5283,
      "f440": 5284,
      "f4a0": 5285,
      "f470": 5286,
      "e410": 5287,
      "e4e0": 5288,
      "e480": 5289,
      "0x55bb391aa": 5290,
      "0x55bb391c8b30": 5291,
      "fb20": 5292,
      "fb80": 5293,
      "0x55bb36de": 5294,
      "95e0": 5295,
      "9580": 5296,
      "9530": 5297,
      "9540": 5298,
      "95a8": 5299,
      "f7b0": 5300,
      "f350": 5301,
      "f3d0": 5302,
      "f570": 5303,
      "0x55bb39250b10": 5304,
      "0x55bb3a6f8470": 5305,
      "e510": 5306,
      "c1e0": 5307,
      "c1c0": 5308,
      "c168": 5309,
      "0x7fc15e35a": 5310,
      "0x7fc15e344": 5311,
      "0x55bb38db0b90": 5312,
      "0x55bb3a2b2": 5313,
      "9220": 5314,
      "9700": 5315,
      "9760": 5316,
      "f240": 5317,
      "f2a0": 5318,
      "f290": 5319,
      "0x55bb39df3": 5320,
      "9d40": 5321,
      "0xba": 5322,
      "e9b0": 5323,
      "6c20": 5324,
      "6cd0": 5325,
      "f900": 5326,
      "41d0": 5327,
      "41a0": 5328,
      "4170": 5329,
      "41b0": 5330,
      "6a6": 5331,
      "6af0": 5332,
      "6a90": 5333,
      "5570": 5334,
      "5560": 5335,
      "6350": 5336,
      "b250": 5337,
      "b2f0": 5338,
      "5a30": 5339,
      "5a40": 5340,
      "4400": 5341,
      "4440": 5342,
      "44b0": 5343,
      "5c40": 5344,
      "baf0": 5345,
      "bab8": 5346,
      "b650": 5347,
      "4380": 5348,
      "42a0": 5349,
      "42fc8": 5350,
      "7330": 5351,
      "7340": 5352,
      "7370": 5353,
      "d670": 5354,
      "ee98": 5355,
      "eef0": 5356,
      "4c90": 5357,
      "4a20": 5358,
      "0x7fc15e8a": 5359,
      "7110": 5360,
      "71e0": 5361,
      "71f0": 5362,
      "7170": 5363,
      "7a00": 5364,
      "7aa0": 5365,
      "0x7fc15edb": 5366,
      "0x7fc15edd": 5367,
      "0x7fc15f83": 5368,
      "0x7fc15f8298": 5369,
      "72e0": 5370,
      "7240": 5371,
      "72f0": 5372,
      "fec0": 5373,
      "9e80": 5374,
      "9e40": 5375,
      "9e60": 5376,
      "0x7fc15fc6c": 5377,
      "0x7fc15ea95": 5378,
      "0x7fc15ea12": 5379,
      "aa30": 5380,
      "aa70": 5381,
      "aa60": 5382,
      "23c0": 5383,
      "2360": 5384,
      "7ca0": 5385,
      "f03040": 5386,
      "d3a0": 5387,
      "0x7fc15ff2": 5388,
      "5490": 5389,
      "54550": 5390,
      "cc40": 5391,
      "0x7fc15f0b8": 5392,
      "f90d0": 5393,
      "26e0": 5394,
      "2680": 5395,
      "2c50": 5396,
      "2c60": 5397,
      "0x7fc15f15": 5398,
      "0x7fc15f1d": 5399,
      "0x7fc15f1b8": 5400,
      "0x7fc15f1917": 5401,
      "7580": 5402,
      "75f0": 5403,
      "75c0": 5404,
      "61a0": 5405,
      "b4a0": 5406,
      "b458": 5407,
      "ac90": 5408,
      "acc0": 5409,
      "d700": 5410,
      "d7eb0": 5411,
      "a160": 5412,
      "3180": 5413,
      "d4c0": 5414,
      "d4db0": 5415,
      "0x7fc15dfeb": 5416,
      "0x7fc15dfe8": 5417,
      "a680": 5418,
      "a6210": 5419,
      "5be0": 5420,
      "5b80": 5421,
      "5ba0": 5422,
      "5b90": 5423,
      "5bc0": 5424,
      "0x7fc15f3c": 5425,
      "5700": 5426,
      "66a0": 5427,
      "66fb0": 5428,
      "3c20": 5429,
      "3cff0": 5430,
      "3c60": 5431,
      "47c0": 5432,
      "fb820": 5433,
      "0x55bb3899a630": 5434,
      "2420": 5435,
      "2450": 5436,
      "24d0": 5437,
      "c460": 5438,
      "0x7fc16115": 5439,
      "0x7fc16005": 5440,
      "0x7fc15f2b2": 5441,
      "a440": 5442,
      "0x7fc15fad": 5443,
      "0x7fc15f45": 5444,
      "0x7fc15f4b": 5445,
      "0x7fc15f45e8": 5446,
      "25c0": 5447,
      "0x7fc15e7c1": 5448,
      "1c50": 5449,
      "9b08": 5450,
      "db20": 5451,
      "db40": 5452,
      "dbf0": 5453,
      "db60": 5454,
      "d5f8": 5455,
      "b5c0": 5456,
      "0x7fc15f756": 5457,
      "0x7fc15f5e": 5458,
      "1460": 5459,
      "0x55bb39e18": 5460,
      "c780": 5461,
      "0x7fc160528": 5462,
      "2290": 5463,
      "2a0b0": 5464,
      "0x7fc16136d7": 5465,
      "0x55bb388851e0": 5466,
      "0x55bb37f65bf0": 5467,
      "0x55bb399c1870": 5468,
      "0x55bb38e366b0": 5469,
      "0x7fc15fe96": 5470,
      "0x55bb395036d0": 5471,
      "0x55bb39519a80": 5472,
      "0x55bb38912030": 5473,
      "0x55bb38e4fab0": 5474,
      "0x55bb39bb1b10": 5475,
      "bd9a0": 5476,
      "0x55bb39226c00": 5477,
      "0x606a6": 5478,
      "0x7fc16136cee0": 5479,
      "0x55bb39290020": 5480,
      "0x7fc15ed6b": 5481,
      "0x55bb3a5df940": 5482,
      "0x7fc15f5042": 5483,
      "0x7fc15f536a": 5484,
      "0x7fc1580000": 5485,
      "0x55bb3623e2a0": 5486,
      "0x55bb389f9c20": 5487,
      "0x55bb37ce3ee0": 5488,
      "0x55bb393f76a0": 5489,
      "0x55bb3a2b2ae0": 5490,
      "1f8": 5491,
      "1dc0": 5492,
      "1f80": 5493,
      "1990": 5494,
      "1e10": 5495,
      "218": 5496,
      "2230": 5497,
      "268": 5498,
      "2d8": 5499,
      "2f90": 5500,
      "2fb8": 5501,
      "2930": 5502,
      "22f0": 5503,
      "2920": 5504,
      "29e0": 5505,
      "3c8": 5506,
      "3f8": 5507,
      "338": 5508,
      "3f80": 5509,
      "39a0": 5510,
      "3250": 5511,
      "3270": 5512,
      "3bd0": 5513,
      "4fa0": 5514,
      "4960": 5515,
      "4100": 5516,
      "4e00": 5517,
      "49f0": 5518,
      "5f20": 5519,
      "5f60": 5520,
      "5f10": 5521,
      "6d50": 5522,
      "6b8": 5523,
      "6ed0": 5524,
      "6eb0": 5525,
      "6720": 5526,
      "738": 5527,
      "77c": 5528,
      "7fc8": 5529,
      "7990": 5530,
      "7e40": 5531,
      "7920": 5532,
      "7d70": 5533,
      "7b40": 5534,
      "7910": 5535,
      "8920": 5536,
      "89c0": 5537,
      "83f0": 5538,
      "8c20": 5539,
      "8a90": 5540,
      "913": 5541,
      "9f1": 5542,
      "9dc0": 5543,
      "97010": 5544,
      "9ffc0": 5545,
      "98030": 5546,
      "93020": 5547,
      "9e040": 5548,
      "9bb0": 5549,
      "9f30": 5550,
      "ab8": 5551,
      "a58": 5552,
      "afa0": 5553,
      "af80": 5554,
      "af90": 5555,
      "afe8": 5556,
      "afb8": 5557,
      "af30": 5558,
      "aee0": 5559,
      "af10": 5560,
      "ade0": 5561,
      "ae10": 5562,
      "a5b0": 5563,
      "ab20": 5564,
      "a560": 5565,
      "b960": 5566,
      "be00": 5567,
      "b9b0": 5568,
      "beb0": 5569,
      "bdd0": 5570,
      "be68": 5571,
      "cd8": 5572,
      "cee0": 5573,
      "ce90": 5574,
      "cec0": 5575,
      "cda0": 5576,
      "dd50": 5577,
      "de00": 5578,
      "df30": 5579,
      "d9a0": 5580,
      "df50": 5581,
      "deb0": 5582,
      "d910": 5583,
      "edc": 5584,
      "ec040": 5585,
      "e96d0": 5586,
      "f17": 5587,
      "fea0": 5588,
      "fbb0": 5589,
      "f9570": 5590,
      "ff30": 5591,
      "0x98": 5592,
      "fce0": 5593,
      "fc80": 5594,
      "fcc0": 5595,
      "fc960": 5596,
      "fc700": 5597,
      "10ff8": 5598,
      "10aa0": 5599,
      "bb10": 5600,
      "bbff8": 5601,
      "0x3b": 5602,
      "0x3fa1": 5603,
      "eaf0": 5604,
      "eab0": 5605,
      "eafb0": 5606,
      "d250": 5607,
      "0x7ffdd2ea5": 5608,
      "dcff8": 5609,
      "dcec0": 5610,
      "dc310": 5611,
      "20b0": 5612,
      "e050": 5613,
      "0x10f91": 5614,
      "0x7ffdd2ea6640": 5615,
      "00ff8": 5616,
      "00510": 5617,
      "00460": 5618,
      "80e0": 5619,
      "80e30": 5620,
      "80d0": 5621,
      "30b50": 5622,
      "ed80": 5623,
      "ed50": 5624,
      "ed70": 5625,
      "ed180": 5626,
      "ed730": 5627,
      "9860": 5628,
      "98cd0": 5629,
      "0x1f81": 5630,
      "0x7ffdd2ea7378": 5631,
      "40d80": 5632,
      "0x55bb37ea0": 5633,
      "0x55bb37fd8": 5634,
      "0x7fc15ded8da0": 5635,
      "0x55bb39fc8": 5636,
      "0x55bb39fe8": 5637,
      "0x55bb3a788": 5638,
      "f080": 5639,
      "f05b0": 5640,
      "f0520": 5641,
      "f0cf0": 5642,
      "00010": 5643,
      "00020": 5644,
      "0x55bb3bd20": 5645,
      "c8d0": 5646,
      "0x7fc160d2": 5647,
      "0x7fc160b8": 5648,
      "0x7fc16060": 5649,
      "0x7fc16038": 5650,
      "0x7fc16078": 5651,
      "0x7fc16091": 5652,
      "0x7fc160f5": 5653,
      "0x7fc16011": 5654,
      "0x7fc160b2": 5655,
      "0x7fc1605a": 5656,
      "0x7fc16044": 5657,
      "0x7fc16071": 5658,
      "0x7fc160cc": 5659,
      "0x7fc160a1": 5660,
      "0x7fc16031": 5661,
      "0x7fc160a6": 5662,
      "0x7fc1603a": 5663,
      "0x7fc160a4": 5664,
      "0x7fc16088": 5665,
      "bfa8": 5666,
      "bf2f0": 5667,
      "bfb90": 5668,
      "0x55bb36e30": 5669,
      "0x55bb36fd0": 5670,
      "0x55bb3660": 5671,
      "0x55bb3638": 5672,
      "0x55bb3648": 5673,
      "0x55bb36fb0": 5674,
      "0x55bb3644": 5675,
      "0x55bb3626": 5676,
      "0x55bb3651": 5677,
      "0x55bb3647": 5678,
      "a090": 5679,
      "a0b0": 5680,
      "a0f80": 5681,
      "a0e90": 5682,
      "96e0": 5683,
      "9680": 5684,
      "96f8": 5685,
      "96d10": 5686,
      "963d0": 5687,
      "1880": 5688,
      "18f0": 5689,
      "1890": 5690,
      "18ff8": 5691,
      "8670": 5692,
      "0x7fc160ec": 5693,
      "0x7fc160e10": 5694,
      "fe00": 5695,
      "e1ff8": 5696,
      "e15c0": 5697,
      "e1c40": 5698,
      "70ff8": 5699,
      "70450": 5700,
      "0x7fc15eed": 5701,
      "0x7fc15ef7": 5702,
      "0x7fc15eb7": 5703,
      "b8ff8": 5704,
      "b8ee0": 5705,
      "fd70": 5706,
      "fdff8": 5707,
      "fd5d0": 5708,
      "c0d0": 5709,
      "c0ff8": 5710,
      "b090": 5711,
      "60ff8": 5712,
      "0x7fc15f80": 5713,
      "0x7fc15f30": 5714,
      "0x7fc15fbf": 5715,
      "0x7fc15f5c": 5716,
      "0x7fc15fef": 5717,
      "0x7fc15fa4": 5718,
      "0x7fc15f288": 5719,
      "1320": 5720,
      "68ff8": 5721,
      "68c30": 5722,
      "17f0": 5723,
      "46b0": 5724,
      "2130": 5725,
      "21f0": 5726,
      "21c0": 5727,
      "2160": 5728,
      "2148": 5729,
      "0x7fc1613b": 5730,
      "0x8d": 5731,
      "0x812": 5732,
      "0x21c": 5733,
      "0x55bb3580810": 5734,
      "e830": 5735,
      "e840": 5736,
      "e8d0": 5737,
      "e8700": 5738,
      "e8ac0": 5739,
      "f810": 5740,
      "f800": 5741,
      "f8f0": 5742,
      "f890": 5743,
      "f8d00": 5744,
      "2820": 5745,
      "28f0": 5746,
      "28f90": 5747,
      "3880": 5748,
      "3840": 5749,
      "38bc0": 5750,
      "38500": 5751,
      "38900": 5752,
      "38cd0": 5753,
      "38300": 5754,
      "7830": 5755,
      "0x7fc15e0b0": 5756,
      "0x7fc15e038": 5757,
      "0x7fc15e026": 5758,
      "a8d0": 5759,
      "a8a0": 5760,
      "a870": 5761,
      "a8fa0": 5762,
      "48190": 5763,
      "5850": 5764,
      "58ff8": 5765,
      "589e0": 5766,
      "58cc0": 5767,
      "585e0": 5768,
      "d8c0": 5769,
      "0x7fc15e1b2": 5770,
      "0x7fc15e1cc": 5771,
      "0x7fc15e1c3": 5772,
      "0x55bb36874": 5773,
      "0x55bb3879": 5774,
      "0x55bb3879c": 5775,
      "0x55bb375bb": 5776,
      "0x55bb3759a": 5777,
      "0x55bb3752a": 5778,
      "0x7fc15e29d": 5779,
      "0x7fc15e2b2": 5780,
      "0x7fc15e224": 5781,
      "0x7fc15e2a4": 5782,
      "fa60": 5783,
      "0x55bb36c43": 5784,
      "0x55bb370e96d0": 5785,
      "9130": 5786,
      "0x55bb38560": 5787,
      "0x55bb385e15d0": 5788,
      "0x55bb37760": 5789,
      "9ce0": 5790,
      "9cff8": 5791,
      "ecff8": 5792,
      "ec200": 5793,
      "ec5f0": 5794,
      "d1e0": 5795,
      "e6d0": 5796,
      "e6d30": 5797,
      "0x55bb388fb": 5798,
      "9ad0": 5799,
      "0x55bb39030b50": 5800,
      "0x55bb39888": 5801,
      "0x55bb372e1c40": 5802,
      "0x1cf91": 5803,
      "0x55bb382e6": 5804,
      "0x55bb393c6": 5805,
      "0x55bb39333000": 5806,
      "9478": 5807,
      "94ff8": 5808,
      "0x1dfb1": 5809,
      "0x16f91": 5810,
      "0x55bb36a00460": 5811,
      "0x55bb396da": 5812,
      "f620": 5813,
      "f6c0": 5814,
      "f6b0": 5815,
      "f638": 5816,
      "f6ba0": 5817,
      "f6c10": 5818,
      "0x55bb397e": 5819,
      "0x55bb3975a": 5820,
      "0x55bb37dea0": 5821,
      "93a0": 5822,
      "93780": 5823,
      "0x55bb39cb2": 5824,
      "f4a50": 5825,
      "e4f0": 5826,
      "e4b0": 5827,
      "e4ff8": 5828,
      "e4990": 5829,
      "e4700": 5830,
      "e4a50": 5831,
      "0x55bb39151": 5832,
      "e320": 5833,
      "e3e0": 5834,
      "e3f0": 5835,
      "fba0": 5836,
      "fb78": 5837,
      "fb480": 5838,
      "95d0": 5839,
      "95a0": 5840,
      "95b0": 5841,
      "959a0": 5842,
      "f770": 5843,
      "f3a0": 5844,
      "f360": 5845,
      "f3a8": 5846,
      "f3fa0": 5847,
      "f3310": 5848,
      "0x55bb3a36c": 5849,
      "0x55bb3a32a0b0": 5850,
      "0x55bb3a8f8": 5851,
      "0x55bb3a8b2": 5852,
      "0x55bb392b0": 5853,
      "0x55bb39475": 5854,
      "0x55bb3a4320": 5855,
      "e5d0": 5856,
      "e5f60": 5857,
      "e55b0": 5858,
      "e5360": 5859,
      "e5748": 5860,
      "c130": 5861,
      "0x55bb38b9a": 5862,
      "0x55bb38b14": 5863,
      "0x7fc15e3c": 5864,
      "0x7fc15e323": 5865,
      "0x55bb38da3": 5866,
      "e2d0": 5867,
      "e2f0": 5868,
      "e270": 5869,
      "e2de0": 5870,
      "0x55bb3a1e": 5871,
      "0x55bb3a152330": 5872,
      "0x12b": 5873,
      "0x55bb3a2e1cc0": 5874,
      "e7a8": 5875,
      "e7ff8": 5876,
      "9280": 5877,
      "9260": 5878,
      "92af0": 5879,
      "97e0": 5880,
      "9b180": 5881,
      "9da70": 5882,
      "f08ff0": 5883,
      "e980": 5884,
      "99f0": 5885,
      "9999": 5886,
      "11c0": 5887,
      "1158": 5888,
      "53f00": 5889,
      "6cf0": 5890,
      "6ca0": 5891,
      "41ff8": 5892,
      "6a60": 5893,
      "5520": 5894,
      "55f0": 5895,
      "55b0": 5896,
      "55ff8": 5897,
      "55430": 5898,
      "6380": 5899,
      "6390": 5900,
      "63c0": 5901,
      "6360": 5902,
      "b290": 5903,
      "5ac0": 5904,
      "4498": 5905,
      "4470": 5906,
      "44c0": 5907,
      "5c20": 5908,
      "5ce10": 5909,
      "5c210": 5910,
      "ba50": 5911,
      "bac0": 5912,
      "bab0": 5913,
      "b6f0": 5914,
      "b6900": 5915,
      "43d0": 5916,
      "4280": 5917,
      "a300": 5918,
      "a330": 5919,
      "56a0": 5920,
      "52ff8": 5921,
      "52270": 5922,
      "52a60": 5923,
      "73d0": 5924,
      "73a0": 5925,
      "73ff8": 5926,
      "da10": 5927,
      "da68": 5928,
      "bc60": 5929,
      "bcc30": 5930,
      "d6ff8": 5931,
      "ee20": 5932,
      "ee90": 5933,
      "4c10": 5934,
      "4c20": 5935,
      "4c30": 5936,
      "4cfe0": 5937,
      "4c70": 5938,
      "4cd8": 5939,
      "4c9b0": 5940,
      "4a10": 5941,
      "4ad60": 5942,
      "0x7fc15e8d": 5943,
      "0x7fc15e855": 5944,
      "0x7fc15e8baf30": 5945,
      "7150": 5946,
      "714f0": 5947,
      "7a10": 5948,
      "7a70": 5949,
      "7a90": 5950,
      "0x7fc15ed7": 5951,
      "b1b0": 5952,
      "b1900": 5953,
      "0x7fc15f820": 5954,
      "72c0": 5955,
      "72b0": 5956,
      "7260": 5957,
      "ca00": 5958,
      "fe20": 5959,
      "feb0": 5960,
      "fefe": 5961,
      "3330": 5962,
      "3340": 5963,
      "33d0": 5964,
      "9ef0": 5965,
      "9e90": 5966,
      "762d0": 5967,
      "0x7fc15fc2": 5968,
      "0x7fc15fce": 5969,
      "0x7fc15fc42fc8": 5970,
      "0x7fc15ea1": 5971,
      "0x7fc15ea8": 5972,
      "0x7fc15eac": 5973,
      "0x7fc15eab0": 5974,
      "b300": 5975,
      "b3f0": 5976,
      "b3fd0": 5977,
      "aae0": 5978,
      "aaff8": 5979,
      "aa4f0": 5980,
      "2320": 5981,
      "2380": 5982,
      "2358": 5983,
      "7c10": 5984,
      "7c3b0": 5985,
      "d340": 5986,
      "d3fd0": 5987,
      "d378": 5988,
      "0x7fc15ff4": 5989,
      "54b0": 5990,
      "54940": 5991,
      "cc410": 5992,
      "2a30": 5993,
      "2ad0": 5994,
      "2a90": 5995,
      "74fc0": 5996,
      "2cf80": 5997,
      "0x7fc15f1b2": 5998,
      "7550": 5999,
      "6110": 6000,
      "b480": 6001,
      "b4f0": 6002,
      "b460": 6003,
      "efb8": 6004,
      "d760": 6005,
      "0x7fc15fd5": 6006,
      "0x7fc15fdd": 6007,
      "31f60": 6008,
      "d420": 6009,
      "d490": 6010,
      "7700": 6011,
      "7780": 6012,
      "0x7fc15df38": 6013,
      "a640": 6014,
      "5b00": 6015,
      "5b30": 6016,
      "5bfc0": 6017,
      "5b700": 6018,
      "0x7fc15ec5": 6019,
      "0x7fc15ec7": 6020,
      "0x7fc15f39": 6021,
      "0x7fc15f3e": 6022,
      "fe8a8": 6023,
      "5710": 6024,
      "3cff8": 6025,
      "47e0": 6026,
      "47f0": 6027,
      "2430": 6028,
      "3ae0": 6029,
      "36a0": 6030,
      "c410": 6031,
      "c400": 6032,
      "0x7fc1611b": 6033,
      "0x7fc16002": 6034,
      "0x7fc15f218": 6035,
      "c3400": 6036,
      "b750": 6037,
      "b7a0": 6038,
      "dd40": 6039,
      "ddf0": 6040,
      "0x7fc15f64": 6041,
      "0x7fc15f67": 6042,
      "0x7fc15faec": 6043,
      "0x55bb38efc960": 6044,
      "0x7fc15f4ece30": 6045,
      "25e0": 6046,
      "0x7fc16137b9b0": 6047,
      "0x7fc15e7d88": 6048,
      "5d80": 6049,
      "1cfc0": 6050,
      "e40a0": 6051,
      "0x7fc16085": 6052,
      "b520": 6053,
      "b550": 6054,
      "b5f0": 6055,
      "27e0": 6056,
      "27100": 6057,
      "1420": 6058,
      "0x7fc15e59c": 6059,
      "0x7fc16022": 6060,
      "c720": 6061,
      "c750": 6062,
      "c7bb0": 6063,
      "b0070": 6064,
      "ba060": 6065,
      "2b080": 6066,
      "0x7fc15e9bb": 6067,
      "0x7fc15e9ea": 6068,
      "a7c0": 6069,
      "0x7fc16136dda0": 6070,
      "0x7fc15e188": 6071,
      "0x55bb38bbfda0": 6072,
      "0x7fc1607d": 6073,
      "0x7fc15e38eac8": 6074,
      "0x7fc15ee9a": 6075,
      "0x55bb389794c0": 6076,
      "0x55bb37a82930": 6077,
      "96820": 6078,
      "968fe0": 6079,
      "0x55bb381ac860": 6080,
      "0x55bb38eda6d0": 6081,
      "0x55bb3968e430": 6082,
      "0x55bb3968e580": 6083,
      "0x55bb386cba90": 6084,
      "0x55bb38901380": 6085,
      "0x55bb3872d770": 6086,
      "0x55bb399874a0": 6087,
      "bdff8": 6088,
      "0x55bb389b66a0": 6089,
      "0x55bb384c5660": 6090,
      "0x55bb368cec10": 6091,
      "0x55bb3961caf0": 6092,
      "9b820": 6093,
      "0x55bb39ca47": 6094,
      "0x55bb38d6fc70": 6095,
      "0x7fc15ee4be68": 6096,
      "0x6ffffeff": 6097,
      "0x7fc15eba9978": 6098,
      "0x55bb365fe8a8": 6099,
      "0x55bb36e9eed0": 6100,
      "0x55bb39cb9900": 6101,
      "10800": 6102,
      "0x7fc15f201": 6103,
      "45c8": 6104,
      "0x7fc15e5394f8": 6105,
      "0x7fc15e7a66": 6106,
      "0x7fc15eb070a8": 6107,
      "0x7fc15e6671a0": 6108,
      "0x55bb357fc": 6109,
      "0x7fc15ec373d0": 6110,
      "0x7fc1613ab": 6111,
      "0x55bb396e6d80": 6112,
      "0xff456d14": 6113,
      "0x55bb3a238f30": 6114,
      "0x7fc15eaf75b8": 6115,
      "0x55bb3580810e": 6116,
      "0x55bb388fb230": 6117,
      "0x55bb39888260": 6118,
      "0x55bb396da9c0": 6119,
      "0x55bb3a36c510": 6120,
      "0x55bb39475700": 6121,
      "0x55bb3a432060": 6122,
      "0x7fc15e7d88c0": 6123,
      "1fb0": 6124,
      "1960": 6125,
      "1db0": 6126,
      "1b80": 6127,
      "1b60": 6128,
      "19e8": 6129,
      "2d50": 6130,
      "2418": 6131,
      "2f8": 6132,
      "2bd0": 6133,
      "2b40": 6134,
      "2b50": 6135,
      "2d40": 6136,
      "3d50": 6137,
      "3e8": 6138,
      "3200": 6139,
      "3fd8": 6140,
      "3f70": 6141,
      "3e40": 6142,
      "3bc0": 6143,
      "39e0": 6144,
      "3be0": 6145,
      "3280": 6146,
      "35e0": 6147,
      "3428": 6148,
      "458": 6149,
      "4ed0": 6150,
      "4f70": 6151,
      "4990": 6152,
      "4d70": 6153,
      "4bd0": 6154,
      "4d80": 6155,
      "45c0": 6156,
      "4bf0": 6157,
      "4b68": 6158,
      "5c8": 6159,
      "544": 6160,
      "5e00": 6161,
      "5ee0": 6162,
      "59b0": 6163,
      "5ef0": 6164,
      "6e8": 6165,
      "6fc8": 6166,
      "6bb0": 6167,
      "6f60": 6168,
      "6970": 6169,
      "6510": 6170,
      "6280": 6171,
      "7b8": 6172,
      "7e90": 6173,
      "7eb0": 6174,
      "8e0": 6175,
      "890": 6176,
      "9230": 6177,
      "9d020": 6178,
      "9960": 6179,
      "9b030": 6180,
      "9f88": 6181,
      "9f48": 6182,
      "a18": 6183,
      "a78": 6184,
      "afb0": 6185,
      "ae70": 6186,
      "ae60": 6187,
      "a590": 6188,
      "bed0": 6189,
      "be90": 6190,
      "b980": 6191,
      "bd60": 6192,
      "bd88": 6193,
      "bd40": 6194,
      "cf": 6195,
      "cf8": 6196,
      "c48": 6197,
      "cdc0": 6198,
      "c008": 6199,
      "c200": 6200,
      "cfe8": 6201,
      "c9b0": 6202,
      "c950": 6203,
      "c2b0": 6204,
      "cb50": 6205,
      "c5f0": 6206,
      "d3b8": 6207,
      "ddc0": 6208,
      "dfc8": 6209,
      "dbb0": 6210,
      "dfe8": 6211,
      "d940": 6212,
      "d9f8": 6213,
      "dbb8": 6214,
      "ed20": 6215,
      "e960": 6216,
      "e9030": 6217,
      "f200": 6218,
      "f2040": 6219,
      "fed8": 6220,
      "ff20": 6221,
      "0x104": 6222,
      "0xfa": 6223,
      "0xf9": 6224,
      "0x7fa1": 6225,
      "0x7f81": 6226,
      "0x5fb1": 6227,
      "fcf70": 6228,
      "fccf": 6229,
      "fc18": 6230,
      "fc1fe0": 6231,
      "bb78": 6232,
      "bb7a0": 6233,
      "bb38": 6234,
      "0x3c": 6235,
      "0x3d": 6236,
      "0x7fc16120": 6237,
      "0x25": 6238,
      "0x260": 6239,
      "0x2f3": 6240,
      "0x2f81": 6241,
      "d280": 6242,
      "d248": 6243,
      "d26b0": 6244,
      "dc20": 6245,
      "dc00": 6246,
      "dcd0": 6247,
      "0x7fc16104f0": 6248,
      "0x7fc16104c9a0": 6249,
      "208": 6250,
      "2090": 6251,
      "20c0": 6252,
      "2060": 6253,
      "e0d0": 6254,
      "e070": 6255,
      "e02c0": 6256,
      "0x10f81": 6257,
      "0x7ffdd2ea6680": 6258,
      "0x7ffdd2ea68c0": 6259,
      "8038": 6260,
      "809b0": 6261,
      "3050": 6262,
      "30a0": 6263,
      "0x7fc15df08": 6264,
      "ed30": 6265,
      "ed98": 6266,
      "ed6f0": 6267,
      "9880": 6268,
      "98a90": 6269,
      "0x1b0": 6270,
      "0x7ffdd2ea7560": 6271,
      "5060": 6272,
      "40a0": 6273,
      "40c0": 6274,
      "409e0": 6275,
      "0x55bb37ffd": 6276,
      "0x55bb37104": 6277,
      "0x55bb377d0": 6278,
      "0x55bb37418": 6279,
      "0x55bb37f80": 6280,
      "0x55bb37e00": 6281,
      "0x55bb37fc8": 6282,
      "0x55bb37fe8": 6283,
      "0x55bb37fb8": 6284,
      "0x55bb38fe8": 6285,
      "0x55bb39fc0": 6286,
      "0x55bb395030": 6287,
      "0x55bb39e40": 6288,
      "f0d0": 6289,
      "f04a0": 6290,
      "00030": 6291,
      "c840": 6292,
      "c8d30": 6293,
      "c85a0": 6294,
      "0x7fc160bb": 6295,
      "0x7fc16070": 6296,
      "0x7fc16046": 6297,
      "0x7fc16095": 6298,
      "0x7fc16051": 6299,
      "0x7fc160c6": 6300,
      "0x7fc160d60": 6301,
      "0x7fc1604c0": 6302,
      "bf20": 6303,
      "bf4d0": 6304,
      "0x55bb36fd1": 6305,
      "0x55bb36ff8": 6306,
      "0x55bb365c": 6307,
      "0x55bb3654": 6308,
      "0x55bb36fd8": 6309,
      "0x55bb36500": 6310,
      "0x55bb36f03040": 6311,
      "a0c0": 6312,
      "a01a0": 6313,
      "9618": 6314,
      "1800": 6315,
      "18c0": 6316,
      "18008": 6317,
      "18120": 6318,
      "0x7ffdd2ea6f40": 6319,
      "8680": 6320,
      "86a0": 6321,
      "23070": 6322,
      "0x7fc160e4": 6323,
      "0x7fc160e3a": 6324,
      "0x7fc160e2e3": 6325,
      "0x7fc160e38ad0": 6326,
      "e150": 6327,
      "ff0ff0": 6328,
      "70c0": 6329,
      "70fa0": 6330,
      "0x7fc15e104": 6331,
      "0x7fc15ed28": 6332,
      "0x7fc15ee5": 6333,
      "0x7fc15ee90": 6334,
      "0x7fc15eef0": 6335,
      "0x7fc15e788": 6336,
      "b8320": 6337,
      "9060": 6338,
      "fd38": 6339,
      "c0fb0": 6340,
      "c02c0": 6341,
      "fc090": 6342,
      "fe1f0": 6343,
      "b0e0": 6344,
      "b0c0": 6345,
      "601d0": 6346,
      "0x7fc15f77": 6347,
      "0x7fc15fb10": 6348,
      "0x7fc15fb5": 6349,
      "0x7fc15fb70": 6350,
      "1310": 6351,
      "13a0": 6352,
      "13b8": 6353,
      "1360": 6354,
      "6800": 6355,
      "68a0": 6356,
      "1790": 6357,
      "ebc0": 6358,
      "46f0": 6359,
      "4628": 6360,
      "4658": 6361,
      "0x55bb35808038": 6362,
      "e850": 6363,
      "e858": 6364,
      "e8240": 6365,
      "f880": 6366,
      "28fa0": 6367,
      "3890": 6368,
      "38b0": 6369,
      "3838": 6370,
      "78f30": 6371,
      "0x7fc15e097": 6372,
      "0x7fc15e061": 6373,
      "a8e0": 6374,
      "a890": 6375,
      "58d0": 6376,
      "58b0": 6377,
      "58fb0": 6378,
      "d890": 6379,
      "d89e0": 6380,
      "0x7fc15e19": 6381,
      "0x7fc15e120": 6382,
      "0x7fc15e156": 6383,
      "f190": 6384,
      "0x55bb3679b": 6385,
      "0x55bb36895": 6386,
      "0x55bb38718": 6387,
      "0x55bb3874c": 6388,
      "0x7fc15e29": 6389,
      "0x7fc15e2e0": 6390,
      "0x7fc15e2a0": 6391,
      "0x7fc15e2f5": 6392,
      "fa00": 6393,
      "fa50": 6394,
      "fa70": 6395,
      "faff8": 6396,
      "0x55bb38055": 6397,
      "0x55bb380b1": 6398,
      "100000": 6399,
      "0x55bb36c90": 6400,
      "0x55bb36c68": 6401,
      "0x55bb36cbc": 6402,
      "0x55bb36cbf0": 6403,
      "91a8": 6404,
      "9158": 6405,
      "0x55bb3854a": 6406,
      "0x55bb385fc090": 6407,
      "0x55bb37a30": 6408,
      "0x55bb37a28": 6409,
      "0x55bb37aec": 6410,
      "0x55bb377e4": 6411,
      "0x55bb377e2": 6412,
      "0x17fa1": 6413,
      "0x55bb37cb0": 6414,
      "0x55bb37c73": 6415,
      "9c60": 6416,
      "0x55bb376b2": 6417,
      "0x55bb376ca": 6418,
      "ece0": 6419,
      "ecd0": 6420,
      "d190": 6421,
      "d1c0": 6422,
      "d1d8": 6423,
      "0xcf81": 6424,
      "0x55bb38a94": 6425,
      "e630": 6426,
      "e690": 6427,
      "e6b0": 6428,
      "0x55bb388e": 6429,
      "0x55bb388dc": 6430,
      "0x55bb388bb7a0": 6431,
      "0x55bb39078": 6432,
      "0x55bb390650": 6433,
      "0x55bb390409e0": 6434,
      "0x55bb38620": 6435,
      "0x55bb398c8": 6436,
      "0x55bb398f2": 6437,
      "0x55bb372c0": 6438,
      "0x55bb372e5": 6439,
      "0x55bb382b6": 6440,
      "0xafa1": 6441,
      "0x14fa1": 6442,
      "0x188": 6443,
      "0x18f91": 6444,
      "0x19f81": 6445,
      "0x55bb374f5": 6446,
      "9420": 6447,
      "0x55bb36ac6": 6448,
      "0x55bb383f2": 6449,
      "0x55bb396bb": 6450,
      "0x55bb396dc": 6451,
      "0x55bb39633": 6452,
      "f640": 6453,
      "f6f80": 6454,
      "0x1afa1": 6455,
      "0x55bb395e6": 6456,
      "0x55bb395a3": 6457,
      "0x55bb3952f0": 6458,
      "0x55bb3955dfb0": 6459,
      "0x55bb39a10800": 6460,
      "0x55bb39ac8d30": 6461,
      "0x155": 6462,
      "0x55bb37bc8": 6463,
      "0x55bb37b46": 6464,
      "0x55bb37bcc": 6465,
      "0x55bb37ba00": 6466,
      "0x55bb39748": 6467,
      "0x55bb397fcf70": 6468,
      "0x55bb37d96": 6469,
      "0x55bb37d7c": 6470,
      "9390": 6471,
      "9348": 6472,
      "f450": 6473,
      "f4c0": 6474,
      "f468": 6475,
      "0x55bb39168": 6476,
      "0x55bb3a5d6": 6477,
      "e350": 6478,
      "e338": 6479,
      "fb3e0": 6480,
      "0x55bb36df10": 6481,
      "9510": 6482,
      "95b8": 6483,
      "f300": 6484,
      "f3c0": 6485,
      "f3f70": 6486,
      "0x55bb3719": 6487,
      "f540": 6488,
      "f5c90": 6489,
      "0x55bb384c02c0": 6490,
      "dc0fe0": 6491,
      "0x55bb392bc": 6492,
      "0x55bb3a49b": 6493,
      "0x55bb3a4e20": 6494,
      "e520": 6495,
      "e5b8": 6496,
      "e590": 6497,
      "e56e0": 6498,
      "c1e8": 6499,
      "0x55bb38b26": 6500,
      "0x7fc15e3b": 6501,
      "0x7fc15e328": 6502,
      "0x55bb38dba": 6503,
      "e240": 6504,
      "e2b0": 6505,
      "e260": 6506,
      "0x55bb3a1e7": 6507,
      "0x55bb3a1bf4d0": 6508,
      "0x55bb3a1fe1f0": 6509,
      "0x12fa1": 6510,
      "0x12f81": 6511,
      "0x55bb3a246": 6512,
      "0x55bb3a2d6": 6513,
      "0x55bb3a231": 6514,
      "e710": 6515,
      "e720": 6516,
      "e730": 6517,
      "e750": 6518,
      "e778": 6519,
      "0x55bb3b77a000": 6520,
      "0x55bb3a7d6": 6521,
      "9240": 6522,
      "9290": 6523,
      "92db0": 6524,
      "9740": 6525,
      "9790": 6526,
      "97b0": 6527,
      "0x55bb36b17": 6528,
      "0x55bb36b28": 6529,
      "0xefb1": 6530,
      "f250": 6531,
      "f2b0": 6532,
      "f2e8": 6533,
      "f2e80": 6534,
      "0x1ef81": 6535,
      "0x55bb3c2d1": 6536,
      "0x55bb39d93": 6537,
      "0x55bb39d42": 6538,
      "0x55bb39d601d0": 6539,
      "0x55bb3aaf9000": 6540,
      "9b00": 6541,
      "0xff91": 6542,
      "e9e0": 6543,
      "e9f8": 6544,
      "0x1ff91": 6545,
      "9950": 6546,
      "99e8": 6547,
      "1180": 6548,
      "11b0": 6549,
      "53c40": 6550,
      "6c10": 6551,
      "6ce0": 6552,
      "6cc0": 6553,
      "008000": 6554,
      "4180": 6555,
      "4198": 6556,
      "41c0": 6557,
      "41580": 6558,
      "6aa0": 6559,
      "5510": 6560,
      "55e0": 6561,
      "55e20": 6562,
      "6310": 6563,
      "6378": 6564,
      "b220": 6565,
      "4490": 6566,
      "5cf8": 6567,
      "babf8": 6568,
      "b6d0": 6569,
      "b6a0": 6570,
      "b6c0": 6571,
      "b660": 6572,
      "b6938": 6573,
      "4310": 6574,
      "4330": 6575,
      "43a0": 6576,
      "43c0": 6577,
      "4210": 6578,
      "42f0": 6579,
      "a370": 6580,
      "73f0": 6581,
      "73c0": 6582,
      "7348": 6583,
      "da50": 6584,
      "dac0": 6585,
      "bc30": 6586,
      "d690": 6587,
      "d6c0": 6588,
      "ee60": 6589,
      "4af0": 6590,
      "0x7fc15e84": 6591,
      "0x7fc15e8b": 6592,
      "0x7fc15e8e0": 6593,
      "0x7fc15e844": 6594,
      "0x7fc15e8d6": 6595,
      "71d20": 6596,
      "712f0": 6597,
      "7ab0": 6598,
      "7a60": 6599,
      "0x7fc15ed1": 6600,
      "0x7fc15ed9": 6601,
      "0x7fc15eda1": 6602,
      "0x7fc15ed4d": 6603,
      "b130": 6604,
      "b150": 6605,
      "b160": 6606,
      "0xbfb1": 6607,
      "0x1bfa1": 6608,
      "0x1bf81": 6609,
      "0x7fc15f88": 6610,
      "0x7fc15f895": 6611,
      "0x7fc15f8e2": 6612,
      "0x7fc15f8e7": 6613,
      "0x7fc15f84a": 6614,
      "0x7fc15f8aa": 6615,
      "72d0": 6616,
      "caa8": 6617,
      "feb8": 6618,
      "3358": 6619,
      "33fb0": 6620,
      "764c0": 6621,
      "0x7fc15fc3": 6622,
      "0x7fc15fc4": 6623,
      "0x7fc15fcd": 6624,
      "0x7fc15fc86": 6625,
      "0x7fc15fccc": 6626,
      "0x7fc15ea2": 6627,
      "0x7fc15ea4": 6628,
      "0x7fc15ea33": 6629,
      "b320": 6630,
      "b360": 6631,
      "aa50": 6632,
      "aad0": 6633,
      "aa90": 6634,
      "23b0": 6635,
      "7c70": 6636,
      "7cc0": 6637,
      "d3e0": 6638,
      "d360": 6639,
      "d3f90": 6640,
      "0x7fc15ffe6": 6641,
      "0x7fc15ff5c": 6642,
      "0x7fc15e64": 6643,
      "0x7fc15e6f": 6644,
      "0x7fc15e6a0": 6645,
      "0x7fc15e64c": 6646,
      "0x7fc15e6540": 6647,
      "5410": 6648,
      "5450": 6649,
      "5440": 6650,
      "54ff8": 6651,
      "20088": 6652,
      "cc10": 6653,
      "cc20": 6654,
      "cc30": 6655,
      "ccfc0": 6656,
      "cc60": 6657,
      "d2070": 6658,
      "2ac0": 6659,
      "0x7fc15f06": 6660,
      "0x7fc15f0b2": 6661,
      "0x7fc15f023": 6662,
      "2600": 6663,
      "26f8": 6664,
      "7498": 6665,
      "0x7fc15f14": 6666,
      "0x7fc15f1d2": 6667,
      "75e0": 6668,
      "6150": 6669,
      "6160": 6670,
      "51c0": 6671,
      "b450": 6672,
      "b490": 6673,
      "ac50": 6674,
      "ac60": 6675,
      "d728": 6676,
      "0x7fc15fd98": 6677,
      "0x7fc15fde3": 6678,
      "3190": 6679,
      "d410": 6680,
      "d450": 6681,
      "e00d0": 6682,
      "0x7fc15dfea": 6683,
      "0x7fc15dfec": 6684,
      "a620": 6685,
      "5b10": 6686,
      "5b50": 6687,
      "5b60": 6688,
      "0x7fc15ecca": 6689,
      "0x7fc15f34": 6690,
      "0x7fc15f37": 6691,
      "0x7fc15f3fd": 6692,
      "0x7fc15f313": 6693,
      "0x7fc15f3e8": 6694,
      "0x7fc15f348": 6695,
      "0x7fc15f324": 6696,
      "5720": 6697,
      "57b0": 6698,
      "66d8": 6699,
      "0x55bb37ef4": 6700,
      "0x55bb37e80e30": 6701,
      "0x55bb39928fa0": 6702,
      "3c9b0": 6703,
      "4740": 6704,
      "47a0": 6705,
      "0x55bb369c8": 6706,
      "2490": 6707,
      "3af0": 6708,
      "0x7fc15e4e": 6709,
      "0x7fc15e4fa8": 6710,
      "0x7fc15e4e48": 6711,
      "362c0": 6712,
      "c480": 6713,
      "0x7fc161170": 6714,
      "0x7fc1600e3": 6715,
      "0x7fc16009d": 6716,
      "0x7fc15f25": 6717,
      "0x7fc15f2ec": 6718,
      "0x7fc15f243": 6719,
      "0x7fc15f27a": 6720,
      "a4e0": 6721,
      "a4ed0": 6722,
      "b780": 6723,
      "b730": 6724,
      "b770": 6725,
      "dd10": 6726,
      "dd80": 6727,
      "0x7fc15f6b": 6728,
      "0x7fc15f697": 6729,
      "0x7fc15fa42": 6730,
      "0x7fc15f480": 6731,
      "d908": 6732,
      "0x7fc16137d000": 6733,
      "0x7fc15e744": 6734,
      "0x7fc15e743": 6735,
      "f6070": 6736,
      "0x55bb36f17": 6737,
      "0x55bb36feb": 6738,
      "db30": 6739,
      "0x7fc1608a": 6740,
      "0x7fc1608b": 6741,
      "0x7fc1608f6": 6742,
      "0x7fc1608c4": 6743,
      "d550": 6744,
      "d590": 6745,
      "d5b0": 6746,
      "2798": 6747,
      "27a8": 6748,
      "0x7fc15f7e7": 6749,
      "0x7fc15f772": 6750,
      "0x55bb3637": 6751,
      "0x55bb363b": 6752,
      "0x55bb363d": 6753,
      "0x55bb36343": 6754,
      "0x7ffdd2ea71b0": 6755,
      "0x7fc1602fd": 6756,
      "0x7fc1602cc": 6757,
      "0x55bb3aef7": 6758,
      "0x7fc15deed": 6759,
      "b708": 6760,
      "0x7fc160acc": 6761,
      "0x7fc16015": 6762,
      "0x7fc160130": 6763,
      "0x55bb38f9d": 6764,
      "0x7fc160630": 6765,
      "0x7fc160648": 6766,
      "0x7fc15ebe": 6767,
      "0x7fc15ebe2": 6768,
      "0x7fc15eb6a": 6769,
      "ad060": 6770,
      "5508": 6771,
      "0x7fc15e998": 6772,
      "0x7fc160c10": 6773,
      "aa070": 6774,
      "0x55bb37f73e40": 6775,
      "0x55bb38fa47a0": 6776,
      "0x7fc15fee7": 6777,
      "0x55bb3994b980": 6778,
      "0x7fc15f995": 6779,
      "0x55bb38938020": 6780,
      "0x7fc15dfc7": 6781,
      "0x55bb38e4b440": 6782,
      "c2fa0": 6783,
      "c2950": 6784,
      "0x55bb39eb1440": 6785,
      "0x55bb39688": 6786,
      "0x55bb37f03ca0": 6787,
      "0x55bb38ac46e0": 6788,
      "0x7fc1604eb": 6789,
      "0x55bb398663e0": 6790,
      "0x55bb38fb6510": 6791,
      "0x55bb3796e080": 6792,
      "0x55bb3a18db70": 6793,
      "7db8": 6794,
      "0x55bb3a1338c0": 6795,
      "0x55bb3a1638a0": 6796,
      "0x55bb3a431150": 6797,
      "0x55bb39dc71f0": 6798,
      "0x55bb390c92c0": 6799,
      "0x55bb38785760": 6800,
      "cb08": 6801,
      "0x55bb3a4c9000": 6802,
      "0x55bb39d3b730": 6803,
      "0x7fc161055": 6804,
      "0x7fc15fc11": 6805,
      "0x55bb3a3aee70": 6806,
      "0x7fc15ef53": 6807,
      "0x7fc15f11bb": 6808,
      "0x55bb3a5b5c80": 6809,
      "0x55bb38d4dbd0": 6810,
      "0x7fc15f9cc": 6811,
      "0x7fc15e0d92e0": 6812,
      "0x7fc15e93a": 6813,
      "0x7fc15f412a": 6814,
      "d688": 6815,
      "0x7fc158000b60": 6816,
      "ef880": 6817,
      "0x7fc15f186": 6818,
      "f4888": 6819,
      "698f0": 6820,
      "0x7fc160972": 6821,
      "0x7fc16097c": 6822,
      "0x55bb357fb": 6823,
      "0x55bb3a2ee670": 6824,
      "0x7fc16137c560": 6825,
      "0x7fc160503": 6826,
      "0xfffffffffffffccf": 6827,
      "0x55bb398f5be0": 6828,
      "0x55bb396112e0": 6829,
      "0x55bb37dee9d0": 6830,
      "0x55bb39df3620": 6831,
      "0x55bb39fc8160": 6832,
      "0x7fc160b291": 6833,
      "0x55bb3752a2f0": 6834,
      "0x55bb38b149b0": 6835,
      "0x55bb395030c0": 6836,
      "0x7fc160e2e340": 6837,
      "0x7fc15ed28508": 6838,
      "0x55bb3874c570": 6839,
      "0x55bb38055410": 6840,
      "0x55bb36cbf0e0": 6841,
      "0x55bb37aec9c0": 6842,
      "0x55bb3952f080": 6843,
      "0x55bb37ba00a0": 6844,
      "0x55bb3a5d6f20": 6845,
      "0x55bb36df10d0": 6846,
      "0x55bb3a1e7310": 6847,
      "0x55bb39d42510": 6848,
      "1e30": 6849,
      "17d0": 6850,
      "168": 6851,
      "1200": 6852,
      "1fd8": 6853,
      "19a0": 6854,
      "1f70": 6855,
      "1940": 6856,
      "1250": 6857,
      "2200": 6858,
      "2fd8": 6859,
      "2ee0": 6860,
      "29f0": 6861,
      "22e0": 6862,
      "2b90": 6863,
      "2de0": 6864,
      "2910": 6865,
      "2b60": 6866,
      "2e28": 6867,
      "368": 6868,
      "328": 6869,
      "3ce0": 6870,
      "3fc8": 6871,
      "3990": 6872,
      "3410": 6873,
      "3b20": 6874,
      "34f0": 6875,
      "35f0": 6876,
      "3d40": 6877,
      "3530": 6878,
      "3480": 6879,
      "37b0": 6880,
      "4dc": 6881,
      "4f30": 6882,
      "4d30": 6883,
      "4e20": 6884,
      "4f60": 6885,
      "4ef0": 6886,
      "4e60": 6887,
      "4b00": 6888,
      "4b70": 6889,
      "4b20": 6890,
      "4da0": 6891,
      "45d0": 6892,
      "4570": 6893,
      "4a88": 6894,
      "5f8": 6895,
      "5dc0": 6896,
      "5d4": 6897,
      "5d30": 6898,
      "5990": 6899,
      "5e40": 6900,
      "5940": 6901,
      "5e60": 6902,
      "59b8": 6903,
      "5f78": 6904,
      "621": 6905,
      "6f8": 6906,
      "6d28": 6907,
      "6a8": 6908,
      "6d8": 6909,
      "6f90": 6910,
      "6fe8": 6911,
      "6fd8": 6912,
      "6d30": 6913,
      "6990": 6914,
      "6f40": 6915,
      "6900": 6916,
      "6db0": 6917,
      "6580": 6918,
      "6ba8": 6919,
      "7ce0": 6920,
      "7fb8": 6921,
      "7f20": 6922,
      "7e20": 6923,
      "7f60": 6924,
      "7e60": 6925,
      "7970": 6926,
      "79d0": 6927,
      "7b20": 6928,
      "7b60": 6929,
      "7968": 6930,
      "850": 6931,
      "8f0": 6932,
      "8a0": 6933,
      "8ff8": 6934,
      "8e40": 6935,
      "8b00": 6936,
      "83a0": 6937,
      "8af0": 6938,
      "8438": 6939,
      "93b8": 6940,
      "9f80": 6941,
      "9200": 6942,
      "9100": 6943,
      "99030": 6944,
      "9fb8": 6945,
      "9f50": 6946,
      "9178": 6947,
      "9ee40": 6948,
      "996d0": 6949,
      "a418": 6950,
      "a48": 6951,
      "afd8": 6952,
      "ae20": 6953,
      "a9b0": 6954,
      "a9f0": 6955,
      "a250": 6956,
      "aeb0": 6957,
      "a730": 6958,
      "abe0": 6959,
      "abf0": 6960,
      "ade8": 6961,
      "b7d0": 6962,
      "b6c": 6963,
      "bd20": 6964,
      "be80": 6965,
      "be70": 6966,
      "b940": 6967,
      "b9f0": 6968,
      "be60": 6969,
      "bd80": 6970,
      "b788": 6971,
      "bed8": 6972,
      "cea0": 6973,
      "cf30": 6974,
      "c5a0": 6975,
      "c970": 6976,
      "cb90": 6977,
      "c210": 6978,
      "c520": 6979,
      "c560": 6980,
      "cbe0": 6981,
      "c9b8": 6982,
      "cf78": 6983,
      "cb98": 6984,
      "c9f8": 6985,
      "dea0": 6986,
      "dfd8": 6987,
      "df60": 6988,
      "df10": 6989,
      "d930": 6990,
      "def0": 6991,
      "de10": 6992,
      "d900": 6993,
      "d9d0": 6994,
      "de68": 6995,
      "ee30": 6996,
      "e230": 6997,
      "eec": 6998,
      "e9a": 6999,
      "eefe0": 7000,
      "e200": 7001,
      "effb0": 7002,
      "ee008": 7003,
      "ee5a0": 7004,
      "eecf0": 7005,
      "f230": 7006,
      "f3b8": 7007,
      "fe2": 7008,
      "f100": 7009,
      "f9a90": 7010,
      "f9750": 7011,
      "ff008": 7012,
      "ffc20": 7013,
      "ff4a0": 7014,
      "0xfa1": 7015,
      "0xff81": 7016,
      "ffff8": 7017,
      "0x5f": 7018,
      "0x5f91": 7019,
      "fcb0": 7020,
      "fce8": 7021,
      "fcff8": 7022,
      "fc25": 7023,
      "fc620": 7024,
      "10fa0": 7025,
      "10f00": 7026,
      "10750": 7027,
      "10608": 7028,
      "bb80": 7029,
      "bb70": 7030,
      "bbb0": 7031,
      "bb990": 7032,
      "bb3000": 7033,
      "0x3e": 7034,
      "0x28": 7035,
      "0x2fa1": 7036,
      "ea40": 7037,
      "ea18": 7038,
      "ea60": 7039,
      "ea48": 7040,
      "eaf30": 7041,
      "eaef0": 7042,
      "ea7a0": 7043,
      "ea910": 7044,
      "d210": 7045,
      "d2f0": 7046,
      "d2df0": 7047,
      "d2c10": 7048,
      "dc970": 7049,
      "20ff8": 7050,
      "20f70": 7051,
      "20ef0": 7052,
      "e0e0": 7053,
      "e0f0": 7054,
      "e0b8": 7055,
      "e0d30": 7056,
      "e0c80": 7057,
      "0x109": 7058,
      "0x10fb1": 7059,
      "0x7ffdd2ea6600": 7060,
      "0x7ffdd2ea6a80": 7061,
      "0x7ffdd2ea6660": 7062,
      "00a0": 7063,
      "00f40": 7064,
      "80a0": 7065,
      "80f80": 7066,
      "3070": 7067,
      "30d10": 7068,
      "30b98": 7069,
      "0x4f91": 7070,
      "0x7fc15dfd0": 7071,
      "0x7fc15dfc8": 7072,
      "0x7fc15df81": 7073,
      "edb0": 7074,
      "ed68": 7075,
      "edfb0": 7076,
      "ed100": 7077,
      "edf60": 7078,
      "ed750": 7079,
      "0x7fc15dedef70": 7080,
      "9800": 7081,
      "9830": 7082,
      "9898": 7083,
      "98b0": 7084,
      "98fa0": 7085,
      "98120": 7086,
      "98eb8": 7087,
      "0x138": 7088,
      "0x1d8": 7089,
      "0x1100": 7090,
      "0x1ff81": 7091,
      "0x7ffdd2ea7550": 7092,
      "0x7ffdd2ea74a0": 7093,
      "0x7ffdd2ea7308": 7094,
      "5080": 7095,
      "50ff8": 7096,
      "40f8": 7097,
      "40e40": 7098,
      "40970": 7099,
      "40750": 7100,
      "40240": 7101,
      "d080": 7102,
      "d0f0": 7103,
      "d070": 7104,
      "d0c0": 7105,
      "d0490": 7106,
      "0x55bb37ff1": 7107,
      "0x55bb37001": 7108,
      "0x55bb37fd1": 7109,
      "0x55bb377fe0": 7110,
      "0x55bb37d28": 7111,
      "0x55bb377020": 7112,
      "0x55bb37f50": 7113,
      "0x7fc15ded8de0": 7114,
      "0x7fc15ded8d48": 7115,
      "d50c0": 7116,
      "d5058": 7117,
      "0x55bb38104": 7118,
      "0x55bb38fe0": 7119,
      "0x55bb38001": 7120,
      "0x55bb38dc0": 7121,
      "0x55bb38fa0": 7122,
      "0x55bb38d20": 7123,
      "0x55bb38ed0": 7124,
      "0x55bb38a88": 7125,
      "0x55bb39d50": 7126,
      "0x55bb39418": 7127,
      "0x55bb39f30": 7128,
      "0x55bb39f91": 7129,
      "0x55bb39e50": 7130,
      "0x55bb39ef0": 7131,
      "0x55bb39dc0fe0": 7132,
      "0x55bb3a7d0": 7133,
      "0x55bb3ad28": 7134,
      "0x55bb3afb8": 7135,
      "0x55bb3af70": 7136,
      "0x55bb3af08ff0": 7137,
      "f0c0": 7138,
      "f0290": 7139,
      "0x55bb3b001": 7140,
      "0x55bb3bf10": 7141,
      "0x55bb3be40": 7142,
      "0x55bb3bf88": 7143,
      "c830": 7144,
      "c898": 7145,
      "c8a0": 7146,
      "c858": 7147,
      "c8ff8": 7148,
      "c8920": 7149,
      "c8730": 7150,
      "0x7fc16052": 7151,
      "0x7fc16036": 7152,
      "0x7fc160db": 7153,
      "bf9f0": 7154,
      "0x55bb36fc1": 7155,
      "0x55bb36ffd": 7156,
      "0x55bb367d0": 7157,
      "0x55bb36ff1": 7158,
      "0x55bb36dc0": 7159,
      "0x55bb36fa0": 7160,
      "0x55bb3663": 7161,
      "0x55bb36f80": 7162,
      "0x55bb3624": 7163,
      "0x55bb36fa1": 7164,
      "0x55bb3627": 7165,
      "0x55bb36f81": 7166,
      "0x55bb36f88": 7167,
      "0x55bb36968": 7168,
      "0x55bb36a88": 7169,
      "a0f0": 7170,
      "a0e20": 7171,
      "a0510": 7172,
      "a0530": 7173,
      "a0db8": 7174,
      "9670": 7175,
      "96ff8": 7176,
      "96490": 7177,
      "967f0": 7178,
      "966b0": 7179,
      "969b8": 7180,
      "18d0": 7181,
      "18a0": 7182,
      "18b0": 7183,
      "1860": 7184,
      "1868": 7185,
      "18e90": 7186,
      "18aa0": 7187,
      "18a70": 7188,
      "8600": 7189,
      "8640": 7190,
      "8690": 7191,
      "86d8": 7192,
      "86ff8": 7193,
      "86990": 7194,
      "86710": 7195,
      "0x7fc160e40": 7196,
      "e110": 7197,
      "e128": 7198,
      "e1d8": 7199,
      "e13d0": 7200,
      "e1698": 7201,
      "7080": 7202,
      "70f0": 7203,
      "7078": 7204,
      "70e80": 7205,
      "70b30": 7206,
      "70740": 7207,
      "0x7fc15eff8": 7208,
      "0x7fc15e5b": 7209,
      "0x7fc15efff8": 7210,
      "0x7fc15e868": 7211,
      "b880": 7212,
      "b830": 7213,
      "b8d0": 7214,
      "b8d10": 7215,
      "b8aa0": 7216,
      "b8918": 7217,
      "0x202": 7218,
      "9080": 7219,
      "9070": 7220,
      "90fb0": 7221,
      "904f0": 7222,
      "90ad0": 7223,
      "90370": 7224,
      "fde0": 7225,
      "fd40": 7226,
      "fd78": 7227,
      "fde10": 7228,
      "c0258": 7229,
      "fc088": 7230,
      "fe1fe0": 7231,
      "b050": 7232,
      "b0f0": 7233,
      "b0b40": 7234,
      "b0310": 7235,
      "60f0": 7236,
      "60a0": 7237,
      "607a0": 7238,
      "0x55bb357fb0": 7239,
      "0x7fc15fe9": 7240,
      "0x7fc15f9e": 7241,
      "0x7fc15f9040": 7242,
      "0x7fc15f51": 7243,
      "0x7fc15fb7": 7244,
      "0x7fc15fe80": 7245,
      "0x7fc15f970": 7246,
      "0x7fc15f788": 7247,
      "0x7fc15fe760": 7248,
      "0x7fc15f9e70": 7249,
      "13c0": 7250,
      "68fb0": 7251,
      "68180": 7252,
      "175c0": 7253,
      "eb30": 7254,
      "eb6e0": 7255,
      "eb160": 7256,
      "ebc08": 7257,
      "4610": 7258,
      "4630": 7259,
      "46a0": 7260,
      "46b00": 7261,
      "46a00": 7262,
      "46170": 7263,
      "3b8000": 7264,
      "2110": 7265,
      "21d0": 7266,
      "21a0": 7267,
      "21ff8": 7268,
      "21b40": 7269,
      "0x7fc16135": 7270,
      "0x7fc1613aa": 7271,
      "0x8f81": 7272,
      "0x800000": 7273,
      "0x8f41": 7274,
      "0x55bb3580f1": 7275,
      "0x55bb3580ebb0": 7276,
      "ebc88": 7277,
      "e810": 7278,
      "e8f0": 7279,
      "e8c0": 7280,
      "e8d70": 7281,
      "e8570": 7282,
      "f820": 7283,
      "f830": 7284,
      "f858": 7285,
      "f8f60": 7286,
      "f8240": 7287,
      "f8c98": 7288,
      "28e0": 7289,
      "2850": 7290,
      "3820": 7291,
      "3870": 7292,
      "38a50": 7293,
      "38c58": 7294,
      "d2880": 7295,
      "7820": 7296,
      "7800": 7297,
      "78f0": 7298,
      "7870": 7299,
      "78c0": 7300,
      "782d0": 7301,
      "78a80": 7302,
      "78a10": 7303,
      "78118": 7304,
      "78198": 7305,
      "0x7fc15e001": 7306,
      "0x7fc15e0e9": 7307,
      "0x7fc15e05a": 7308,
      "0x7fc15e076": 7309,
      "0x7fc15e023": 7310,
      "0x7fc15e0ddfe0": 7311,
      "0x7fc15e0d0490": 7312,
      "a8c8": 7313,
      "a8520": 7314,
      "48e0": 7315,
      "48c8": 7316,
      "4870": 7317,
      "48c0": 7318,
      "48fc8": 7319,
      "48730": 7320,
      "5870": 7321,
      "5890": 7322,
      "58c20": 7323,
      "d898": 7324,
      "d8d0": 7325,
      "d8fa0": 7326,
      "0x7fc15e1fc": 7327,
      "0x7fc15e1ea": 7328,
      "0x7fc15e1f0": 7329,
      "0x7fc15e1e6": 7330,
      "0x7fc15e1f4": 7331,
      "0x7fc15e15a": 7332,
      "0x7fc15e144": 7333,
      "0x7fc15e1ba": 7334,
      "0x7fc15e14c": 7335,
      "0x7fc15e123": 7336,
      "0x7fc15e1d3": 7337,
      "0x7fc15e1a4": 7338,
      "0x7fc15e16b0": 7339,
      "0x7fc15e16d": 7340,
      "0x7fc15e1e5748": 7341,
      "0x7fc15e168180": 7342,
      "f130": 7343,
      "f170": 7344,
      "f160": 7345,
      "f158": 7346,
      "f1ff8": 7347,
      "f1f80": 7348,
      "0x6f81": 7349,
      "0x55bb367fc": 7350,
      "0x55bb36717": 7351,
      "0x55bb367fb": 7352,
      "0x55bb3677a": 7353,
      "0x55bb36761": 7354,
      "0x55bb36731": 7355,
      "0x55bb36722": 7356,
      "0x55bb367ff000": 7357,
      "0x55bb367bc090": 7358,
      "0x55bb368b8": 7359,
      "0x55bb368e6": 7360,
      "0x55bb368e3": 7361,
      "0x55bb36897": 7362,
      "0x55bb368f2": 7363,
      "0x55bb36853": 7364,
      "0x55bb368ba": 7365,
      "0x55bb36852": 7366,
      "0x55bb36872": 7367,
      "0x55bb368b3": 7368,
      "0x55bb368cc": 7369,
      "0x55bb368a8000": 7370,
      "0x55bb36870ff0": 7371,
      "0x55bb38790": 7372,
      "0x55bb38717": 7373,
      "0x55bb38738": 7374,
      "0x55bb38743": 7375,
      "0x55bb38771": 7376,
      "0x55bb387cc": 7377,
      "0x55bb3873c": 7378,
      "0x55bb387c7": 7379,
      "0x55bb387ea8": 7380,
      "0x55bb37598": 7381,
      "0x55bb37550": 7382,
      "0x55bb37591": 7383,
      "0x55bb375ec": 7384,
      "0x55bb37594": 7385,
      "0x55bb375f7": 7386,
      "0x55bb3755a": 7387,
      "0x55bb37573": 7388,
      "0x55bb375b3": 7389,
      "0x55bb375e7fc0": 7390,
      "0x55bb375eafc0": 7391,
      "0x55bb375f5c90": 7392,
      "0x7fc15e2d0": 7393,
      "0x7fc15e296": 7394,
      "0x7fc15e2d8": 7395,
      "0x7fc15e243": 7396,
      "0x7fc15e233": 7397,
      "0x7fc15e276": 7398,
      "0x7fc15e275": 7399,
      "0x7fc15e2ac": 7400,
      "0x7fc15e236": 7401,
      "0x7fc15e225": 7402,
      "0x7fc15e26d": 7403,
      "0x7fc15e2d4db0": 7404,
      "faa0": 7405,
      "fa18": 7406,
      "faf50": 7407,
      "fa2e0": 7408,
      "0x55bb38050": 7409,
      "0x55bb38053": 7410,
      "0x55bb380da": 7411,
      "0x55bb380b3": 7412,
      "0x55bb38074": 7413,
      "0x55bb36cfd": 7414,
      "0x55bb36c17": 7415,
      "0x55bb36ceb": 7416,
      "0x55bb36c46": 7417,
      "0x55bb36cfb": 7418,
      "0x55bb36c63": 7419,
      "0x55bb36c71": 7420,
      "0x55bb36cccfd0": 7421,
      "0x55bb370e1": 7422,
      "0x55bb37048": 7423,
      "0x55bb370e6": 7424,
      "0x55bb370f7": 7425,
      "0x55bb37073": 7426,
      "0x55bb370d3": 7427,
      "0x55bb370b8ee0": 7428,
      "91f0": 7429,
      "91dc0": 7430,
      "91c00": 7431,
      "0x55bb385f3": 7432,
      "0x55bb38511": 7433,
      "0x55bb385b6": 7434,
      "0x55bb38542": 7435,
      "0x55bb38572": 7436,
      "0x55bb38533": 7437,
      "0x55bb385a6": 7438,
      "0x55bb37af": 7439,
      "0x55bb37ae3": 7440,
      "0x55bb37af7": 7441,
      "0x55bb37a63": 7442,
      "0x55bb37aa3": 7443,
      "0x55bb377ea": 7444,
      "0x55bb377bf": 7445,
      "0x55bb377b8": 7446,
      "0x55bb37721": 7447,
      "0x55bb377f8": 7448,
      "0x55bb37778": 7449,
      "0x55bb37758": 7450,
      "0x55bb3779c": 7451,
      "0x55bb377e6": 7452,
      "0x55bb3779a": 7453,
      "0x55bb37794": 7454,
      "0x55bb37793": 7455,
      "0x55bb377f7": 7456,
      "0x55bb3776c": 7457,
      "0x55bb377bc": 7458,
      "0x55bb37725": 7459,
      "0x55bb377d8fe0": 7460,
      "0x55bb37818": 7461,
      "0x55bb37870": 7462,
      "0x55bb378fd": 7463,
      "0x55bb378c0": 7464,
      "0x55bb37817": 7465,
      "0x55bb37878": 7466,
      "0x55bb3789c": 7467,
      "0x55bb378f7": 7468,
      "0x55bb378e2": 7469,
      "0x55bb378fa0": 7470,
      "0x55bb378ba": 7471,
      "0x55bb378a1": 7472,
      "0x55bb37857fc0": 7473,
      "0x55bb378f5fd0": 7474,
      "0x55bb37ce": 7475,
      "0x55bb37cfd": 7476,
      "0x55bb37c13": 7477,
      "0x55bb37ca8": 7478,
      "0x55bb37cec": 7479,
      "0x55bb37cf3": 7480,
      "0x55bb37c43": 7481,
      "0x55bb37c71": 7482,
      "0x55bb37c75": 7483,
      "0x55bb373bb": 7484,
      "0x55bb373e8": 7485,
      "0x55bb37394": 7486,
      "0x55bb373fb": 7487,
      "0x55bb3739d": 7488,
      "0x55bb373b2": 7489,
      "0x55bb3734a": 7490,
      "0x55bb373ca": 7491,
      "0x55bb37361": 7492,
      "0x55bb37324": 7493,
      "9c10": 7494,
      "9cd20": 7495,
      "9cd90": 7496,
      "9cb70": 7497,
      "9cc70": 7498,
      "70008": 7499,
      "0x55bb37621": 7500,
      "0x55bb376e6": 7501,
      "0x55bb376f5": 7502,
      "0x55bb37673": 7503,
      "0x55bb376cc": 7504,
      "0x55bb37655fe0": 7505,
      "ec40": 7506,
      "ec18": 7507,
      "ecb0": 7508,
      "ecd00": 7509,
      "ec270": 7510,
      "ecc20": 7511,
      "d118": 7512,
      "d160": 7513,
      "d128": 7514,
      "d1ff8": 7515,
      "d1500": 7516,
      "d1ee8": 7517,
      "0xc44": 7518,
      "0x55bb38a99": 7519,
      "0x55bb38a43": 7520,
      "0x55bb38ab3": 7521,
      "0x55bb38aa4fd0": 7522,
      "0x55bb38a75fc0": 7523,
      "e678": 7524,
      "e6ff8": 7525,
      "e6bb0": 7526,
      "e6c90": 7527,
      "e6f88": 7528,
      "e6ea8": 7529,
      "0x55bb38821": 7530,
      "0x55bb388e6": 7531,
      "0x55bb388e9": 7532,
      "0x55bb38872": 7533,
      "0x55bb3882a": 7534,
      "0x55bb388d78": 7535,
      "0x55bb388ddfe0": 7536,
      "0x55bb3881cfe0": 7537,
      "9a30": 7538,
      "9ae8": 7539,
      "9aff8": 7540,
      "9ad30": 7541,
      "9add0": 7542,
      "9ad98": 7543,
      "0x55bb390e0": 7544,
      "0x55bb390a8": 7545,
      "0x55bb390e7": 7546,
      "0x55bb39088": 7547,
      "0x55bb390764c0": 7548,
      "0x55bb386a8": 7549,
      "0x55bb386e4": 7550,
      "0x55bb38641": 7551,
      "0x55bb386d6": 7552,
      "0x55bb39818": 7553,
      "0x55bb398f1": 7554,
      "0x55bb3981a": 7555,
      "0x55bb39832": 7556,
      "0x55bb372e": 7557,
      "0x55bb372e0": 7558,
      "0x55bb37290": 7559,
      "0x55bb3729c": 7560,
      "0x55bb372fb": 7561,
      "0x55bb37233": 7562,
      "0x55bb372dd": 7563,
      "0x1cfa1": 7564,
      "0x55bb382a0": 7565,
      "0x55bb382b0": 7566,
      "0x55bb382b2": 7567,
      "0x55bb38268ff0": 7568,
      "0x55bb393ff": 7569,
      "0x55bb393e9fe0": 7570,
      "0x55bb39320010": 7571,
      "0x55bb393ea910": 7572,
      "0x55bb393d1500": 7573,
      "0xafb1": 7574,
      "0x55bb3749": 7575,
      "0x55bb374bf": 7576,
      "0x55bb374d1": 7577,
      "0x55bb374e5": 7578,
      "0x55bb374ba": 7579,
      "0x55bb37473": 7580,
      "0x55bb374a6": 7581,
      "9410": 7582,
      "9400": 7583,
      "9490": 7584,
      "94008": 7585,
      "94fa0": 7586,
      "94ce0": 7587,
      "949d0": 7588,
      "94298": 7589,
      "94538": 7590,
      "0x1dfa1": 7591,
      "0x13f91": 7592,
      "0x16f81": 7593,
      "0x55bb36a9": 7594,
      "0x55bb36a80": 7595,
      "0x55bb36af0": 7596,
      "0x55bb36ab0": 7597,
      "0x55bb36a60": 7598,
      "0x55bb36ad8": 7599,
      "0x55bb36af7": 7600,
      "0x55bb36ae7": 7601,
      "0x55bb36a97": 7602,
      "0x55bb36aa3": 7603,
      "0x55bb36a33": 7604,
      "0x55bb36ad7": 7605,
      "0x55bb36a1a": 7606,
      "0x55bb36a260": 7607,
      "0x55bb36a9bff0": 7608,
      "0x55bb36ab2ff0": 7609,
      "0x55bb383e": 7610,
      "0x55bb38317": 7611,
      "0x55bb383f3": 7612,
      "0x55bb383e5": 7613,
      "0x55bb383da": 7614,
      "0x55bb383b5000": 7615,
      "0x55bb38ca0": 7616,
      "0x55bb38c17": 7617,
      "0x55bb38ce5": 7618,
      "0x55bb38c4c": 7619,
      "0x55bb38cb7": 7620,
      "0x55bb38cd10": 7621,
      "0x55bb38c2afd0": 7622,
      "0x55bb396d8": 7623,
      "0x55bb396a3": 7624,
      "0x55bb396ca": 7625,
      "0x55bb396ac": 7626,
      "0x55bb396e6fd0": 7627,
      "0x55bb396a0530": 7628,
      "f600": 7629,
      "f678": 7630,
      "f6ae0": 7631,
      "0x55bb39510": 7632,
      "0x55bb39531": 7633,
      "0x55bb395ec200": 7634,
      "0x55bb381dc": 7635,
      "0x55bb381b8": 7636,
      "0x55bb38128": 7637,
      "0x55bb381c1": 7638,
      "0x55bb38152": 7639,
      "0x55bb381d4fc0": 7640,
      "0x55bb38130d10": 7641,
      "0x55bb381e6bb0": 7642,
      "0x55bb39a96": 7643,
      "0x55bb39ab2": 7644,
      "0x55bb39a6cff0": 7645,
      "0x15b28": 7646,
      "0x55bb37be0": 7647,
      "0x55bb37b50": 7648,
      "0x55bb37b28": 7649,
      "0x55bb37b94": 7650,
      "0x55bb37b11": 7651,
      "0x55bb37b23": 7652,
      "0x55bb37b2c": 7653,
      "0x55bb37b70740": 7654,
      "0x55bb397f3000": 7655,
      "0x55bb3a095": 7656,
      "0x55bb3a0b3": 7657,
      "0x55bb3a020f70": 7658,
      "0x55bb37dd2": 7659,
      "0x55bb37d53": 7660,
      "0x55bb37dd3": 7661,
      "0x55bb37d77": 7662,
      "0x55bb37df81": 7663,
      "0x55bb37d7d000": 7664,
      "9310": 7665,
      "93e0": 7666,
      "93c0": 7667,
      "93b0": 7668,
      "93ae0": 7669,
      "0x55bb39cb3": 7670,
      "0x55bb39c23": 7671,
      "0x55bb39ce3000": 7672,
      "f4920": 7673,
      "f4178": 7674,
      "00000000": 7675,
      "00000001": 7676,
      "e420": 7677,
      "e440": 7678,
      "e4c8": 7679,
      "e44c0": 7680,
      "e4340": 7681,
      "0x55bb391fa7a0": 7682,
      "0x55bb391f3f70": 7683,
      "0x55bb39140e40": 7684,
      "0x55bb3a598000": 7685,
      "e300": 7686,
      "e3a0": 7687,
      "e3b0": 7688,
      "e328": 7689,
      "e3008": 7690,
      "e3690": 7691,
      "fb7d0": 7692,
      "fbc0": 7693,
      "fbd90": 7694,
      "fb790": 7695,
      "0x55bb36d86": 7696,
      "0x55bb36dfd": 7697,
      "0x55bb36dfa": 7698,
      "0x55bb36d4a": 7699,
      "0x55bb36d71": 7700,
      "0x55bb36db1": 7701,
      "0x55bb36d31": 7702,
      "0x55bb36d74fd0": 7703,
      "0x55bb36d42fe0": 7704,
      "9550": 7705,
      "951b8": 7706,
      "f7e0": 7707,
      "f738": 7708,
      "f380": 7709,
      "f340": 7710,
      "0x55bb371ff": 7711,
      "0x55bb37113": 7712,
      "0x55bb371e4": 7713,
      "0x55bb3716a": 7714,
      "0x55bb371b4": 7715,
      "0x55bb371d1fd0": 7716,
      "f5f0": 7717,
      "f590": 7718,
      "f5c0": 7719,
      "f5d90": 7720,
      "f5d70": 7721,
      "f5308": 7722,
      "0x55bb38494": 7723,
      "0x55bb384f4": 7724,
      "0x55bb384cc": 7725,
      "0x55bb3842c": 7726,
      "0x55bb3a3a8": 7727,
      "0x55bb3a344": 7728,
      "0x55bb3a89c": 7729,
      "0x55bb392bf8": 7730,
      "0x55bb39472": 7731,
      "0x55bb394560": 7732,
      "0x55bb3a470": 7733,
      "0x55bb3a455": 7734,
      "0x55bb3a499fe0": 7735,
      "e540": 7736,
      "e570": 7737,
      "e55c0": 7738,
      "e57e8": 7739,
      "0x55bb3bb01": 7740,
      "0x55bb3bbf5": 7741,
      "c1e60": 7742,
      "c1f18": 7743,
      "0x55bb38b11": 7744,
      "0x55bb38bee": 7745,
      "0x55bb38b1c": 7746,
      "0x7fc15e3e": 7747,
      "0x7fc15e3d0": 7748,
      "0x7fc15e35c": 7749,
      "0x7fc15e333": 7750,
      "0x7fc15e375": 7751,
      "0x7fc15e3a1": 7752,
      "0x7fc15e3f70": 7753,
      "0x55bb38d18": 7754,
      "0x55bb38de1": 7755,
      "0x55bb38db8": 7756,
      "0x55bb38de6": 7757,
      "0x55bb38df7": 7758,
      "0x55bb3b8da": 7759,
      "0x55bb3b87b000": 7760,
      "e290": 7761,
      "e26e0": 7762,
      "e2790": 7763,
      "0x55bb3a1fd": 7764,
      "0x55bb3a144": 7765,
      "0x55bb3a1809b0": 7766,
      "0x55bb3c0aa": 7767,
      "0x55bb3c0a1": 7768,
      "0x12f91": 7769,
      "0x55bb3b6f2": 7770,
      "0x55bb3a2c1": 7771,
      "e770": 7772,
      "e7c0": 7773,
      "e7d8": 7774,
      "e7628": 7775,
      "0x55bb3b730": 7776,
      "0x55bb3b72a": 7777,
      "0x55bb3b768fd0": 7778,
      "0x55bb3b7d8fa0": 7779,
      "0x55bb39bc0": 7780,
      "0x55bb39b7c": 7781,
      "0x55bb39be88": 7782,
      "0x55bb3a72aff0": 7783,
      "0x55bb3a7ed6f0": 7784,
      "0x55bb3b5ee000": 7785,
      "0x55bb3ba13": 7786,
      "0x55bb3bae5": 7787,
      "0x55bb3ba5c": 7788,
      "0x55bb3ba1c": 7789,
      "0x55bb3ba950": 7790,
      "92c8": 7791,
      "9270": 7792,
      "97d8": 7793,
      "0x1140": 7794,
      "0x11fb1": 7795,
      "0x55bb36bea": 7796,
      "0x55bb36bd2": 7797,
      "0x55bb36be8": 7798,
      "0x55bb36b9a": 7799,
      "0x55bb36b7a": 7800,
      "0x55bb36b2a": 7801,
      "0x55bb36b61": 7802,
      "0x55bb36bd4": 7803,
      "f2d0": 7804,
      "f2ff8": 7805,
      "0x55bb3c29": 7806,
      "0x55bb3c2e8": 7807,
      "0x55bb3c2cc": 7808,
      "0x55bb39d80": 7809,
      "0x55bb39dec": 7810,
      "0x55bb39d66": 7811,
      "9bd0": 7812,
      "9b240": 7813,
      "9b621": 7814,
      "0x55bb3bc63": 7815,
      "0x55bb3bce6fd0": 7816,
      "0x55bb3b213": 7817,
      "9d10": 7818,
      "9d80": 7819,
      "9d90": 7820,
      "9dd8": 7821,
      "9dff8": 7822,
      "9d960": 7823,
      "9dfd8": 7824,
      "9dfa8": 7825,
      "0x55bb3ace": 7826,
      "0x55bb3acb3ff0": 7827,
      "0x55bb3b49c": 7828,
      "0x55bb3b42cfe0": 7829,
      "0x55bb3c1daff0": 7830,
      "0xbd": 7831,
      "e900": 7832,
      "e940": 7833,
      "e9ff8": 7834,
      "e9980": 7835,
      "e9bf8": 7836,
      "0x55bb3bd9a": 7837,
      "99b8": 7838,
      "99ff8": 7839,
      "99fb0": 7840,
      "99970": 7841,
      "11290": 7842,
      "5300": 7843,
      "5340": 7844,
      "6c30": 7845,
      "6cb8": 7846,
      "6cb0": 7847,
      "6cf50": 7848,
      "6cd78": 7849,
      "f9a0": 7850,
      "f990": 7851,
      "f9a8": 7852,
      "f9100": 7853,
      "f9e28": 7854,
      "4110": 7855,
      "4140": 7856,
      "416f0": 7857,
      "6a008": 7858,
      "55d0": 7859,
      "6340": 7860,
      "63d0": 7861,
      "6338": 7862,
      "63d70": 7863,
      "63770": 7864,
      "b2e0": 7865,
      "b270": 7866,
      "b2e8": 7867,
      "b2a8": 7868,
      "b2de0": 7869,
      "5a20": 7870,
      "5a00": 7871,
      "5ab60": 7872,
      "5a150": 7873,
      "4410": 7874,
      "4420": 7875,
      "4450": 7876,
      "4460": 7877,
      "44a50": 7878,
      "201020": 7879,
      "5c50": 7880,
      "5c90": 7881,
      "5c60": 7882,
      "bae0": 7883,
      "bad0": 7884,
      "ba60": 7885,
      "babe0": 7886,
      "baa90": 7887,
      "b620": 7888,
      "b6920": 7889,
      "b6f40": 7890,
      "b6bd0": 7891,
      "43320": 7892,
      "43300": 7893,
      "43650": 7894,
      "4270": 7895,
      "4228": 7896,
      "42108": 7897,
      "a320": 7898,
      "a3e0": 7899,
      "a340": 7900,
      "a3f0": 7901,
      "a3990": 7902,
      "a3d70": 7903,
      "a3a10": 7904,
      "56e0": 7905,
      "5680": 7906,
      "56e70": 7907,
      "d0100": 7908,
      "52e0": 7909,
      "5270": 7910,
      "52c0": 7911,
      "52b0": 7912,
      "52e40": 7913,
      "73e0": 7914,
      "7378": 7915,
      "73d30": 7916,
      "73eb0": 7917,
      "73310": 7918,
      "73c70": 7919,
      "da80": 7920,
      "daa0": 7921,
      "dab8": 7922,
      "da60": 7923,
      "daa8": 7924,
      "dacc0": 7925,
      "bc10": 7926,
      "bc80": 7927,
      "bc90": 7928,
      "bcc0": 7929,
      "bcfa0": 7930,
      "d640": 7931,
      "d6f0": 7932,
      "d6a0": 7933,
      "d658": 7934,
      "eee0": 7935,
      "4c80": 7936,
      "4ca0": 7937,
      "4cff8": 7938,
      "4c6a0": 7939,
      "4cc70": 7940,
      "4a90": 7941,
      "4ac0": 7942,
      "4aff8": 7943,
      "0x7fc15e89": 7944,
      "0x7fc15e8c3": 7945,
      "0x7fc15e84d8": 7946,
      "0x7fc15e89e6": 7947,
      "0x7fc15e8ebc88": 7948,
      "0x7fc15e8fb7d0": 7949,
      "0x7fc15e84cc70": 7950,
      "7198": 7951,
      "7190": 7952,
      "71c0": 7953,
      "7168": 7954,
      "71fa0": 7955,
      "7a50": 7956,
      "0x7fc15edd0": 7957,
      "0x7fc15ed94": 7958,
      "0x7fc15edb2": 7959,
      "0x7fc15edda": 7960,
      "0x7fc15ed160": 7961,
      "0x7fc15ed7d": 7962,
      "0x7fc15ed86020": 7963,
      "b120": 7964,
      "b1e0": 7965,
      "b1e8": 7966,
      "b1100": 7967,
      "0xbf91": 7968,
      "0x7fc15f810": 7969,
      "0x7fc15f8f7": 7970,
      "0x7fc15f844": 7971,
      "0x7fc15f8ac": 7972,
      "0x7fc15f841580": 7973,
      "0x7fc15f838c58": 7974,
      "0x7fc15f8f5308": 7975,
      "0x7fc15f8b1100": 7976,
      "726f0": 7977,
      "ca98": 7978,
      "cab8": 7979,
      "ca78": 7980,
      "ca490": 7981,
      "fee0": 7982,
      "fe80": 7983,
      "fe50": 7984,
      "3310": 7985,
      "3398": 7986,
      "33f0": 7987,
      "3390": 7988,
      "9e20": 7989,
      "9e50": 7990,
      "7600": 7991,
      "7670": 7992,
      "76b8": 7993,
      "7660": 7994,
      "76f8": 7995,
      "76960": 7996,
      "0x7fc15fcb": 7997,
      "0x7fc15fcf": 7998,
      "0x7fc15fca3": 7999,
      "0x7fc15fc53610": 8000,
      "0x7fc15fc30b98": 8001,
      "0x7fc15fc967f0": 8002,
      "0x7fc15fcf8c98": 8003,
      "0x7fc15fce9bf8": 8004,
      "0x7fc15fc73c70": 8005,
      "0x7fc15ea5": 8006,
      "0x7fc15ea73": 8007,
      "0x7fc15ea7a": 8008,
      "0x7fc15ea72": 8009,
      "0x7fc15eab8d10": 8010,
      "b340": 8011,
      "b370": 8012,
      "b358": 8013,
      "b3120": 8014,
      "b31f0": 8015,
      "aa20": 8016,
      "aaf0": 8017,
      "2300": 8018,
      "2350": 8019,
      "2318": 8020,
      "23990": 8021,
      "23520": 8022,
      "7c00": 8023,
      "7c98": 8024,
      "7c50": 8025,
      "7c40": 8026,
      "7cf0": 8027,
      "7ce8": 8028,
      "7cb00": 8029,
      "d300": 8030,
      "d330": 8031,
      "d3f0": 8032,
      "d390": 8033,
      "d3f20": 8034,
      "d3b08": 8035,
      "0x55bb366e2": 8036,
      "0x55bb366f7fc0": 8037,
      "0x7fc15ffb": 8038,
      "0x7fc15fff": 8039,
      "0x7fc15ff9a": 8040,
      "0x7fc15ff75": 8041,
      "0x7fc15ffc6": 8042,
      "0x7fc15ffeb0": 8043,
      "0x7fc15ff550": 8044,
      "0x7fc15ff260": 8045,
      "0x7fc15e67": 8046,
      "0x7fc15e6ba": 8047,
      "0x7fc15e6ef": 8048,
      "0x7fc15e690e90": 8049,
      "0x7fc15e6faf50": 8050,
      "0x7fc15e694538": 8051,
      "0x7fc15e6e7628": 8052,
      "0x7fc15e643650": 8053,
      "5430": 8054,
      "54d0": 8055,
      "54f0": 8056,
      "5460": 8057,
      "5478": 8058,
      "54fb0": 8059,
      "54b70": 8060,
      "cc70": 8061,
      "ccd8": 8062,
      "cce10": 8063,
      "104010": 8064,
      "2ae0": 8065,
      "2a40": 8066,
      "2acd0": 8067,
      "0x7fc15f01": 8068,
      "0x7fc15f02": 8069,
      "0x7fc15f0e": 8070,
      "0x7fc15f011": 8071,
      "0x7fc15f0d7": 8072,
      "0x7fc15f0948": 8073,
      "0x7fc15f0fb820": 8074,
      "0x7fc15f0c0258": 8075,
      "2650": 8076,
      "2670": 8077,
      "2660": 8078,
      "26ff8": 8079,
      "26b60": 8080,
      "26c08": 8081,
      "7450": 8082,
      "7440": 8083,
      "74f0": 8084,
      "7468": 8085,
      "7428": 8086,
      "2c10": 8087,
      "2cf0": 8088,
      "2cb0": 8089,
      "2cff8": 8090,
      "2cde0": 8091,
      "2c750": 8092,
      "0x7fc15f197": 8093,
      "0x7fc15f1c2950": 8094,
      "0x7fc15f120ef0": 8095,
[...]
